[PAD]
[UNK]
[CLS]
[SEP]
[MASK]
!
"
#
$
%
&
(
)
*
+
-
.
/
0
1
2
3
4
5
6
7
8
9
:
;
<
=
>
?
@
A
B
C
D
E
F
G
H
I
J
K
L
M
N
O
P
Q
R
S
T
U
V
W
X
Y
Z
[
\\
]
^
_
`
a
b
c
d
e
f
g
h
i
j
k
l
m
n
o
p
q
r
s
t
u
v
w
x
y
z
{
|
}
~
¡
¢
£
¤
¥
¦
§
¨
©
ª
«
¬
®
¯
°
±
²
³
´
µ
¶
·
¸
¹
º
»
¼
½
¾
¿
Â
Ã
Ç
É
Ö
×
Ø
Ù
Ü
Þ
ß
à
á
â
ã
ä
å
æ
ç
è
é
ê
ë
í
î
ï
ñ
ó
ô
ö
÷
ø
ú
û
ü
ý
ā
ă
Ą
ą
ć
ĉ
č
Đ
đ
ę
ě
ğ
ī
İ
ı
Ļ
Ł
ł
ŋ
ő
Œ
œ
ř
Ś
ś
Ş
ş
Š
š
ţ
ū
ŷ
ż
ž
ƒ
ư
ǁ
ə
ʘ
ʲ
ʶ
ʿ
ˆ
˙
˚
̲
̳
̴
̸
ͼ
·
Ξ
Σ
Ω
ά
έ
ή
ί
α
β
γ
δ
ε
ζ
η
ι
κ
λ
μ
ν
ξ
ο
π
ρ
ς
σ
τ
υ
φ
χ
ψ
ω
ό
Ϡ
А
Б
В
Г
Д
Е
З
И
К
Л
М
Н
О
П
Р
С
Т
У
Ф
Я
а
б
в
г
д
е
ж
з
и
й
к
л
м
н
о
п
р
с
т
у
ф
х
ц
ч
ш
щ
ъ
ы
ь
э
ю
я
ё
є
ѕ
і
ї
ѽ
҈
҉
Җ
Ҳ
ҳ
һ
ա
ּ
־
א
ב
ג
ד
ה
ו
ז
ח
ט
י
כ
ל
ם
מ
ן
נ
ס
ע
פ
צ
ק
ר
ש
ת
װ
״
،
؛
؟
ء
آ
أ
ؤ
إ
ئ
ا
ب
ة
ت
ث
ج
ح
خ
د
ذ
ر
ز
س
ش
ص
ض
ط
ظ
ع
غ
ػ
ـ
ف
ق
ك
ل
م
ن
ه
و
ى
ي
ً
ٌ
ٍ
َ
ُ
ِ
ّ
ْ
ٓ
ٔ
ٕ
٠
١
٢
٣
٤
٥
٦
٧
٨
٩
٪
٫
٬
٭
ٰ
ٱ
ٲ
ٳ
ٹ
ٺ
ٻ
ټ
پ
چ
ڈ
ڑ
ڔ
ڕ
ژ
ڙ
ڛ
ڠ
ڤ
ڨ
ک
ڪ
ڬ
ڭ
گ
ڳ
ڵ
ڷ
ڸ
ڹ
ں
ڼ
ھ
ہ
ۂ
ۃ
ۆ
ۈ
ۉ
ۋ
ی
ێ
ې
ے
ۓ
۔
ە
ۖ
ۗ
ۚ
۞
ۡ
۩
۪
۫
۰
۱
۲
۳
۴
۵
۶
۷
۸
۹
ܐ
ܓ
ܔ
ܨ
र
ा
ी
्
ॐ
ঔ
র
া
ৣ
৲
৴
ਿ
ੀ
ઇ
இ
ஐ
ஓ
ஜ
ண
ஷ
ஹ
்
ಏ
ಞ
ೋ
್
്
ก
ง
ด
ท
น
บ
ม
ย
ร
ล
ว
ส
ห
อ
ะ
ั
า
ิ
ี
฿
เ
่
้
๏
๑
༄
დ
ო
რ
ღ
ჲ
჻
ᵜ
Ḥ
ṭ
ả
ị
–
—
‗
‘
’
‚
“
”
„
†
‡
•
…
‰
″
‹
›
‼
‾
‿
⁄
₡
₩
₪
₫
€
₹
℃
ℓ
™
←
↑
→
↓
↵
−
∙
√
∞
∫
≈
≡
⊰
⊱
⋘
⋰
⋱
⌐
│
┣
┨
═
╔
╠
╣
╬
▁
▂
▃
▅
▆
▇
█
▌
▏
▐
░
▒
▓
■
□
▪
▫
▬
▲
▶
►
▼
◀
◁
◄
◆
◇
◊
○
●
◐
◑
◕
◘
◙
◢
◣
◥
◦
☀
☂
★
☆
☎
☏
☜
☞
☺
☻
☼
♀
♂
♔
♕
♛
♠
♡
♣
♥
♦
♨
♩
♪
♫
♬
♭
⚛
⚜
⚽
✅
✍
✎
✒
✔
✖
✦
✨
✲
✽
✿
❀
❝
❞
❤
❥
➖
➞
⟰
⠀
⭐
ⴰ
ⴷ
ⵉ
ⵎ
ⵏ
ⵓ
ⵔ
ⵙ
ⵜ
、
。
」
【
】
〖
〗
あ
い
う
お
か
が
き
く
こ
さ
し
す
た
っ
て
で
と
な
に
の
は
ま
も
ら
り
る
れ
を
ん
゜
ア
イ
ウ
カ
ク
グ
コ
サ
シ
ジ
ス
タ
ッ
ツ
ト
ド
フ
ブ
プ
マ
ミ
ム
メ
ラ
リ
ル
レ
ロ
ン
・
ー
ㄨ
ㅤ
㋡
一
三
上
下
不
个
中
乂
么
乐
了
争
二
京
人
以
件
会
体
作
信
全
公
六
出
分
北
博
发
可
台
号
合
吗
和
品
国
图
在
地
场
坛
城
备
多
大
天
奖
娱
子
学
安
官
家
小
市
平
年
开
式
彡
彩
心
快
怎
成
手
报
提
文
料
新
方
日
时
是
最
月
有
期
本
机
果
水
法
注
港
爱
版
特
现
理
生
用
的
码
神
票
福
站
网
肖
能
自
行
要
語
计
论
设
赛
车
软
部
金
门
霸
香
马
高
국
한
טּ
פֿ
ﮧ
ﮯ
ﯣ
ﯾ
﴾
﴿
ﷺ
️
ﺂ
ﺃ
ﺇ
ﺋ
ﺌ
ﺍ
ﺎ
ﺏ
ﺐ
ﺑ
ﺒ
ﺓ
ﺔ
ﺕ
ﺗ
ﺘ
ﺛ
ﺟ
ﺠ
ﺣ
ﺤ
ﺧ
ﺨ
ﺩ
ﺪ
ﺭ
ﺮ
ﺯ
ﺰ
ﺲ
ﺳ
ﺴ
ﺷ
ﺸ
ﺻ
ﺼ
ﺿ
ﻃ
ﻄ
ﻊ
ﻋ
ﻌ
ﻐ
ﻒ
ﻓ
ﻔ
ﻕ
ﻖ
ﻗ
ﻘ
ﻚ
ﻛ
ﻜ
ﻝ
ﻞ
ﻟ
ﻠ
ﻡ
ﻢ
ﻣ
ﻤ
ﻥ
ﻦ
ﻧ
ﻨ
ﻪ
ﻫ
ﻬ
ﻭ
ﻮ
ﻰ
ﻱ
ﻲ
ﻳ
ﻴ
ﻵ
ﻷ
ﻹ
ﻻ
ﻼ
（
）
，
：
｡
￼
🇦
🇸
🌷
🌸
🌹
🌻
🏻
👇
👌
👍
💔
💕
💙
💯
🔥
🔴
🕔
😂
😍
🙂
##ل
##ص
##ن
##ف
##ا
##ت
##ِ
##م
##ُ
##ر
##س
##َ
##ة
##ْ
##أ
##ش
##ق
##1
##ز
##ك
##ه
##ي
##ج
##و
##o
##u
##n
##a
##h
##l
##j
##s
##7
##r
##ع
##ب
##ط
##ظ
##ّ
##د
##ـ
##H
##D
##R
##غ
##ذ
##ً
##2
##3
##ح
##ض
##ث
##ئ
##P
##z
##X
##5
##A
##y
##آ
##L
##I
##N
##C
##ی
##إ
##i
##8
##6
##Y
##T
##0
##k
##t
##ى
##e
##™
##خ
##d
##p
##E
##F
##b
##J
##ء
##9
##ٍ
##ؤ
##ٌ
##ٱ
##M
##c
##x
##f
##m
##g
##🏻
##♂
##е
##р
##ш
##д
##й
##部
##か
##ら
##の
##な
##に
##も
##こ
##っ
##て
##お
##り
##ま
##す
##で
##٣
##٥
##٦
##ٰ
##4
##ﻟ
##ﻌ
##국
##v
##安
##成
##本
##گ
##്
##♥
##️
##U
##Q
##V
##١
##ﻻ
##อ
##ง
##เ
##ท
##้
##า
##ั
##่
##น
##是
##么
##生
##肖
##ۡ
##ﯾ
##O
##S
##B
##چ
##é
##G
##۳
##۲
##۶
##✔
##不
##家
##在
##日
##的
##٤
##٨
##ø
##😍
##🌷
##¤
##Z
##K
##ी
##ร
##ล
##Ã
##в
##т
##о
##с
##и
##г
##н
##а
##л
##з
##ц
##w
##۹
##۸
##á
##💙
##ک
##q
##神
##争
##霸
##果
##下
##式
##用
##品
##高
##人
##作
##í
##ە
##ۋ
##ﺎ
##ﺩ
##ﻱ
##ڤ
##κ
##ά
##λ
##α
##ﮧ
##پ
##٠
##▃
##я
##ы
##м
##ь
##к
##ہ
##👍
##W
##ä
##О
##Р
##ş
##最
##版
##®
##☼
##✿
##٩
##ﻣ
##ﺗ
##ğ
##ο
##ι
##²
##у
##小
##学
##特
##一
##公
##法
##ん
##は
##ド
##×
##ı
##ü
##ٹ
##さ
##き
##あ
##る
##と
##彡
##☆
##ー
##ル
##イ
##ン
##を
##い
##方
##が
##ڨ
##э
##信
##ю
##ھ
##体
##â
##€
##新
##出
##ﻓ
##ﺘ
##ā
##ת
##ח
##י
##п
##以
##机
##多
##è
##ö
##ա
##发
##地
##和
##年
##博
##怎
##ﺍ
##ﺤ
##ﺒ
##ﻴ
##ﺕ
##京
##赛
##车
##号
##期
##º
##行
##ღ
##有
##官
##网
##ͼ
##ア
##レ
##ス
##彩
##ム
##カ
##٢
##٧
##子
##◢
##㋡
##◣
##全
##く
##し
##中
##ﺴ
##ﻨ
##ﺔ
##ٔ
##б
##ڭ
##国
##要
##ा
##ж
##ٓ
##ă
##う
##ﻘ
##ﻲ
##ý
##合
##自
##理
##论
##个
##平
##台
##时
##ڪ
##图
##六
##ۆ
##א
##כ
##ו
##נ
##х
##і
##ï
##ע
##ל
##ב
##ם
##大
##ے
##ห
##ว
##ย
##ก
##♠
##ﻷ
##ม
##ô
##❤
##ッ
##ト
##金
##ڕ
##ٻ
##软
##件
##ч
##ﺧ
##ﺮ
##乂
##◄
##ţ
##ツ
##た
##¯
##ˆ
##ۃ
##ﻤ
##ﺭ
##ﺼ
##ﻮ
##娱
##乐
##城
##ū
##Ù
##Ø
##¹
##±
##¨
##©
##月
##ę
##ś
##ז
##ۂ
##了
##快
##三
##开
##奖
##北
##ٲ
##ξ
##ε
##ν
##ς
##ﺟ
##°
##フ
##ﺃ
##ﺻ
##●
##市
##场
##ק
##ר
##分
##С
##计
##ó
##ク
##リ
##ﺳ
##ﺓ
##🌹
##れ
##ə
##门
##ř
##ﻧ
##ﻄ
##心
##һ
##→
##ф
##站
##ڛ
##К
##υ
##ζ
##η
##τ
##ή
##σ
##ω
##注
##手
##香
##港
##ٺ
##プ
##シ
##Ф
##ラ
##μ
##ڷ
##۵
##̴
##̲
##š
##ъ
##タ
##ﻛ
##ﺐ
##二
##್
##ě
##天
##水
##坛
##ี
##ด
##ิ
##บ
##ะ
##👌
##ﻞ
##💕
##ﻼ
##ﺠ
##ﺪ
##ד
##Ω
##グ
##Е
##З
##А
##ﻪ
##П
##能
##码
##ﺑ
##ﻬ
##ﻚ
##צ
##ﺸ
##可
##ה
##ą
##æ
##○
##☺
##Š
##ﻳ
##福
##ں
##ﻫ
##č
##î
##ﻭ
##ﻔ
##ρ
##✅
##ש
##Г
##ό
##ﺰ
##´
##上
##👇
##ﻠ
##ﻦ
##ﻥ
##ジ
##̳
##מ
##ן
##å
##ﺏ
##ﻝ
##ﺣ
##ﺛ
##马
##া
##র
##🔥
##ێ
##щ
##ё
##פ
##ג
##۱
##۰
##ო
##文
##რ
##½
##£
##⚽
##ﻃ
##ﺇ
##コ
##会
##料
##ﺯ
##ﻡ
##ﻢ
##ミ
##ٕ
##ﻋ
##۴
##ﮯ
##ﺨ
##ۈ
##ﻐ
##设
##备
##ט
##¬
##्
##र
##Н
##Ξ
##ç
##ł
##ٳ
##ﻊ
##ﻜ
##ﺲ
##♡
##ې
##ﻹ
##ž
##்
##爱
##ண
##ס
##♀
##−
##დ
##É
##ロ
##💔
##ﷺ
##έ
##ﺿ
##ҳ
##Ҳ
##吗
##ê
##Â
##提
##现
##є
##ڈ
##ژ
##★
##ﻵ
##ë
##ã
##ѕ
##µ
##ƒ
##¾
##ػ
##۞
##۩
##И
##Л
##৲
##✨
##ܐ
##İ
##π
##χ
##γ
##δ
##β
##票
##œ
##¥
##û
##😂
##ۚ
##サ
##ć
##Т
##В
##ż
##У
##ۗ
##报
##¦
##ۉ
##メ
##à
##ส
##๑
##∫
##ڠ
##ί
##ﺂ
##Ü
##ﻒ
##Д
##ﺷ
##φ
##マ
##ﻰ
##✦
##М
##ß
##Ś
##╔
##🔴
##🌸
##ڵ
##ṭ
##Ö
##¢
##♦
##█
##≈
##🌻
##ﻗ
##ڑ
##ブ
##ஐ
##ú
##ʲ
##►
##÷
##Б
##Я
##ª
##³
##Ç
##Ş
##۷
##∙
##ℓ
##√
##◦
##Ł
##ウ
##ڬ
##↓
##ઇ
##¸
##￼
##ڼ
##ﻖ
##ї
##⠀
##│
##⁄
##ۓ
##Ą
##❞
##▪
##Đ
##ּ
##❀
##▌
##ñ
##🇸
##ī
##🇦
##❝
##♪
##₡
##┨
##₪
##ư
##ⴰ
##ⵉ
##ⵏ
##💯
##■
##ۖ
##❥
##ੀ
##♫
##╣
##╠
##ڸ
##Σ
##இ
##ŋ
##ڔ
##ﺋ
##Œ
##ڳ
##한
##ő
##¼
##♛
##ﺌ
##ܓ
##̸
##▬
##←
##ʿ
##語
##ܔ
##ㅤ
##ﻕ
##ஓ
##҉
##▫
##♔
##▅
##▆
##▇
##∞
##טּ
##□
##ả
##ψ
##đ
##◘
##⭐
##℃
##ஹ
##ټ
##♣
##۪
##☜
##Ϡ
##ৣ
##♩
##✎
##ڹ
##✖
##◊
##☞
##╬
##↑
##ೋ
##˚
##ڙ
##♨
##▓
##ܨ
##Җ
##҈
##┣
##☀
##⚜
##═
##◆
##ⵜ
##➖
##ŷ
##ⵙ
##װ
##▶
##⊰
##▒
##☻
##ⴷ
##░
##৴
##✲
##ॐ
##ஜ
##▲
##▼
##Þ
##▁
##⋰
##ঔ
##۫
##ⵎ
##✒
##◀
##♕
##▂
##☎
##🙂
##ị
##◐
##♬
##ਿ
##˙
##↵
##ĉ
##ⵔ
##▐
##◇
##ⵓ
##◕
##Ļ
##✍
##ㄨ
##ﯣ
##פֿ
##ஷ
##⊱
##฿
##◥
##ʶ
##▏
##≡
##ǁ
##✽
##☏
##₩
##Ḥ
##☂
##♭
##ಞ
##◙
##◁
##◑
##⋱
##ѽ
##₫
##ʘ
##₹
##⋘
##🕔
##⚛
##゜
##ჲ
ال
##ال
##ات
##ية
الم
##ان
##ار
من
##ين
##ام
في
وال
الع
الت
##ول
##ري
##ون
##را
##ها
##لى
##لي
##ير
الأ
##ــ
##اب
##دي
##ور
##نا
##ست
##وا
##لا
##يا
##ما
لل
على
الس
الا
##بي
الح
##دة
##وم
##ائ
##اء
بال
##دى
أن
الش
الق
##يل
##سم
الج
##نت
عن
##هم
منت
الب
الإ
##رب
##اد
##مل
الد
الف
الن
##اع
##رو
##اف
مع
الك
##رك
##سل
##يم
##رة
الص
الل
منتدى
##يد
##وق
الخ
##لك
##عة
##ذا
##قة
##بر
##عد
##عل
20
##ود
##يات
##يس
##يف
الر
ان
وت
##مة
إلى
##من
ما
لا
##اني
##مي
مح
##تر
##ــــ
##بة
##حة
##قد
##لة
قسم
##يت
##كن
أو
##سي
201
##اص
##با
##رف
الط
مج
##ني
##كل
##خر
الذ
الو
التي
##تو
تح
والم
##ارة
وأ
##تم
##دا
علي
##سب
الث
##بار
##تح
لم
##er
##في
وا
##لم
##بل
الله
##وي
##قي
وم
تع
##لف
##كر
##وب
##عم
##جه
##اه
##كت
##صل
##ذه
##وع
##اض
##الم
##وف
##مد
كل
##تي
##نة
بن
##قت
##صر
##ارات
##دم
##اري
كان
##شر
##بد
است
##مر
##اً
##سة
هذا
##قل
##كم
##حد
المنت
##عي
العام
##حي
##رض
##جم
العين
مش
##لب
مد
##راء
##وج
##انية
##سط
##وت
##ورة
##لال
##اج
الي
##هر
##ربية
##نية
##يع
##وات
بعد
##خص
##يرة
##ليز
وه
بر
##خت
##كون
##عض
هذه
##ئيس
##عا
##وس
##امج
##جل
##عت
بين
##در
##زة
إن
##لام
##الي
##وض
##حت
الذي
##فس
##رق
##كة
##أن
مت
مس
##ركة
مط
##سلام
المت
أي
##اس
##ند
##اح
##ته
##ظر
##وقع
##هد
عمل
المن
الز
أم
##ولة
##بن
تق
والت
الان
##نس
المس
##وري
##وان
##عية
الى
##يز
##ديد
##كس
##وية
##فر
##اط
##يب
وب
تم
##ليم
تص
##خل
##يه
##قال
##وز
وع
المش
##قات
الغ
##عب
للم
##فض
##افة
##on
##كية
هو
##طف
المح
اله
##خبار
##ثر
##كان
##طة
##ينة
##ًا
الموا
##رح
بم
##ديات
عند
##رياض
##رت
##at
##وى
##الة
##ur
لت
##ريق
##كا
##يون
##َّ
مست
الأم
##فا
اليوم
##دد
##رج
##وك
التع
##بت
##ميع
##الية
وي
المنتدى
أك
فى
يت
القر
##از
خلال
##له
ذلك
##رائ
##عر
تن
عام
الاست
المست
##اصة
##راف
بل
له
موا
يم
##رد
##بية
البي
عبد
##ar
عملية
سي
عليه
##00
ولا
##قط
الآ
##as
##قر
وإ
##ـــ
المع
2018
##يان
##ئة
كما
##ذلك
##جد
##لت
##فة
بت
##رات
حي
قد
##اش
قال
##صال
العربية
##كي
العالم
آخر
وح
محمد
##يج
أس
غير
##أس
النظر
##وار
مطار
##بات
يع
المد
##وال
##قع
بش
بد
##لس
أب
هي
##ربي
عم
##حات
يوم
وس
##ثل
ول
تش
##طفال
بح
النا
الرياض
##جت
قبل
##صول
الأول
##تى
الليز
##ابة
كت
##صف
##in
وز
##وة
الدول
##ger
به
##فضل
الأس
انت
ون
تت
أح
##or
sur
المج
##ائل
19
##اريخ
والأ
##ومة
##فع
##بح
##سات
##يك
تج
وج
##يو
مص
##طر
الشب
##طل
##gery
surgery
با
##غة
السيا
يمكن
المص
##ناء
##ــــــــ
##لات
حول
##ضر
##ثة
وك
حيث
حل
السع
##سية
##شف
##ضاء
##ولا
رئيس
##es
البح
##وعة
##رش
لي
##ميل
تس
ست
حتى
المتح
##خد
ومن
##تها
##انات
هنا
##انون
##an
las
##كات
##طن
##ركز
##سلم
شركة
##ورية
##ارية
##جتما
##قى
##قا
للت
##ديدة
الاب
##راق
الرئيس
##ريد
##en
##قم
##جة
التح
##خرى
##قدم
لأ
ام
##ياه
##حن
##شار
بعض
##عات
##ضيع
##به
تط
تر
##ac
صور
الض
##حيح
##صة
البر
##امل
بالم
##رس
جميع
يق
مؤ
##يخ
مخ
والع
حس
الخاصة
ثم
##ترون
##يش
##ديم
##خدم
##واء
##عضاء
##لاح
##ديو
##ثير
##فت
##ودية
##بع
يح
##ومات
قر
العمل
مجلس
كانت
##ضا
##ريم
موقع
##امة
##جن
فر
##دارة
مصر
##ياء
##اعدة
##وضوع
##يني
##ادي
##جهزة
##عمال
الجم
##al
العامة
المتحدة
إذا
##جر
وف
##طقة
وق
##ظام
الإسلام
##وير
الرا
##زل
10
##ينا
##راض
##إن
مق
11
اس
##ائر
##الف
##علم
بأ
##هل
اخ
##جيل
يج
##ودة
الام
##نوات
##ريف
##عف
##ليل
برامج
##راج
##ماء
وش
##عار
وهو
المؤ
##is
الليزك
او
منتديات
##ختلف
##شت
##غير
وفي
##لع
##ارج
##اعة
والح
##لاج
##عيون
شب
##مال
اح
أنه
##om
ات
دول
الات
بها
ey
##وص
المخ
يكون
الصف
##ظيف
##افظ
##بط
##خدام
المر
مجاني
##قتص
عدد
##عين
##نامج
ولك
##بير
الحك
للعيون
##صد
المنا
##قية
##ميم
لك
عالم
##ائية
الصح
للد
ين
##ونة
الوط
##علام
##طب
تد
##لسط
##قب
تأ
##قس
##ديث
رس
والا
والإ
بي
##مت
الماء
نق
##ضع
eye
السعودية
##توى
##انيا
بك
فيها
وقد
لكن
العل
##قاء
##وتر
##فل
##am
##مان
المغ
لح
اب
##دات
نفس
فيه
##ويت
##فاع
حق
##ياة
عل
##صح
##وح
أول
##ion
##لاء
##سلسل
إلا
ولكن
##ارت
##عمل
بأن
المياه
خط
مكت
الجز
والس
##ائق
##اة
##ركات
فقط
##ّة
التص
لن
##ليات
14
##فلام
##يط
##ويل
##ارس
##اخل
12
##أة
لو
بط
الوا
##طية
ضعف
التعليم
200
##نان
الفر
يست
المو
نت
##ظم
لأن
##روض
##يادة
##واب
##دث
##قه
بإ
##ينية
##خول
##ضافة
أكثر
الكت
والش
الشيخ
الاطفال
دون
##كتور
##امعة
التق
التن
مثل
الموقع
فإن
يتم
##وث
##كري
الـ
##ياً
##كد
بق
##ابات
##بيوتر
اللغة
اي
عبر
العربي
ود
##وائ
##ic
##لاق
##رفة
##اك
وقال
يد
HD
أحد
بالت
سب
التج
للا
##نى
للأ
إلي
بشكل
لها
بنا
##زيد
##قبل
شي
##مار
رم
نوف
لج
الال
##غي
طلب
##act
السي
##الات
التس
##راً
##رير
مو
تست
ابن
##ملكة
##اق
وان
رقم
##مام
دي
الأخ
##رم
##جمع
وَ
##دية
##عيد
أد
##تك
الرس
##هي
جم
محتوى
##مس
##ؤول
##ائي
##بيع
الولا
##روس
تحت
##جز
##تمع
تف
الاسلام
##هما
laser
أع
##روع
سيا
التب
الشبكية
##لاث
المه
يس
##زي
وكان
##جي
شخص
السنة
##ِي
15
هناك
يش
الثال
الاس
اعت
##اث
لإ
تكون
بالليز
##ed
لع
ترك
أش
##وط
##لية
نس
##يانة
##وه
المنتديات
ملف
##ادية
جز
مل
##صص
##يض
العم
##it
عليها
##واصل
##اعد
##جات
الوق
##يمة
##ورات
##الب
الاجتما
##سبب
البيضاء
##اي
الثاني
الأح
##زم
##ودي
الوز
cat
العاب
##راك
والد
لبن
سن
##غط
الذين
الرو
كتب
##قيق
##سن
والن
##ادر
أف
##طار
للح
##دمة
فت
حلقة
الأد
منذ
##زب
أخ
مجم
##em
##راه
##ذكر
##مبيوتر
##لاد
##توسط
الحل
##راد
##شرة
##اذ
وهي
##aract
الطب
##وريا
##فق
الأن
خاص
##لكترون
مك
القسم
تصحيح
وخ
##مبر
صح
##ادة
الصور
##ريب
##شي
##ضي
##مية
##ميز
ملي
##الى
يا
##صور
##طاع
##غم
سل
cataract
العيون
##احة
مركز
أخبار
ليس
##ديل
المساعدة
##رين
2017
##لق
الآن
الموضوع
الولايات
مدينة
منها
##ليغ
##قسام
##st
##ظيم
اخبار
بالليزر
##داً
##يران
المواضيع
##رية
##حراف
وذلك
##لاً
بج
برنامج
ور
##ارك
##قاف
نوفمبر
##ik
وأن
تلك
##باد
إت
##َل
##ro
##دمات
##آن
##يفة
مخالف
أخرى
وقت
##ضاف
##يين
بس
صف
##باح
##بيب
##عادة
الإنس
يُ
الحكومة
جن
##ائف
الماض
السل
صلى
السلام
##َن
اخت
13
والف
وط
##حدث
##ورو
##لاف
##نج
##سرائ
##سين
افضل
تاريخ
##يام
الكريم
الشعر
أص
##حو
##مو
لد
وما
تحميل
##ad
الدين
بيت
##كثر
جديدة
الأولى
لبنان
القرنية
##يلة
التبليغ
الساب
العلم
ولي
مسلسل
##اكل
اليم
عيون
##كو
أبو
##نين
الدرا
عبدال
##شة
##ريقة
البحث
بو
##ضة
كيف
الشر
##جلس
أغ
##اركة
##ئية
##زيز
##وما
##قول
المعل
مف
##سبوع
وسلم
للدعم
##وقف
مكتبة
##صي
##le
البل
رح
##ضرار
جديد
18
##ذي
##اهد
الابيض
##صرية
الكمبيوتر
الانت
انف
للس
##ضو
الناس
كنت
الملك
##ont
منه
##اخ
##طي
الجن
##اول
##لتقى
##هات
مر
##روف
والج
هل
التش
16
شهر
##انا
##بيرة
##ئي
انش
فقد
##صار
داخل
##جهة
والص
يجب
##ولوج
علم
##ربع
ph
تو
##ظمة
##ent
الدولة
اختر
الخاص
الشعب
والتي
والخ
##نيه
##يال
مختلف
##الد
قانون
سوق
##حية
طريق
##لاب
##رام
عد
##رها
للش
البرامج
استخدام
العق
##رى
##ظهر
لس
والق
##وتو
الاد
2016
إتصل
##قيقة
##الت
دولار
##اهدة
الار
واح
lasik
القانون
##افظة
com
المق
الاقتص
17
الإلكترون
##re
الخارج
##انب
العراق
طب
##قق
##ربة
وتح
##وبية
الخط
أحمد
##ve
##ائد
##قائق
##لعاب
بما
##هور
الوطني
ملفات
سنة
php
##واع
وزارة
بيان
##املة
##هدف
الثانية
عرض
أفضل
##BB
##جب
##شد
##ضان
##امي
بع
الوقت
واست
مبار
وص
##اهرة
##ri
##اتب
الليزر
خاصة
أما
ذات
##اقة
##اتف
##َر
##ِّ
##رشيف
##علان
مما
##ائب
الأمري
##انت
التد
##وبة
وزير
الكويت
##ec
التاريخ
##ضح
العد
الصفحة
فلا
عندما
##بلغ
##ثي
الاول
phpBB
##جراء
الثان
تخ
أق
فيما
##دود
الحياة
الفلسط
المف
##نك
نقل
##علانات
لدي
##روحات
##ابعة
##هاز
##فاق
بالإ
##حاد
النس
مبا
##ابل
مجموعة
يون
منطقة
الحصول
فه
احت
واحد
عق
أمام
التربية
الشخص
حال
تل
الدكتور
السود
##راح
مه
الاحت
انفصال
أهم
##نع
التر
الطبي
لما
##َا
الرئيسية
الجديد
##علن
اللبن
عدم
##نتر
فع
الإسلامية
##et
المملكة
##طات
##هورية
##ضية
عنه
مواقع
##ِن
مي
##داد
سم
##ing
##طلب
كتاب
مم
المركز
للع
الأمن
للإ
##وله
##بيل
نحن
المعلومات
##رحلة
فيديو
##هلا
##هار
نج
##نسية
اللي
##ـم
##ناة
المرأة
عمر
##صوص
ضد
القرآن
##بيق
ارت
##وء
تك
اضرار
العالمية
##َي
##هُ
##زمة
##فظ
صيانة
الرح
انحراف
##وتي
مجال
##داية
تب
الدم
##بحث
##وجد
وهذا
##ابع
كم
ذكر
##َم
ولم
##oo
ملتقى
الاح
##خذ
بكل
الإنسان
##امب
##عى
##كرة
منتدي
الجديدة
##هرب
##ارب
##خب
دقائق
الفت
##ملة
##سبة
الأش
##واج
##أي
قام
التط
##ضم
##مارات
##ستر
طلبات
المخرو
العرب
##الح
اد
النق
25
حك
رمضان
##هن
متر
##ou
خدمة
##ثاث
الهند
لهم
##ميزة
##اند
المنطقة
##ـي
##انة
بسبب
العلوم
اللا
بالأ
لش
أجل
اسم
إدارة
##غاني
المواقع
##اا
##طق
نظام
##اعات
مث
وغير
##ريط
##قوق
##كتب
##ماية
بص
21
يؤ
ند
مُ
##وني
فأ
##ايل
2015
##هب
الشع
##عداد
2014
##باط
فل
##he
##il
##لاة
ثان
##ائج
##طلاق
حين
##ليزية
الدولي
النظام
وجود
عمليات
المجتمع
##تد
##يلي
##زا
شبكية
الكثير
وإن
يف
مواضيع
##طيع
##ـة
##بارات
الوطنية
##برا
لق
ينا
التف
كبير
عشر
##جال
##سسة
##جا
دولة
24
باب
##ومي
##ظائف
حالة
سوف
##20
##غل
دائ
##داث
انتقل
##مين
##قافة
##رع
ريال
اع
##علق
30
جامعة
كبيرة
##ot
##كار
##سرائيل
نص
##همة
##واد
وعلى
المدينة
##خرج
معل
الفي
ريا
##سان
تقوم
الأمر
الرسم
فن
تعالى
2013
##سجيل
##َة
إد
##قالات
ويت
مدير
##ويات
ضمن
يقول
##تمر
اش
الأمير
الثلاث
أنها
مكان
فلسط
موضوع
ركن
##بيه
##يار
المصري
قس
##صحاب
##قترا
##um
##بدأ
##عاون
مدونة
أث
دور
##فيذ
##كرية
##غات
تصميم
##تين
لدى
##اصيل
##واجد
أجهزة
##ation
##حيب
##اسب
رد
فريق
الشرق
المخروطية
##ولي
آل
لكل
##جان
##۞۩
##ُّ
التى
##اعر
لـ
المال
السيارات
فال
##el
##ظة
دين
ليز
##ol
##شن
##ra
مدون
##ئا
تطوير
الصوت
باست
مستوى
##بتد
القد
##سباب
##nd
##ورد
##طع
فض
##نتدى
##اته
إذ
نها
نشر
والر
##نترنت
الجوال
يمكنك
أيضا
بار
شيء
رسول
##قف
##كال
الدي
نف
##عرض
الماضي
##المي
بلا
الصحة
##ومية
##خصص
##جنبية
الرسائل
حقوق
##كنولوج
الإعلام
قائ
لقد
مرة
الجيش
رب
لان
##ابقات
القنوات
of
الأعضاء
الحديث
درا
##شاركة
نحو
التأ
##شات
العس
جدا
##يرات
##عه
الاشت
مشاهدة
للج
الثالث
المسلم
##ثنين
##ابية
العديد
##id
اف
التواصل
الرياضة
الري
##اما
##هود
بالرياض
خلف
##راهيم
يص
##توبر
##ولات
##هتم
أنت
##هة
وضع
بالق
##ؤون
كافة
تجمع
##طلق
##ـــــ
المغرب
##تمد
مسؤول
الترك
##شوب
مليون
co
الظ
##سيط
مشروع
##ماع
نظ
##ره
متوسط
المجلس
السيد
##تنا
تنا
تقدم
##احب
الخارجية
انه
المدر
##ّل
سير
الثالثة
تعليم
##اميم
البصر
السياسية
جاء
##َب
##ليف
##صري
شع
100
أبي
ألف
للبيع
تكل
والث
##جاج
##جاز
الخام
ومع
##ندا
##خط
الجزائر
##ub
خدمات
##شفى
##اية
إح
السعودي
اجتما
##ستان
الاتحاد
وجه
بالح
##صب
##ميس
الفن
##أت
##نب
حد
##ترنت
##طان
##نف
مساء
وتع
الحلقة
الدولار
##مود
ني
التسجيل
##كور
بدون
هم
مشاكل
##لمان
سوريا
22
بان
إست
##ثار
أنا
2012
النب
الأرض
الشم
01
##كترون
##ياد
##َّ
صباح
الإد
##غب
##لاقة
##راحة
حزب
##وفر
##ضمن
##تيار
أج
##خابات
##سا
أهل
##فسير
الشركة
نفسه
##لاقات
بـ
الشباب
##وايات
سيت
##تهم
التعلي
##ليا
البط
##ضور
##خي
أل
عروض
واحدة
الدولية
##وتوشوب
أيام
##وين
الفض
زي
##فات
لنا
قل
##قتراحات
اول
##ارف
۩۞۩
##راب
##ov
##شاء
##خة
##مدينة
دع
##ورا
حسب
الحول
عين
##ter
بات
اك
الاعت
##ماد
##رفيه
##زال
##حا
الإسلامي
##دق
وعد
##عاية
الجام
##ذب
لكم
##غيل
23
##زام
##كيل
وكل
##باً
##هاد
صوت
##طال
فلسطين
##غيير
افلام
الفيديو
خارج
بير
##اسية
##سسات
سنوات
##روط
مغ
##راءة
##ــــــ
##هداف
حسن
نادي
مب
##لاثة
##صالات
نوع
##غان
الجمعة
فتح
الحي
##كام
شر
تنظيف
##تل
سيد
أيض
صلاح
##َع
##ابي
##وعات
الأع
يول
وث
##ريك
##قرا
##ريل
انشئ
فقال
الأخبار
أكبر
##ماً
جد
الاعضاء
والب
الخلي
##نسي
##زياء
كر
لوحة
##َد
##الك
السياسي
مار
كون
بور
المنش
مز
هاتف
نش
##ارع
الداخل
الإمارات
الدخول
##اعت
##ادل
النبي
2011
السوري
##مه
##ضايا
##رافي
بيع
in
##خاص
##ائلة
وآ
الوطن
##هج
المالية
ثانوي
الأخيرة
مض
دروس
المصرية
##هِ
أكتوبر
لتح
موس
نظر
المواطن
##رائب
##رقاء
##ُم
بالد
الحر
##فسارات
الاسلامية
العضو
##ياس
المزيد
دورة
##شرات
##قرار
الحس
الحب
##ْت
##ow
##كنولوجيا
التصميم
##غيرة
والتع
##هاب
##لمات
النف
والك
المنزل
##فاء
المسؤول
كلية
بنات
##رعة
##باب
اليمن
##ئيات
##ريقيا
مرت
##توي
الجل
اون
##وبي
##رجة
الأخرى
##حق
##واق
تقديم
الإلكتروني
النج
قص
##ابت
أعمال
تغ
##قامة
الثلاثاء
يقوم
عس
رؤ
##vis
مشاركة
المرحلة
##شل
##فير
عب
الساد
إليه
05
مادة
التو
مدونتك
##ave
##آت
##قص
##شرين
والاست
##اليا
اهم
حساب
##كلة
الكتاب
أرشيف
##ريات
##يمان
##كمة
القدم
26
##نتاج
##قتل
##حمد
الإست
##مرار
##اريع
##عاب
ساب
##وسي
##افحة
الترحيب
المستخدم
لاين
جل
المل
##يته
قصص
بناء
الثقاف
##راعة
##وش
العالمي
رائ
تُ
##يفات
##زيون
بغ
الإس
الالكترون
وعلا
الحوار
حديث
##جنة
للن
الآخر
الفنان
سع
اص
اذا
بني
##زن
##ونس
البلد
##ولد
الخميس
كشف
00
##ذة
##ناعة
##راث
##عام
الأعمال
الأمريكية
لذلك
يأ
سعر
يعت
تركيا
##راكات
الراب
توا
كلمة
##ضغط
##اليات
فيلم
##ag
##حر
والان
حيات
والذي
وبعد
وسط
المواد
بنفس
##ويد
روس
معلومات
المبار
محافظة
سكس
##باء
أمر
##اجة
الأطفال
قرار
ليست
إب
##واتف
وليس
الاجتماعي
##نيا
الساعة
الْ
##برامج
احدث
زوج
##قبال
إس
الاخ
هد
اج
الأربع
##وضع
##زين
##زه
عنها
##سر
تطبيق
للق
##طاء
شركات
##َيْ
تكلفة
##ريدة
السن
الهي
السابق
28
سواء
##اصمة
wave
المسي
##يح
إل
مارس
لب
مدر
##ـت
المتواجد
##روب
عليك
الدوري
D8
طريقة
##ـن
##جمات
المك
إسرائيل
الطفل
الخدمات
##َت
##باس
##واطر
##fr
حدث
عز
منهم
##َو
الزرقاء
جزر
قدم
تحكم
##صالح
البلاد
الشه
المث
دم
##ديا
##يرية
بالع
##فار
طبي
دعم
القاهرة
##خدمات
علوم
الإرها
##روج
تؤ
##ريح
نتائج
المشاركة
لمن
الكتب
27
##99
##ريس
الأرد
الوزراء
##ئات
فهو
عدة
##تمبر
##ينما
بالش
##ؤال
دكتور
أمس
##وسف
وض
عامة
وين
السبت
##فو
##ملك
##ستاذ
ينت
نتي
سيارات
بداية
رشد
قطر
لجنة
وكذلك
##ريا
##وو
سليم
بالس
المشت
العلمية
الأو
القصص
##نسبة
علاج
الاخبار
المز
##داول
##لائ
المختلف
##ch
للمنتدى
جنوب
##ليه
##ذر
بالك
##ئب
الإدارة
عليهم
للف
##حب
##عو
##هه
##وجود
سبتمبر
المط
الفرنسية
الست
البن
الجامعة
جي
والط
الرب
الدع
##تحانات
أصحاب
وعلاجه
السياحة
##per
##سلحة
##ئلة
والل
##ــــــــــــــــ
بخ
##us
البيت
##ig
##os
##ّه
المب
مباشر
##ذية
مباراة
العنا
الموسم
##سك
Re
##غال
لف
حب
##وانين
##جليزية
الاجتماعية
##يور
##ريري
##جاه
البشر
بهذا
عربية
البحرين
##ّر
نتيجة
PM
##خصصة
دار
##ـب
الترفيه
rem
##جار
##راتيج
جنيه
يب
##ادم
اكثر
الحرب
باسم
for
##حل
نز
وصف
##وانات
يتح
##ay
##ختبارات
##ابط
الأربعاء
السوق
واس
##رسال
تجاه
وصل
##ويه
لتص
كث
قناة
جانب
2010
يخ
يوجد
كثير
الجمهورية
##ويس
ثلاث
انا
الكهرب
اغ
ويم
أكد
المستوى
##داء
##ندي
أر
عقد
الابتد
اجهزة
وفق
القص
يعني
##فين
##ارد
##نوعة
الرياضية
##طوير
##سلامية
رغ
##ai
##راقي
##لاع
بول
الرم
يناير
##يق
##افية
لص
تحقيق
أسبوع
حواء
بالعين
صورة
الفلسطيني
الفصل
09
الدفاع
##ماعة
##لامة
##رار
وأضاف
صاحب
##قدمة
ليزك
السودان
##front
##أل
##اتها
نور
##ريع
wavefront
##زرق
##هادة
جهاز
قطاع
مقابل
ماء
داع
الحق
تعمل
يونيو
يكن
##لين
##ارير
##شق
##tt
##يتها
رأ
أت
##ِل
المهند
مطب
رأس
##وارات
فرنس
الزوج
##بيقات
العلاج
الرجل
قدر
اق
29
المسلمين
تعلي
##راع
##الا
صحيح
تعديل
وظائف
كأس
مستشفى
بب
##ادات
النفس
##افي
##الج
المتوسط
##ــة
الاسلامي
غزة
##ia
سعد
مترجم
مالي
بث
اللجنة
##ـات
##قييم
يوليو
سورية
ديك
يحت
بالإضافة
الداخلية
اللبنانية
الصين
يك
للسنة
##im
فا
تعريف
تفسير
مؤسسة
##اركات
07
الفريق
البحر
كامل
الذات
##برة
الديم
##كاوي
199
أنواع
العلمي
##فية
##ئاسة
##هاء
الفني
دليل
##هـ
##سبات
##ائم
مجانية
بلغ
شبكة
##لفزيون
08
شك
الشركات
يعمل
##ليب
##راضي
قب
##ثمار
الصورة
الوح
تتح
وتن
حم
الحبيب
التقنية
بوا
أنك
إنه
الإنترنت
##ندية
##ذهب
برو
دخول
##ناه
##ْر
بأس
الشخصية
شرك
أثناء
رسم
02
##ده
رج
روسيا
الطبية
##عبة
يريد
شكل
##ريمة
دا
##َّة
القب
##باق
المختلفة
لاع
معرض
##ريض
لقاء
الشريف
المشاه
والمح
المجم
الإمام
وتق
##جراءات
بالنسبة
سيكون
المتواجدون
##ديثة
بف
لهذا
##lam
##واعد
50
##اوي
تنظيم
خالد
ليب
ويع
رغم
##اسي
والمس
##ذج
##ng
##براير
شعر
ابو
بالب
##rip
##عون
المحلية
كال
رسالة
##حه
الأف
يل
عنوان
##واة
تعلم
الإنج
cost
##وتيوب
جمال
السم
##بايل
وتش
المكت
##ـــــــ
06
وات
والمر
أيضاً
عنا
فان
##ديق
يسم
الفلسطينية
##كَ
##زيل
الألعاب
وغ
عبدالله
##قلال
إم
كاتب
الصلاة
مدرسة
قوات
##اهر
جيد
##شيد
فبراير
معه
##جمة
البرنامج
يوسف
##جميل
##ّد
احمد
حكومة
التجارية
لاست
الخليج
##ريبة
فوق
الصنا
مايو
كذلك
##عيش
ظل
الأسرة
##امين
اللبناني
##صابة
لله
##نوان
صحة
ألم
حركة
بيانات
نهاية
صحيفة
##يرا
##ندق
نع
الاش
##اغ
بالج
##سلة
##سطس
##ab
##est
فعل
##ومان
##هداء
الأحد
ماي
الطلاب
والغ
الملف
##وبات
##طور
##ريعة
شعب
##حص
سام
كانوا
الاشتراكات
القطاع
الخدمة
##ew
كرة
##ؤلاء
##بداع
الصوتيات
وتم
أَ
الحكم
بشأن
ساعة
D9
لسنة
remov
ير
عربي
2019
عش
روا
##هرجان
وحد
##بيض
عالية
ممكن
##ساء
الياب
وكانت
أمن
الحج
جعل
الور
صالح
##سمبر
##وروبي
##كين
مباشرة
##بدو
##عاد
31
ستار
##رص
40
##ttp
##ادرة
ثلاثة
قرية
السورية
##ويق
المُ
الكبير
محمود
هيئة
الرابعة
##سون
ملك
##دون
النها
دينار
##طبخ
##وام
##هتمام
يمن
قط
الخبر
##فاظ
##ّا
شباب
الشي
ديسمبر
##لبة
القدس
##ثم
##ناسبة
تتم
اخر
تسم
##لاك
القوات
##ّم
##وضح
04
حسين
تا
وجد
##ساب
خل
is
In
##علوم
عيد
##اطر
ألعاب
pro
إش
بالن
##اطع
سا
http
مدى
فترة
##ir
طويل
صفحة
لهذه
تسجيل
بينما
##رسوم
الفترة
الجميع
##ائرة
##يسي
رفع
##طفى
الإلكترونية
الانترنت
الاقتصادية
قنوات
لذا
أغسطس
##طباء
المناطق
##10
مِن
مكافحة
الرياضيات
##كلات
03
سه
إعادة
مرض
##حين
سعيد
كيفية
198
##ولية
إضافة
الماضية
للاست
الشاعر
##ورت
AM
بينهم
الطريق
مختلفة
##صدار
##نيات
##ابس
##ساد
##ــم
النساء
##ويتر
يتعلق
طرف
##برى
تنت
##جرة
مملكة
الحد
وغيرها
أنّ
##برز
البريط
##قليم
بالف
شمال
##رفع
##تبر
أمير
##جبات
##خلص
النص
##امية
الارت
المجال
مساعدة
أسعار
الدعم
##ُل
45
أعضاء
النت
##قرأ
حما
##هلي
##og
مكتب
در
##ونا
الرج
البد
تريد
##رويد
محا
حكم
الاثنين
لعبة
وير
عضو
يعرف
##يارات
##طيب
##ct
##نادق
##ياج
التعريف
##حتى
##قاومة
2009
الالعاب
والتر
مقالات
##وروبا
الأمريكي
##صلاح
بِ
زيادة
##امن
##اسبة
##ذار
مسلسلات
##AR
إبراهيم
ومش
##ائدة
اللقاء
تعرض
##ّن
ترامب
##ox
يعد
##تيب
شه
ضر
كفر
أمري
لمدة
تعرف
##َى
أبريل
##َق
الثقافة
##ئين
##ـس
For
والمش
مواد
000
الفنية
##انه
ظهر
الذى
الهيئة
##فن
الفوتوشوب
الكاتب
الأص
شرح
##فعيل
##فش
##لول
رجل
الأب
دبي
إيران
وبين
جميل
and
##سرائيلي
مظ
بلاد
التعليمية
وشروحات
##ْم
##راجع
الأقسام
قائمة
##op
توف
العمر
قلب
حياة
##ائح
المدني
مطبخ
بنت
##روح
الشهر
الافلام
ته
الوصول
بالصور
إخ
لأنه
##اره
##خدمة
الروح
العسكرية
##اشات
بيروت
تمثل
##قتصاد
الاحتلال
العليا
##شطة
الحقوق
لاب
المم
##سه
الأسبوع
المشاهدات
St
الديمقرا
##ut
##قطع
أرض
الرياضي
المطل
يرج
##يبة
##ارق
##ينيا
المقبل
التعاون
الشعبية
نقص
التفاصيل
اشت
خير
مصادر
##ada
المنورة
قم
القلب
كي
بالل
بذلك
##ديمة
وحتى
##فيف
ليبيا
##دين
##ذن
الحريري
##كوين
والموا
##صاص
كام
مرا
##وضة
روح
##انى
كو
تعد
36
إيج
Trip
##توح
فإ
##ثلة
##ذك
وسائل
بمن
بلد
##Ad
##سطة
السفر
##فيه
##راكز
تمت
الإن
##يره
نب
ديوان
الرسمي
جزء
قِ
تقرير
السب
##طا
قوله
الصحية
التم
معا
##ـر
##ish
##وره
إليها
الثانوية
##visor
##ادث
الجمعية
35
##علنت
أشهر
السكري
را
سود
ومت
جمعية
##والي
وهم
الوسط
معنا
وكالة
والتعليم
##ناك
كن
صد
##بتدائي
##Advisor
TripAdvisor
النواب
الاتصال
زيارة
وعلاج
##سلسلات
##ياب
اكت
يقدم
##ul
##نائية
أقل
المستقبل
لدينا
المواطنين
##ريت
درجة
هؤلاء
انشاء
##هى
النائب
##اسم
##اطق
##ـل
Ah
باستخدام
الرائ
##مم
##غراف
توق
الغذ
مجانيا
##ثمان
##ْل
انس
سليمان
بحث
فرنسا
ها
بعيد
الأدب
##مارسة
حصل
شراء
الدينية
##اله
سر
عائ
تنفيذ
الأمم
جمهورية
##11
ميز
الباب
##بادل
معظم
المقد
العلاقات
تونس
الشرطة
##فيق
كثي
نيك
الأستاذ
##جع
ونحن
بطولة
##الغ
كلمات
الرابع
##▬▬
##ust
##ضير
##نائ
##un
##ER
##ابر
143
##حم
التخص
##نيف
##ادت
كلام
##ضرورة
الألم
عليكم
اعتلال
سنو
قتل
افت
عمان
تستخدم
العراقي
والمن
كرو
الخامس
##وّ
مناطق
الانجليزية
مان
##فى
##ظيفة
السلع
خصوص
##أك
الرحمن
ارتفاع
المبا
لجميع
##وعية
196
شرق
استش
سات
##قلة
##فال
مخت
##ياز
removal
شروط
##ائه
##يمات
##رقام
سما
##امات
##وجيه
مقر
المتميزة
تكن
مشت
##ers
الدراسات
##ديه
وبالت
رضي
زراعة
الانتخابات
يعتبر
النظ
قضية
##ْن
نائب
لغ
##شاب
##احث
##يسة
##ونت
##يلية
##اشق
##ارض
##هير
عص
##ائزة
ومل
العاصمة
##بين
للحصول
الجما
##فاف
الشعبي
تز
##منى
غرف
##ment
واع
أط
وست
ويمكن
الجهاز
الحالي
الها
تشكيل
##يلات
يوتيوب
رأي
الرمض
##َس
##تحاد
قالت
المجاني
اللهم
بيز
##قوم
طالب
الواقع
##ربعة
تغيير
الشرعية
الته
بتح
##كسس
مصدر
##ess
الحمل
##ضيف
الشمالية
اللغات
##بيت
جمع
زائر
مليار
بنفسك
لتصحيح
التخصصي
pr
الجسم
اخرى
##َنْ
المؤتمر
سين
##رفين
##قدر
الأق
رجال
الجنوبية
التنمية
العزيز
##وجودة
##ontada
##بو
حقي
وو
##حك
للغ
البعض
للتسجيل
##ناق
كاملة
##ندوق
حرب
والتح
##lamontada
المحت
محام
##َال
##40
السلطة
سو
##ونه
##ماكس
ملا
##اكم
داعش
##افع
الشرقية
الــ
فور
الاقتصاد
الدست
##سد
حماية
سبيل
نسبة
سياسة
الفرنسي
لغة
فك
الحقي
القرار
للب
##eb
أمراض
##ائنا
البشرية
البريد
197
Ahlamontada
##شاط
خلي
لات
##درية
##ced
للك
الحركة
ومح
الكل
طال
النار
المصدر
بتع
فهي
تناول
شأن
الاولى
the
منزل
القط
##لاين
المخت
وبال
##خصوص
اختيار
Al
والله
ومس
cataracts
المنتخب
مؤتمر
المدرسة
المرت
ولد
##ــي
##اضي
مات
عرب
##لل
##50
##خيص
وتت
##لبات
##حقات
##رجمة
##كذا
يط
##يراني
عض
حمل
دوري
سبب
احد
##فرة
جهة
الحزب
واب
الجميل
السادس
##ذف
قول
بمناسبة
##الجة
رفض
وصول
كول
دخل
##يتي
بالط
محافظ
تقييم
بواسطة
جداً
##وليفات
المادة
الإدارية
اث
##يفون
الصحي
##تا
التالية
إي
ورد
القناة
ولو
أعلن
إطار
##ائري
##جوم
##كاتب
الرأي
الأوروبي
الأفلام
السر
قضايا
الطاقة
امر
علينا
##ولى
المكر
##ريحات
##وروبية
الدورة
لر
32
##َهُ
الحم
الترب
المكان
##وارد
الحديثة
العملية
##شا
سك
##فرات
33
##فاض
##ِر
##شاف
لديك
وعلاجها
##ist
تحديد
##ريه
الرسول
##جهزه
##يوماكس
لكي
##غاء
فمن
رغبت
##ريج
##جتمع
أساس
وحدة
الاع
إف
##تاح
الأل
##وزيع
سجل
وعدم
دراسة
مال
##دل
##ابقة
##ائمة
الإسرائيلي
لاح
ليت
##نه
والمع
##كاديم
الجدد
المسابقات
كثيرة
عاما
##ورك
العملات
##مجة
صغيرة
##لبية
بتاريخ
هند
##ine
##ّي
شاهد
الغربية
##اربة
تويتر
##فادة
الرقم
أه
اللاعب
محطة
##اديث
التعليقات
الكون
والأس
والز
تجد
والمنا
سلمان
تشرين
##وائد
المرض
المعرفة
الرؤ
##غر
بدر
العناية
واف
الني
##اااا
بيزو
The
اليد
وإذا
جام
برا
قوة
قري
سؤال
تفاصيل
أفلام
مجلة
ورش
بحي
##اصر
##افا
##بيلة
الأجهزة
مراج
الدمعية
##زق
##ـتـ
وجهة
الدور
##يلم
بأنه
##َه
نقطة
المنتدي
الكن
قصة
##جهات
تحمل
الاخت
إعلام
الاف
فهم
هدف
##رويج
المطبخ
شهادة
##صلحة
يجعل
طلاب
السف
بري
##ونات
قطع
##ure
توك
البيانات
##شارك
خص
الهندسة
##غا
المركزي
وعند
##سمْ
موقف
##زيا
##يزم
حلول
##مسة
##ياجات
##12
##صاب
##ائع
##ضى
نح
##امر
نمو
نست
##ورج
الوسيط
بوابة
##ob
##لوب
المعا
##جاب
والاج
##افر
متح
##زاب
##َك
##ind
رمز
للو
الأك
##مج
##ubai
المؤمن
الرابط
نا
##رفض
كار
والمنت
شروحات
الاقتصادي
الكرة
المدير
الارتباط
##امت
##ue
للعين
أهلا
أست
##راتيجية
لتن
حفظ
##فقة
بالمدينة
##ah
شهد
التوليفات
الضغط
خلفيات
عرف
فروض
دفع
الأمور
##قتصادية
المكتبة
وعن
المحد
##عددة
يصل
الطعام
القانونية
شؤون
شقق
قيام
أقسام
##ook
قيمة
المشروع
مشبات
الشمس
مصطفى
##ليك
تصل
المبلغ
الأط
الإش
الوس
الأوسط
الأردن
البداية
غرفة
رسائل
جلب
##نون
أصبح
للص
ويب
##يجار
تقارير
wh
الطرق
اجتماع
##بري
الإجتما
رياض
يو
الفساد
##ربات
الدنيا
فرصة
المهم
##لالة
سيارة
للتح
بوك
السلطات
أعلنت
##عوك
##اشة
ترم
منظمة
oper
لمعا
بوت
وتص
الطبيعية
الازرق
##فيديو
60
النقل
ألا
يزيد
al
الدراسة
##وسع
##سيا
اثاث
جو
الجزء
بهذه
يغ
بشر
##نات
خبر
والسيا
##اهم
##درويد
سياسية
اليون
الكلام
القرن
المحلي
تستطيع
##منة
والخدمات
##يمن
نيوز
##طلاع
##ma
##اضرات
operation
اغاني
##لاحظ
بدأ
النبوية
##od
##000
##غو
##جماتيزم
الاستجماتيزم
اسعار
المرج
المعد
السياسة
العسكري
بالخ
##كسسوارات
##30
أهمية
قِسمْ
Eng
المغربي
هـ
وسهلا
##ادمة
مهرجان
##شنطن
قسـم
##ـــة
الكات
##داب
بدأت
وتأ
وهذه
##ترام
الحسين
المنتجات
أوروبا
المعلم
##دن
والعالم
والمرئيات
السير
##غاز
##تع
##lish
الوضع
أستر
الإخ
##صلة
##زمات
on
##قام
كس
##زالة
##كير
إحدى
رك
##ظار
##كاوى
75
التجارة
المي
مرحلة
لط
لمع
اعلانات
تض
##فيد
وسي
##ناول
##ack
لين
تعتبر
##عيم
ضرورة
السابقة
الأج
##رائم
طرق
##سيقى
تي
##بادرة
عقارات
عج
منا
المسؤولية
دائما
ار
##ريبية
صار
الاقسام
وأكد
مشكلة
##ُر
##ارضة
##اخلي
##بال
##ap
##زيارة
ندعوك
المقب
حجم
##وها
##حاء
##ليس
سنوياً
##خم
تحرير
بأي
متابعة
انها
##24
##كاديمية
مول
بهدف
يشرف
أبناء
الفور
المؤسسات
##قرة
صناعة
الديكور
لماذا
سيتم
العلماء
الهاتف
سوى
تقول
القضاء
التغ
ولاية
##مكان
##ظمات
##واز
##طلع
بلدية
تحتوي
dubai
##اشقجي
فإنه
##خاذ
غس
الأجنبية
##ذين
ساعات
باس
انواع
أرد
حملة
##براء
أفريقيا
##ضب
##ce
##علقة
لكرة
موري
ترغب
الرك
اعمال
ويح
##th
##ثال
مشاريع
فإذا
تطبيقات
##انس
قامت
اليمني
نعم
الحدود
##ِم
المدارس
اطفال
##بغي
##قالة
فح
##اده
والتص
##دير
محد
##يدا
الأخير
##ON
##ُون
الأبيض
الاغاني
ممن
المشرو
للخ
التعامل
##واي
##فاة
##ترف
##ماك
طبر
##بنى
لمعاينة
السيارة
سبح
الالكترونية
جان
الحسن
تحويل
طويلة
ضم
الإنجليزية
النفط
وتس
##قديم
بدء
العراقية
##فاوض
التشغيل
##اوز
طيور
واحة
المنشورة
##ظل
وقالت
الثورة
النادي
##صدقاء
الرسمية
##كندرية
وراء
تصاميم
ولن
فما
ساحة
قلي
الدراسي
الزواج
صلاحية
العروض
ممت
امام
##عود
الأميركية
st
##صيل
كا
وأشار
##سس
برج
2008
القديمة
##يفرات
عاج
وفر
نفسها
التصاميم
رؤية
##زع
والتن
##َف
مهمة
معها
مقد
الخير
سورة
حر
##ليزي
##يدان
##one
تأثير
القيام
تقنية
##وزارة
للر
الإعلان
الاعلام
تعلن
الطبخ
نصر
Forum
##صدق
إطلاق
المؤسسة
##اتي
إعلان
الإرهاب
والآ
##زهر
يحمل
##طفل
نصف
علاقة
##سام
نجاح
بحسب
يوما
والمت
صباحاً
##ربين
تجربة
##ُوا
اما
##بهة
راب
الفقه
34
الوزير
##جمالي
قيادة
تحتاج
اسلام
مقتل
خاشقجي
الرق
البيئة
عَل
##وادث
الكبرى
##خال
شخصية
##ـــم
ومست
فعاليات
آدم
ثقاف
ستي
##قته
الأدبية
##ech
بهم
##اعي
الجودة
غرب
38
##كرم
بالمشاركة
##واح
##زاز
السج
أحدث
ربما
بحيث
##بور
بمع
##ينه
##وقات
سلسلة
الاتصالات
شيخ
##ديان
المحكمة
العامه
##زوج
الردود
عباس
##راقبة
لدخول
الباحث
تعبر
طبرجل
##يفا
##18
التحرير
##َح
أصل
منتجات
عادل
ليزر
الصيف
معرفة
عثمان
الحكومية
الثقافية
الحيوانات
الخصوص
##وذ
##رر
السيرة
##غرب
37
##كانية
الثانى
يستطيع
##عمار
كوم
صدر
أعلى
المشاكل
##جابة
بتسجيل
زا
عزيز
##قرر
والات
بنسبة
##وعه
أخذ
الخيمة
يأتي
الموبايل
##سلوب
هام
المدنية
##انيه
##لامي
الرجال
المهندسين
والمست
موسى
جما
##صفات
الأيام
التكنولوجيا
الفيز
اضافة
##ـه
##ارنة
أسباب
طبيب
الترا
تحدث
##عزيز
المحم
##قين
##ماعيل
الليل
##مع
وبالتالي
بمح
مدريد
to
مكة
بطريقة
العهد
##ناس
##شارات
الحاسب
توكيل
##راز
يبحث
يحدث
ادارة
##pl
والمؤ
##قاد
ايضا
ابراهيم
العض
##قلي
العرض
ثال
محفو
ملابس
##بلس
##ustom
ألمانيا
##ألة
الأسعار
والاع
الكترون
الذهب
القوى
يرجى
إيط
حدود
##يي
مطعم
المجموعة
##وثي
الجوية
الأسد
##ابه
عون
البلا
المعت
الأكثر
مساءً
رش
##ابلة
##يادات
يه
التالي
إنشاء
الفلا
دقيقة
نشاط
##gle
الصغيرة
##ديقة
##فاقية
الإف
التلفزيون
##ــت
أهداف
والبرامج
English
السينما
المنزلية
سوداني
النوع
الاثاث
##55
تجاهله
custom
##ملف
##راسة
##17
قت
يحتاج
##سبق
##داخل
##ولين
كفار
##oc
بكر
##ort
الاجتماع
التركية
##ارى
بالا
للأس
الملا
##خفض
##ودرات
واله
##اطة
##مرة
الثانوي
بنك
التون
حوالي
##طلبات
##ice
المباراة
العدد
##عملية
cent
##زلي
##iv
##راحل
منع
الزمن
يز
##برنامج
جوال
مسلم
يتو
الحقيقة
##عدد
الأمنية
##درات
تشغيل
##ww
##جاوز
يشرفنا
##جارة
البنك
السابع
##ونية
وقف
متن
##قطاع
ليلة
مسؤولية
الصحفي
واشنطن
زائرنا
الكشف
وكيف
تأس
اض
##ذل
موعد
عبارة
الصيد
الجزائري
الصحافة
فرض
##reat
متنوعة
المناسب
##يدر
للط
عشرة
##ورى
قيم
الشحن
48
مهم
##AT
##نتين
الاص
توفير
##وخ
حاول
الوزارة
الكبيرة
النز
##روة
فس
##داع
الفرق
##غانى
##ect
الملفات
القضية
أنهم
تث
الديمقراطية
التابعة
دمشق
يبدو
اط
##ارا
##بياء
العن
الكاملة
طبية
باك
رائعة
اليه
##واك
إنها
الخامسة
##ميه
##بى
##ستاني
عناصر
الأهلي
##فذ
زمن
بغداد
##قيب
##فتاح
##ترض
##نيين
تقل
##ورين
هن
محاولة
##سباني
عائلة
صنع
##box
العالي
صلاة
##oogle
العص
الموت
يستخدم
ثاني
الأسباب
##حيان
##ساتين
قراءة
لحقوق
##واجه
##ْد
##يجة
وانت
النقاش
ويست
بحر
##ِين
https
##rab
مناسب
المحافظة
##واية
امت
##عاء
المسلسلات
التاس
خلق
مباريات
##جمال
##فه
المسل
المباشر
وهناك
##يسى
واص
الإعلانات
##اتهم
الكر
حص
اقت
إنتاج
##قيه
السعر
طف
مشاركات
كوك
##صرة
##ies
يعلم
لض
ماذا
ترب
##وَ
ويس
لاف
sp
##صبح
##طنة
للتع
الانسان
سابق
كلا
الآخرين
الثقافي
ضغط
##اقات
##واقع
حفل
الحشرات
التنظيم
500
##قتها
مجالات
النشر
مواجهة
التدريب
##ائرات
##اسوب
تمام
المقاومة
ارشيف
القران
ST
صل
فصل
##جير
نسب
الساح
سط
الذه
الأر
رحمه
##خلي
##حيط
المتعلقة
##توحة
##قيم
##برت
##وافق
##صفح
ديكورات
حصري
##علومات
الوظائف
الضرائب
الاتفاق
يؤدي
الحض
خرج
والتو
##كيه
##جية
اجل
##هيون
الإيط
##af
الأمة
وأس
التحالف
الرجاء
##صالحة
رابط
##رافيكس
شارع
##ثيل
المرا
##طرة
الاجنبية
بأسماء
لتو
والتق
نط
الذكر
##az
مـ
##قدير
##قيدة
بالله
معت
جع
التجميل
بكم
##ُن
##out
الجانب
##باك
طول
بقلم
كهرب
التجمع
##olog
روبية
##ْب
التراث
حاج
الرمضانية
أطفال
ماليزيا
##عيه
الترم
الحماية
الأغ
##ارين
مسابقات
حف
##ادق
الأعلى
تقم
##ائها
المكتب
المميزة
##رمين
الهواتف
عفش
عما
ولل
البخ
##AM
التركي
آلاف
الإنسانية
فكرة
www
##امه
جاه
حقيقة
##سيق
فندق
بالص
##27
##بيد
##هولة
كيل
التسوق
##ud
فوز
بمدينة
##ith
كلي
للمر
تعليق
قض
البديل
الطقس
##بك
الكاتـب
البرلمان
والروايات
مميز
الخلا
الكيم
الجزيرة
بحق
الخض
مدار
يهم
##لسفة
الأميركي
سان
المغربية
الجامعات
نسخة
##شى
اتفاق
كوريا
ترت
##اوى
العلاقة
##يده
موظ
##الأ
بريط
النبات
بعدما
##نبول
وله
سلم
##ائى
عهد
درهم
##وامل
قائد
##and
فرع
القمر
الجاري
الاجهزة
##ائن
##19
##ذوف
الجنس
##art
##وائية
اللواء
لعام
شن
وكيل
العودة
والسلام
البناء
الرغم
يعود
وبح
الادارة
ضبط
سف
الأساسية
##ديلات
واضح
##are
لمش
التعا
##ّف
الزرا
توفر
اللح
البريطانية
##ويم
شل
اسط
أمريكا
43
شاء
خلالها
مستعمل
شئ
مساعد
المسرح
الاستقلال
center
الكهرباء
##وبا
الصناعية
جودة
##16
##شلونة
أبرز
وذكر
واعت
يومين
##vision
مدة
البش
تحاول
##ياط
السويس
المالي
القيادة
الحالة
وتج
الابتدائية
استمرار
80
كيوماكس
الجنوب
##هيل
الخواطر
##كلم
خطة
قرب
##ثمر
الامارات
خمس
##قلت
ستايل
##ِب
البرا
مجانا
رياضة
سلام
تعا
##ــن
المناسبات
أرسل
الروسي
الموجودة
تداول
عمرو
جريدة
فلم
##باع
اللَّ
وحلول
##خطيط
الشكاوي
##فعة
يرت
##طيل
تجاوز
##our
وتطوير
المشترك
المدن
##ائة
##رفي
##هت
كريم
##ak
##ضات
##رفية
قواعد
فقه
##ّى
الجو
الأوروبية
الفضائية
##ُمْ
##if
ترا
##ينات
##جهيز
مهند
مهما
##رائف
فِي
تظهر
ورب
إجراء
تركيب
الطريقة
##ss
والته
##رافق
بالر
2007
بريد
طل
##ST
ضع
39
ابت
الأشخاص
الفق
##قاذ
قانونية
##ِهِ
وقع
##فعت
تقري
بالاع
فج
##نائي
##ream
##وغ
##ونج
##ـــات
لمس
التك
##ube
محل
مياه
44
##ang
القديم
تملك
##سلية
المسلحة
التعب
70
طرح
بالدخول
وطن
بالضغط
توقع
##ذيب
الروسية
##دخل
تحضير
وأم
لاعب
فلاشات
##بس
مناف
قلت
##تون
##pt
العصر
كري
ابتدائي
مقاطع
الإداري
##كلف
##غرافيا
الكهربائية
pm
التصوير
تدخل
توزيع
##بحت
لأنها
إقامة
قبيلة
المهندس
منتخب
ثقافة
46
كبي
ميزات
فات
كثيرا
غال
والرياض
##راسات
رعاية
##الفة
##ial
##15
الكرام
لأي
ماكس
والدي
##متع
دورات
فكان
##تحان
كور
للغاية
الأقل
42
وجل
##وده
القول
Ph
خز
المستخدمين
999
وبر
##شه
##خرة
نار
نوم
لأحد
النهار
##َج
ظهور
##ازل
يجوز
وأنا
اسلامية
يذكر
##دوز
ونت
##ماكن
##reatment
##ونها
لغات
##AS
النمو
##حلة
النشاط
##يوم
المسجد
وإنما
##ews
سكان
##تما
الغاز
التحكم
##وسات
##ثور
ــ
بزيارة
نقوم
شخصيات
حضور
##وحة
امتحانات
لكنه
الطبيعي
البيع
##سع
فق
treatment
قرنية
##AN
##كومة
نقدم
اتحاد
باعت
السبب
اقسام
مؤك
مجتمع
مرات
##بادة
##هام
47
للتن
##13
الابصار
##14
بتن
سبق
حز
ويل
جدة
##وابط
خس
##ناع
##ex
جبل
سالم
النبوي
إنت
أحكام
خمسة
البا
##nl
أون
إرسال
بز
##ليزك
لخ
proced
الشروحات
أنفس
إع
أخر
الشبكيه
للوصول
الذكية
تربية
##ستي
الهدف
السوداني
تعزيز
قاعة
والعمل
ورئيس
السويد
مرح
المحافظ
قصر
##لايت
الاستثمار
حوار
##انع
توص
سياسي
يؤكد
جون
العظيم
يعيش
للبن
##وته
منك
##رابلس
تلا
##اردة
الصينية
##بيين
اجتماعية
انسداد
##وكس
##راجات
العقل
مسئ
##رتون
##اليه
الفع
تصريح
شارك
قوية
##ريحة
ياس
الباط
إِ
فرص
التقلي
##ندن
جماعة
تردد
لإن
هواتف
امراض
الأحمر
كندا
##قوط
¤ô
للمح
أُ
##اجر
الالكتروني
وأح
##قاط
بطاقة
الوحيد
##all
##ناف
##وجل
##ate
##رجو
تساعد
##جنبي
بعنوان
##أكد
شحن
##ry
محفوظة
##نام
##ht
السياحية
##احية
##سى
ري
القت
صع
##َان
النجاح
لاحظ
الموضوعات
واختبارات
عيادة
المتر
حمد
##باحث
دعوة
##OP
ذكرى
الشام
نظم
##وارع
أور
كنا
##دت
##خفاض
يحتوي
##لاجئين
القائمة
سيتي
الاسرة
يساعد
شات
##نساء
العذ
توظيف
بتو
تمك
الوث
Google
البيان
الملتقى
تحديث
للمس
##ارئ
كمبيوتر
تصف
##عيدة
تبدأ
##سمة
المتخصصة
واسعة
##ونيا
الياس
##ائيات
الجهات
الحال
##كمال
تواصل
علا
##حاب
مواطن
##age
للسل
اليومية
فرنك
الجزائرية
كلها
مالية
فوتوشوب
الفرنك
حالات
اليابان
شم
ميت
##ــات
Sp
##وضاع
الاعد
Ch
أصبحت
باقي
حض
##حف
مجرد
التجاري
الأمين
يرى
فساتين
والانترنت
خلا
للصف
##قعة
ناش
المشكلة
مبارك
مظلات
أى
يظهر
##مالك
المسيح
مين
محكمة
ex
ينبغي
الجنيه
الأزمة
ميك
الاقتراحات
الرد
دير
وترك
بصورة
أماكن
ديكور
تشطيب
am
الخلف
أصحابها
بينها
زر
للعمل
حصول
الفئة
الغذائية
##صرى
واض
البرت
أولاً
##يرانية
الزوجية
مدن
بحضور
أننا
الاخرى
التنفيذ
Bl
أسماء
زين
ذوي
جمي
أحلى
##مْ
الجنة
أداء
الأمراض
مجالس
متعددة
مسرح
فخ
##راس
##قصى
##ology
##ثرة
##يطان
المشاريع
تتعلق
إنما
النكت
##بلوما
إعداد
بوكس
##سبانيا
##صم
##ديال
الموافق
حمام
المقبلة
دائرة
##طلاب
الرسالة
جورج
كله
##يائية
الصحيح
##ريقي
قوانين
الفيلم
عودة
##اركت
الطيور
##رجات
##اطئ
##22
وخاصة
with
الطبيعة
النو
Sh
مراجعة
برشلونة
حجر
##ريقية
سانت
لمح
##يلان
##وجب
المؤمنين
##ضاع
السنوات
ربيع
##غلاق
كف
القي
كافية
المنتج
الانس
يمثل
الـم
زرع
للمست
معينة
المرش
do
##الله
##ئر
##طم
شاب
الدعوة
والصحة
##شية
الكلمات
العربيه
العمال
سفر
يحي
شركائنا
##لامات
##ريطة
معين
الإثنين
##طرية
العائلة
إلكترون
الجي
تبادل
أربعة
نجد
##ip
عُ
##كول
أمين
خطر
##قتصادي
للجميع
موقعنا
نفسك
النور
القصة
عاش
##ماس
القض
##ثناء
عط
##شفيات
تضم
النقد
وفاة
متو
##ضمام
الدستور
جيدة
##دب
اختبارات
ونا
##وحيد
واللودرات
رام
سكا
العدل
بوسع
بسي
قاعدة
آثار
##جزاء
ستكون
##كتاب
النتائج
##قوب
##ـع
نيس
ورشة
الوحدة
منز
سعود
الجنسية
أذ
##قولة
##ويش
الطائف
يحصل
##ok
السحر
الداخلي
##شط
##هران
اختبار
التخ
والو
##ـد
توجد
55
عاد
ad
بمس
##ركي
##يفر
ô¤
##يرل
كلم
##اريكات
عقب
ترتيب
القادمة
##ax
##ِد
##ضل
##ربت
برئاسة
##وائل
للعام
لديه
##وفا
بالدم
الشؤون
وأوضح
وعم
إيجاد
المعارضة
ساح
##ـا
الموظ
##ie
##فد
فار
##روق
جهود
أزمة
فاع
##96
الحرة
##ينو
##ّح
السكر
##املات
امرأة
##25
##وزير
##زر
##بيعات
الإيراني
الجيل
##IN
بسرعة
##ناً
ورح
اللازمة
##77
متخصصة
العج
بالمن
فَ
الطيران
عالمية
56
الوجه
الشمال
الغرب
الخصوصية
##دونيس
الديني
procedure
الحرارة
سأ
طن
##ْع
##فعات
جهد
الصحف
اهتمام
الحمد
مالك
جيب
والأح
مسل
يخص
والمجتمع
##صلية
##ran
صرف
جزيرة
Pl
##هههه
الفكر
والرسوم
##وند
##الق
غياب
كتابة
هى
##ملت
مِنْ
السكن
تماما
مجد
كاتبها
المفتوح
طارق
المناسبة
أكت
الحاج
وتد
الإت
الدروس
فلما
الامتحانات
تمن
ففي
##شرق
##هادات
هول
منش
مراكز
##يرو
النوم
مرو
##غار
سيدي
الحفاظ
والعالمية
معهم
والصيانة
موج
مناق
بالضرورة
صندوق
##يمي
الشريعة
##عته
الأحداث
اجمل
عبدالعزيز
الملكية
الانحراف
الحجز
##ترحات
التطبيق
الهلال
ويش
باريس
الشهيد
وبد
##echn
ثانية
العنف
الجمال
معتمد
الأنا
##فاعل
حاليا
نن
الوزن
نقابة
إله
##ــدى
##ستير
القادم
تصوير
كوا
##زاء
##درس
فم
المشاركات
خيارات
الخل
حاجة
الرئيسي
نقاط
متميز
##ard
كاف
##صدر
ويد
حلم
افتتاح
القضايا
فيت
فني
الكلية
##عرف
وصفات
##َاء
##راما
أثر
العمومية
##طى
##فيذي
الصباح
جه
##كمبيوتر
واد
أيضًا
عاماً
مرور
القدرة
ومنها
سج
نم
للات
لموا
ليف
##80
##ُونَ
##اءات
##يجا
روز
اتصل
##بيان
التوظيف
الجمي
الفيس
يجد
الزيت
المشتركة
تايل
أولى
وتط
##لتقي
بيري
##ختار
جسم
الغرفة
الاعلانات
الفرد
العمليات
تقع
المهدي
أسبوعين
الابتدائي
مميزة
الرؤية
##ــر
الطالب
##ver
##رجال
إعلانات
الآراء
ازياء
منظ
لتحقيق
##ائط
##الص
الممت
المصورة
##َّم
ده
مها
الصوم
باللغة
##سرائيلية
اليس
السماء
تجارة
خطوة
أفراد
المدرسية
##ـآ
##تيح
##ردشة
##هية
##ph
الريال
مدارس
القوانين
مشرو
تشت
مـن
##of
كمال
التحقيق
الضوء
الإنتاج
للموا
المنظمة
القوة
وشراء
نه
##نسيق
شبه
الحاجة
بجميع
##عامل
##طون
الألمانية
اسرائ
84
##ــس
المجالات
##روت
49
53
نجم
التاريخية
معنى
##ُه
اقرأ
##غلال
##OS
اللعبة
شهرين
السما
الإبداع
de
##ئه
الغير
فنادق
الطبيب
##زية
##كب
الواحد
العب
##اكمة
##يري
وفد
علماء
الادارية
##تب
مقارنة
الملكي
لز
##باه
##ّب
ثورة
الالت
يدخل
الهواء
شيئ
نجوم
##سيارات
اللغ
تتحمل
نفسي
اى
##عتبر
مكون
الحمام
مقال
الفنانين
إرها
المجانية
الجد
ألب
تغير
يَ
لعب
ممثل
روم
الجمع
##نيع
بريطانيا
معد
##هلية
واي
##كره
منح
إدارية
للز
المتو
##جلة
بالعمل
الكنيسة
سيف
اللون
##خصة
مؤخ
والأن
##ـــام
فرق
##جموعة
البريطاني
##عارف
انتخابات
##أم
تجعل
أصدر
سكن
##ورها
ملايين
وجاء
الإسرائيلية
الصوتية
ومؤ
كبار
عادة
البخاري
وطنية
##ّق
هكذا
##زان
طرابلس
المتب
المها
رائع
فين
لاي
المض
إضاف
وبرامج
العا
حرف
والنق
علاقات
معالجة
رواية
##طلقت
ناف
##ED
##وحدة
الطلبة
الحقيقي
تلق
الشاب
وبعض
يلي
##ساس
##تيال
يمنع
معدات
الوج
لتش
سكري
سري
##عاة
##tr
أنحاء
يقع
##تمعات
رواه
##ذات
العلامة
يزال
يقل
علمية
##وتا
لفت
رحلة
بخصوص
الاسم
الده
##َرْ
##باحة
مير
أصول
ثالث
الطف
مواقف
صغير
الانتها
مخط
القراءة
سيما
##ِينَ
الجه
##ضحك
##▬▬▬▬
المهنية
##غت
شقة
مساحة
مرس
تصريحات
عديدة
##ظبي
الأدبي
مسابقة
##OR
##بحاث
##ond
وتف
58
طا
سبت
الموارد
العاملة
الشارع
الحديد
##قليمي
##ابيع
##ينغ
##غمات
جذ
جيش
##كى
تواجه
##واه
لديها
##سبانية
##قليمية
##ِه
##ادثة
##روات
فهذا
بض
كيم
##60
##وفي
وأع
##َات
أحب
الحالات
##وليد
##حته
سبحانه
أبر
التقرير
الامري
تون
يسمح
وكأن
أنظمة
مون
آية
وام
##ive
باسيل
بلدة
وفقا
جميلة
إسلام
ارقام
زيت
##يرنج
قصائد
الحالية
##رجع
تحسين
وصلت
الفنون
استعداد
والطفل
التعليق
قلوب
مسب
##اتل
الوسطى
وادي
##اصل
السفير
وتر
195
حماس
##لفت
تمكن
عصر
نصائح
##ركان
تتو
##لبين
صاح
حظ
لموقع
بالمئة
##خير
59
وتحميل
مرك
لندن
الاحداث
الجميّل
استقبال
##ريكا
أبطال
نموذج
بالقرب
هواة
المستعمل
التعليمي
علامة
بالكامل
الممكن
##عتها
##قلاب
الفوركس
##شب
البحرية
الحرية
اضغط
الزي
ولذلك
##ِع
##اؤ
بالتعاون
##وقيت
ديس
##وسى
الحصرية
وعلوم
##خين
ملعب
الإعد
هندسة
تجارية
والاجتما
بعدها
##ديس
لتع
الأرشيف
منبر
الافت
##رافيك
رو
أسئلة
توجيه
##اريكاتير
المصرى
##اولات
##ذى
##اور
مصري
##ارتك
جائزة
##ياهو
والليزك
أحداث
الامن
##خلق
فضل
وموا
##فيدة
##pp
تبحث
##ّع
حضر
مستقبل
المقالات
الحاسوب
تور
ترى
ويقول
فب
بالليزك
الصهيون
الإقامة
عدسات
CN
أستراليا
مصالح
استعمال
وتست
##هرات
##هوم
حلقات
وعدد
اكبر
الاستخدام
لديهم
البار
##ld
التنظيف
اثار
2006
##كاء
Arab
##نيك
المخط
جراء
منوعات
##زون
الأغاني
الرأس
يحب
جوجل
جلسة
تسجل
الدرجة
المبارك
الغربي
##خاب
##وظ
أمل
بيد
54
سماحة
##خصائي
يعقوب
##ياته
الاردن
52
تركية
2000
##بعاد
واقع
##ارعة
حسابات
57
تأتي
اعضاء
مناسبة
شرطة
إسماعيل
منصور
السيدة
بوسعك
الشبكات
ويتم
الانمي
العملاء
مرسوم
الطلب
##حونة
المرح
##اعية
تدريب
منازل
##حتاج
تفعيل
##واني
المتنوعة
محت
از
##عتقد
ولما
##ؤكد
الأراضي
اعتبار
المهمة
للمن
##تان
وأف
##ليون
##جاح
الترجمة
##فاءة
الدراسية
عدسة
##طعمة
أية
##ثارة
يبلغ
محاضرات
اعلان
لحظة
المسيحي
##ديوهات
حرة
ملخص
والثقاف
المطلوب
ميد
واجبات
الدقيقة
##هالي
لأول
عبدالرح
سامسون
حذف
##أكيد
الإجمالي
##افرين
##صير
عَ
همس
الطلبات
خطوط
Pro
##غاف
ذهب
خصوصا
اتخاذ
صنا
عيسى
عنهم
الملاب
فهل
مطل
عت
أَن
المثال
##iz
##كتو
طفل
##امنة
ذو
##بطال
##بادئ
وسوف
مصلحة
التربوية
الاعتراف
الصيانة
##ass
صوتيات
حياته
التيار
صديق
##indow
متخصص
عسكرية
تشحن
تاريخية
الفلسطينيين
الزوار
فوائد
مقا
التسويق
##انك
النيل
آسيا
وعندما
جاءت
تفا
##وراً
الظروف
بالفعل
تعود
##ارقة
الاعمال
لعملية
والاس
##35
فول
زان
دراسات
##واف
الأكبر
نسخ
##لاه
الأسود
تلفزيون
المركزية
البول
اللاجئين
عائل
معهد
باش
Invision
##كتابة
رأى
محم
المسؤولين
والبح
الأخضر
what
##ريفة
##جرين
عاجل
المحتوى
البطولة
فشل
إسلامية
مزيد
خلاف
##محمد
جدي
##رقية
خادم
##ماذج
هش
##راكة
العقوبات
##ide
##الع
مرش
الدار
أراد
ثابت
الغام
النفسية
التخطيط
الاج
##اعدات
##فاوضات
سهولة
والعم
عسير
ومد
ليرة
##كيد
ايج
عسكري
أين
##نجر
##اليب
##رز
نكت
يدعو
##ماغ
##AD
ناس
تخص
##قيام
منوعة
الزمالك
المذ
وار
##ian
وسل
##صات
أشخاص
##مح
##اءة
جب
Ad
الأنمي
##سمع
##يجر
##رادة
##الس
##جح
العيد
الامر
محلية
##هلك
رياضية
##ائص
لعرض
##اتم
الفنادق
سطح
المتوسطة
##سعة
الوك
المنشآت
قليل
السلطان
##همية
بوليف
للاطفال
العاملين
المشارك
الاشتراك
إفريقيا
##end
##كايات
##ليت
وجدت
الخاصه
##ترح
ترجمة
##ويض
بالدمام
الملابس
And
ناصر
##واط
إيطاليا
آن
##لزمات
كأن
تكنولوجيا
##روي
##سيم
مسا
##اضر
شعار
##كرر
##قلب
يبدأ
##ile
85
لكنها
حلب
##بارك
الإعلامية
##ئت
الفضاء
واق
المريض
##يير
السلف
##LC
##ge
##يازات
صفحات
السؤال
##اجي
كشفت
صحي
##واريخ
هار
##بطة
##صرف
##انيين
كرسي
الإخوان
##آخر
ندوة
##فرد
تحقق
المقال
الإم
ميديا
##داة
##كافحة
فهد
مترجمة
شلن
##كيم
باعتبار
خي
رابطة
##حاث
عشرات
ارض
ضمان
##روفة
المار
##صى
والشعر
وبن
الانف
المعم
عا
##ُول
الجوالات
بأنها
ومنا
غيره
##roid
لشركة
التعارف
التهاني
غذ
أقرب
A7
والمواضيع
ابي
اليونان
90
الجميلة
##اجد
##ابق
الإجراءات
فاط
##َّا
##ختيار
التنفيذي
الساحة
الجولة
##indows
An
##ظاه
سلامة
مثلا
الزراعة
شف
##واتر
##EN
وأش
##ــــة
جنا
البو
##كمل
مستويات
ماز
السيسي
النه
المرور
مشترك
غان
العدو
اذ
الإنت
##44
ذه
##رط
##وفت
##امبيا
استقبل
الذكرى
##وطة
الاستاذ
التداول
##ونتاج
المسيحية
أربع
iP
##78
##حايا
ذاك
حادث
غينيا
##طيور
شا
مستع
##وقعة
##قـ
الإيمان
صي
قرارات
مسار
العبد
تخرج
العدوان
##َالَ
##فون
تصنيف
المقدس
##يص
الدفع
##جيع
مارك
المرة
الشبكة
موجود
إِن
لابد
الأسواق
المعجم
##َوْ
رئيسية
تنمية
##شرح
حدوث
بولا
بحاجة
والمناسبات
القيا
النسخة
٢٠
##خبارية
##صورة
##تاحة
البرمجة
مقدمة
الاداري
المميز
##ES
ابتد
جميعا
موريت
أولا
الرعاية
تمر
##هرة
##شيات
##ight
مَ
زايد
عامل
تَ
دعا
يحاول
والسفر
أشار
أعد
تخصص
تابع
العش
be
الهجرة
عربة
##اعم
لتر
أض
##جلات
التونسي
تؤكد
##دريب
سيرفر
الارض
انك
الطويل
أدوات
الأزرق
انتهاء
آذار
إجراءات
##ebook
AL
##حاق
##اصرة
وصح
التغيير
الشكاوى
fem
##يكو
تحول
أوكر
الأطراف
ذي
الاستفادة
صيد
41
إنّ
##ــل
ملحقات
واضحة
تشكل
تشمل
##صيدة
##ومه
فلن
نساء
طوال
وجميع
والصح
##وكوما
الإجتماعية
الأموال
##ثبت
مؤسسات
الأساسي
##ity
استخدم
##قيقات
ولكنه
توب
##ترم
##ِّ
بعضهم
##ِك
##ومانسية
البابا
الموس
نيسان
والخواطر
المطلوبة
لتطوير
التض
موسوعة
والأم
##جين
##بيس
##قار
##بداعات
انقر
شيئا
يعلن
Le
فيصل
المسا
##يدات
يمت
##بوت
القومي
حالياً
بلغت
الاختبارات
المحذوف
الفندق
سلطان
##سمى
يصبح
المصادر
##aw
##روك
قريب
إصدار
##66
الدينار
يقال
بينهما
لوك
##ويورك
##وقة
خبراء
للأطفال
منهج
نهر
إمكانية
النصر
توقيع
الثلاثة
2005
العمالة
الفلبين
دائماً
بعدم
الإعلامي
تعب
##oad
ذاته
خطوات
قالوا
##قدام
والحياة
سمع
##ئون
##الون
أعراض
##قلين
مديرية
eyes
##up
##طاعم
الصحراء
الدورات
ضوء
##تمام
##قتك
تسبب
بالكويت
أدى
Pr
الصالح
والصور
جول
الفوز
##يرون
اليمنية
كأ
اولى
##فيل
كانون
زواج
femt
PK
##دمير
فص
كلّ
##بوك
##بيعة
اليهود
ورق
السريع
وأنت
تصدر
الموجود
حشرات
موسيقى
القاضي
الربيع
الفعل
##acebook
الماس
##راءات
التغذية
تراجع
الاستفسارات
##ite
مراسل
والمنتديات
##اتذة
##عدم
الكامل
##وووو
##RO
الترفيهية
والام
##راط
برس
والاقتراحات
بجامعة
##عله
##مى
الميز
##نتديات
##لاص
##ــام
يبقى
##لاميذ
التفعيل
التشري
##ازي
##YD
وفى
##وعي
مكياج
##ائفة
استمر
استايل
جس
طبخ
##لفات
##لقى
بذ
بعضها
منس
للي
روابط
الآية
النجوم
##ــــم
وآله
ملاح
سامسونج
لعلاج
بدا
##مكن
De
لعم
##ترات
ممارسة
##اميرا
دائم
اطباء
إنجاز
بالغ
##ربه
##انج
##ime
الخروج
يوميا
توافق
وأنه
##عن
##ctor
وبا
الحرمين
وهكذا
الشهداء
##كادي
الرحيم
##وكيا
عال
سياحية
الجماعة
الاربع
##HD
اللاعبين
##زو
كاب
ورس
راف
##تمال
وتشمل
طبيعية
العثور
وهل
العنوان
الفلك
الذاتية
##رفشة
تسمح
##ثمارية
بالفيديو
الصراع
##ائعة
أضرار
والسل
يض
th
الفيزياء
البحوث
النهاية
ويف
##لفة
##ash
المعروف
كثيراً
الاك
سكريبت
القس
##سيير
والتس
درجات
وربما
##َمْ
البع
##سته
مذ
##ill
خليفة
##هدد
pl
التفكير
الظهر
لون
مستعرض
سعودي
سمير
الروايات
##يتم
التطوير
تقنيات
##غوط
بإن
نو
آب
ديم
الأشياء
##ذكرات
الاهتمام
تزال
##اهير
##زنة
العبا
##لادي
الأزياء
ندعم
الكس
توقف
التل
الأفضل
اتش
an
ووف
فالم
الشخصي
خيار
مقت
قوي
تعليمية
ملت
##ظات
وحي
الثقة
اتفاقية
##شكل
مسألة
الكتائب
إمت
##ركه
المصالحة
51
روايات
##فعال
الفنانة
يخرج
##وغان
البنات
النهائي
##تام
##se
##ندات
عددال
##اريو
250
النيابة
الفائ
بعمل
زم
##كييف
الكتابة
##ُب
أموال
##وقت
الراحل
المؤكد
قمة
الريس
##افلة
##فز
##لو
##iy
وليد
الأرج
قـس
##ناد
الكويتية
دولية
وذ
سقوط
العدالة
السودانية
الموسيقى
##عيين
الكوم
وأي
##راوي
عزل
الإع
##سيوية
بالمد
الواسعة
بالتح
فئة
الخز
##ome
والمد
محلات
تحليل
شعبة
الموقف
السوريين
تشير
الصحابة
انطلاق
اقتصاد
##درجة
الطيب
فري
دب
غيرها
بجدة
اشهر
##ابا
##كاة
سوم
الشكل
الخطاب
انتشار
طيبة
مسي
المرضى
جر
لصالح
##لون
Ar
راش
المحمول
الأثاث
عبدالرحمن
##جري
سيدات
##لاحظات
واجب
##يوخ
مصنع
الفكرية
الهاد
ستة
الممارسة
القلوب
السيط
بتعديل
قوى
##لاجات
الجاه
يجري
الالم
تعيين
المتهم
##ـف
##تمدة
##مني
##اهدين
##ّت
##SD
##بدال
##هو
بمنطقة
لدعم
البلدية
تخفي
وأد
الليلة
##المشاركة
##بيا
الروم
وبأ
فرح
##صا
البشرة
##ريبات
##سكر
اختصاص
الإيطالية
القبض
Dream
##ودا
خليل
الزائر
1440
##طنين
##حتها
سلة
الجلسة
مهارات
غرائب
لاحظنا
##َرَ
الكلي
والجرافيكس
##روري
##ويسرا
نعمل
##نز
التأكد
ul
المحيط
الأسهم
الأسنان
فلاش
السيطرة
المكلف
الصد
للمش
راج
المرك
الرواية
مشيرا
التنا
عيش
##كسر
##ames
##أتي
##ْتَ
متى
التوا
##جائب
يتحدث
الاسرائ
سيرة
كلما
##َةِ
الثامن
الساخ
##شخاص
##سيه
اسباب
مطلوب
مند
##غبة
##مييز
بمر
ومق
##ستون
ليبي
##كرون
المتحدث
ويندوز
تذكر
##ريبي
والض
##نها
التربوي
نون
الاسبوع
##هوة
أجمل
احتجاج
الجلد
للسلع
##ظى
##ـــــــــ
وارت
Star
أرب
الأحوال
##صيد
الفرقة
##شين
##نته
حرية
أز
خلفية
يرد
86
قادر
##راغ
مريم
صفوف
أغس
ميش
العاج
حتي
حرص
الفرصة
الشخصيات
##نيت
التأمين
رون
كوب
جدول
المستعرض
استطاع
مستقلة
##ئيل
##ئك
إلغاء
عطر
بمد
التعبير
##شرطة
طه
يورو
بفضل
##ُد
إيمان
##خراج
##امرة
##ُو
تيم
التخصص
إط
القن
وإلى
##سيقية
واش
الصرف
اسمه
الفات
وتابع
##oft
##كالوريا
قاد
يحيى
حقيقية
قصيرة
##ياع
تكت
والاد
للمشاركة
##28
##سيك
فكر
بيار
التقدم
##ادى
ذا
##ترا
وانا
ظاهرة
قرر
اسماء
Windows
الأنبياء
##33
##خمة
رحلات
##نسى
زيد
وأكثر
##عوة
المنازل
دينية
##لكم
المقا
شمس
65
الجريمة
فاطمة
##ِس
فحص
تشهد
يدي
هندية
اهل
##ien
للشحن
##وفية
##احات
قائلا
استخدامها
حام
يعتمد
يطلق
##MD
بجودة
الشروط
الاستش
الجاد
افريقيا
الوكالة
يشت
والتط
مكتو
الجهود
للمد
شرف
##ثمارات
بالاعضاء
إثر
كروت
##وائز
دونالد
جريمة
أبا
سريع
صحفي
القرارات
##راعات
##ـــي
الإح
سابقة
##زز
أبواب
موت
علما
عني
أبوظبي
مقدم
##هيار
الفلسفة
السلاح
نطاق
##يّة
الزراعية
تبقى
##اضرة
الجنوبي
سوء
تعيش
ونقل
ابحث
وحده
الحوث
بدعم
القرية
يضع
بقسم
تمتلك
والمقالات
يشكل
البلدان
ناحية
زوار
##يّ
##ريرك
price
الطبقة
المنزلي
لمت
##شك
انتها
##قاق
or
##مص
إِل
فيس
الأسئلة
الإرهابية
بنظام
Android
النات
بلاده
المستشار
##اريف
سلطة
##لان
البلدين
الولادة
المستشفى
194
##ازان
هيل
##van
##اوية
##جو
##شرت
موسم
النجم
##ومين
##ove
مصرية
مجه
بقوة
الكلمة
الأصلي
المستعرضات
##ُهُ
توجه
الْم
استفسارات
مستعرضًا
رحمة
##ثق
الستلايت
جعفر
يوف
عمي
قاسم
##ـتـدى
##man
Com
تنزيل
جاك
لبعض
اكتشاف
امتحان
ويجب
اتصال
الجمهور
رئاسة
تهم
العقد
تاج
المتط
##سبوك
الشيرنج
للان
##واليد
منزلية
السادسة
بإمكان
##ستور
بالأعضاء
يسمى
الفير
عنده
إدلب
##كاديمي
جيدا
باتجاه
الخيارات
حدثنا
اند
##شتراك
أوراق
##وجة
##بيبة
متجر
حبيب
##بيدات
العدسات
##اضافة
اكس
آخرين
##ِيَ
##طيه
فنان
##َتْ
##ديف
ريف
القيم
تقد
مجمع
تعتمد
##طبق
أفكار
جرائم
البرازيل
حجز
وظيفة
المصريين
قســـم
عَلَيْ
المقر
doctor
##ey
##جمعية
##ولوجيا
السبع
##OX
الموظفين
معركة
المري
الامير
##ium
##أمل
الصغير
##RE
150
أنفسهم
ايام
##ـك
مني
##ذاب
يقت
وأما
تسليم
عاص
الجلوكوما
##جدات
You
الرقمية
الكويتي
اليدوية
وعمل
##فتاء
ووضع
مبلغ
الجامعية
##mail
زانوسى
##يفه
##فرقة
فقدان
يسهل
بسيط
خواطر
قليلة
ساخ
تأسيس
كتابه
هشام
##اهيم
الأحزاب
زوجها
الإيرانية
لمزيد
##تة
وآخر
##ئل
والعلوم
خاض
انخفاض
موبايل
خطاب
اعتماد
المقدمة
##خيل
وزراء
قياس
اسواق
الكترونية
##أكولات
##هان
المئة
الانتخ
العقيدة
الجبل
شكر
بالبشرة
##ذاكرة
##وكي
##رحب
للمؤ
طيب
سمعت
يشعر
نهائي
##pen
فنحن
##صين
تتضمن
جراحة
الشعوب
سيل
ورو
فيسبوك
##دايا
بسم
الاتجاه
##ورغ
##ظاهر
لتقديم
##مائة
الاستقبال
والتج
الشامل
انع
##ata
##مات
##ْف
جيل
فنية
بمحافظة
##av
أخي
المائة
##SL
منصة
لمست
##70
هجوم
##ونلاين
شديد
##يء
للث
##ناية
الوحي
##ong
##عراض
##وانب
وَل
حديد
##وتك
##88
آمن
الامام
الانتقال
##امرات
مفهوم
الطائرة
مدخل
المسافرين
حديثة
تجميل
الهجوم
الزجاج
زوجته
المفتوحة
اختي
الاسلامى
مبادرة
فارس
الأسلحة
فاس
العالية
والاح
المهني
المشورة
القاعدة
خارجية
##شستر
##آل
تكشف
prk
العربى
##وفة
##عدات
لمعرفة
للقر
##ُس
الأقصى
يجمع
##لاط
دردشة
الآلي
##ظهار
الخبرات
الهر
فرد
قبول
تكوين
HT
##زايا
##هوري
يتر
وَال
وهى
وأخ
كمية
##وقيع
الميك
أخبر
شو
استراحة
الأزهر
##نياهو
للتو
البنوك
##26
##تس
امل
ثيمات
##ولايات
المسلمة
اسطنبول
شار
درس
موز
وتقديم
والتنمية
##df
##عدام
by
##بز
لطب
الأطعمة
##أمين
المطار
بيوت
يعتقد
شكرا
##يانه
##ضمنة
لنت
##يجي
فيديوهات
ميل
##حدات
اجراء
أزياء
##echnology
عزيزي
##ثيقة
أيها
الشراء
منتصف
هاش
هاد
المسلسل
ذكرت
##ـام
##ؤاد
غريب
عائداً
والاب
صحية
الخلاف
##داولة
##َذ
اكسسوارات
##غرافية
##ثبات
##كرا
تهدف
إصابة
##ib
بدي
عمله
والمسابقات
العاشر
واخت
الثق
الخلايا
بكال
تسعى
لصاحب
بمست
الشيء
مربع
والبي
99
مفتوح
##َّى
##ريان
الثنائية
ودي
كبيرا
بسهولة
مأ
إما
معروف
تعت
ليكون
300
سرعة
الحدث
##راقية
الحقيقية
الحملة
##TV
ظروف
##ــه
##ant
##زت
##ْس
إذن
تعاون
##ؤل
صن
##ابعين
##ليق
##23
حوادث
والشع
التاسع
تحصل
حج
وصور
أيل
يتضمن
احلى
المبد
##زايد
نقد
والفيديو
يطلب
بتقديم
طبيعة
##رتها
نقول
الاحتياجات
الكور
النقابة
##wit
##ردود
##رخ
##حيانا
منصب
عمال
طبع
وهنا
مشاركت
##اهة
للأن
عي
طبيع
أنباء
Cl
الشيطان
الجامعي
القيامة
مفر
زال
إمتيازات
مارت
الإصابة
المعالج
عقود
القيمة
##ach
المستمر
##رال
قي
##ذاك
##جيال
احترام
##حدد
بقيمة
##شم
قدرة
##IG
فيل
المولد
##ارته
حصلت
##ly
##29
##ترفين
الصناعة
العميل
احتف
المقرر
الـــ
##كلفة
العاط
كولوم
والمق
اللعب
ودعم
للايجار
مدي
##جازة
الخيرية
بجد
مثال
##وقوف
يقبل
محدودة
##ظن
الثابت
أكدت
نخ
ينتظر
سنت
مفاج
الضر
لعدم
##طلح
مدرب
##بان
عملاء
متك
المكررة
السكان
سلاح
للمرة
نوا
##نسان
تربوية
أولاد
##اطعة
إج
##روضة
خلاله
##ign
إني
خروج
أحسن
سعادة
الاو
موسكو
قررت
يأخذ
جرى
التدخل
re
القصيرة
اجنبية
##ئمة
اللبنانيين
سيناء
قن
الارش
شهور
##تمكن
الادب
جفعات
مفتاح
النَّ
نير
إعلامية
##هلاك
##بول
##هيئة
أدناه
##ظهرت
الذهاب
صيدا
بطل
قيل
الاغ
خطأ
إستضافة
مسجد
الواجبات
##ery
##لاغ
خاط
خيمة
القارئ
قنا
get
بيس
المحافظات
الطيبة
sh
ماك
أسرة
تزيد
مؤشر
ويكون
بمشاركة
شهدت
أنَّ
لنفس
##جهود
سينما
المشاركين
روزن
مراحل
علامات
النهائية
##ابين
موض
اسلاميه
الالتزام
عاصمة
غسالات
جا
##جليزي
اري
بوجود
المتبقي
2004
التوجيه
قيا
ناج
بقيادة
تأليف
ترفيه
واسع
##غانستان
عقل
الخرط
الاربعاء
##vanced
بدل
جراح
الدراما
والإنترنت
الخبرة
مشاهد
المعنية
مستعملة
فرقة
حلويات
##رّ
يمر
الحاكم
##ذان
##فيفة
الكام
شعراء
سوا
##cc
##يتهم
إليك
يخت
البرو
##اعه
بارك
أغلب
##دو
##DR
وتخ
فش
المكرمة
¸¸
التميز
اتجاه
يدفع
##ِكَ
best
مواعيد
شاشة
واج
عامر
والطب
والأد
الواجب
الشرقي
وملحقات
##رشاد
الركن
الاخر
أقول
مور
الأمطار
ليل
ولكنها
للكبار
زاد
مهندس
أطلق
وقبل
##أه
الحلويات
بالتسجيل
##كنة
تصبح
المتقدمة
حت
##ترول
أشكال
##els
لخدمة
نيويورك
##ast
قـسـم
##جرد
طلبة
كرونة
ظهرت
مدونات
غدا
الأفكار
تقلي
ومص
بلاك
لمواجهة
الحديدة
##على
الألب
##۩۞۩
غد
##غرافي
الرياضه
ايران
التوفر
قريبا
##وسنة
ضرب
سقط
سبع
رصد
##اريا
المالكي
الفا
هون
##قش
##صيب
موجودة
التطبيقات
##ثمرين
الإحت
الأداء
##وائح
والبحث
رق
##جوء
أرج
القائد
المحددة
قمت
يكتب
Is
روزنامة
مدبل
TR
##ادير
##جيه
امس
معلم
##ark
وجعل
بسيطة
##يفور
##قها
اني
المتوقع
نوكيا
النرويج
سيدنا
والترفيه
المعلمين
##ذير
استح
الوقاية
الأصول
وخصوص
قطعة
للمت
الحوثي
حماة
##وائر
اليابانية
##ams
عوض
الكرد
##ًّا
الروبل
##AC
يكشف
اقتصادية
##روسيا
المجالس
بالاست
جابر
السوداء
لضمان
المعارض
سحر
##راي
سكر
صاد
بمش
##ost
الاحلام
كهرباء
القائم
ماج
جوز
الشمالي
سويسرا
والسنة
حروف
تتميز
##ترين
بيئة
البور
تجارب
باع
لحل
##int
مسيرة
ولقد
الحلول
العضوية
الأماكن
##وقية
منكم
الويب
##برات
السرطان
الترش
##TL
الوردية
كواشا
يدل
##بقى
النووي
والخبرة
##ريرة
الأساس
الثامنة
ch
استراتيجية
مدين
فبر
اندرويد
الأديان
يعاني
##EL
التاسعة
الآداب
##for
الديمقراطي
أمور
عاط
اسرائيل
راس
سحب
لقب
Be
##مجيات
التقليدية
إغلاق
##صدارات
قضاء
DV
الخرطوم
وبل
ورغم
والتم
LLC
Hot
عراقي
الأنشطة
والتى
##ابرات
##عودية
فير
##فضيلات
إنسان
##َّة
متضمنة
##رجى
بالتع
وعلي
الزيتون
تطور
الحساب
can
العقاري
والعلم
##شيش
##xx
نماذج
كاس
رسمية
فيهم
الخطوط
##هلة
##كتورة
الايط
روي
بوضع
فاز
مَا
الابداع
السجن
الملت
المجموعات
اعتقال
##ُع
##زيمة
الادنى
المخاطر
يوفر
الاختيار
##طه
فتاة
cont
##شرون
##ياطة
القادر
##90
إنس
السعادة
مستمر
مرحبا
المكون
##وانا
محافظات
الفار
الترتيب
الأند
اعتبر
إصلاح
##نو
الوظيفة
مولد
التخلص
##قان
##وارئ
News
##يتك
مئات
قيد
##هنة
غيار
المتداولة
##ork
how
السابعة
الإقليمي
محرك
##ميّ
##SS
تعليقات
كسل
الصديق
##سلمين
يومي
العناصر
##ذاء
٢٠١
الإله
##افات
##صلا
الحكومي
لتس
##ire
الاسلاميه
##انيت
pdf
لبرنامج
فو
للأسف
الواقعة
اننا
التفسير
معي
الربح
##ons
ديف
والتهاني
##p3
##orld
##قطر
##تمرات
##ناها
سنغاف
تسربات
##وقرا
##ثى
اضاف
ثقة
##ـــــــــــ
الكوك
المخدرات
شعبية
التزام
وبدأ
بيل
التعلم
يسعى
وسيلة
ببعض
##ذكورة
##راقب
المنهج
##مبي
أعلم
##َام
##اورة
حن
بالاضافة
تتر
ولهذا
يفعل
##َةُ
سيع
تبلغ
والمنتجات
زامبيا
##اتك
الألماني
وكما
##واخر
وَم
جبهة
فضاء
كات
##قسم
الفجر
معارض
نقاش
التجربة
##اناة
##يمون
ومشاكل
المحتلة
تأمين
##ركاته
64
شاملة
شرب
الارد
التبادل
المنظمات
للتر
مطالب
##sp
Ex
المرئيات
##مارسات
##درة
تؤدي
بمعنى
وبناء
ليون
##العاب
الامريكية
الآثار
التدريس
الصدر
وبه
##لائكة
ورحمة
الجهة
المعاد
تغطية
##tern
المتن
سهلة
معدل
الوفد
سياحة
واحت
الـع
الأصل
بانت
##شراف
##وتين
الاق
نتنياهو
غاية
##رحى
الشاملة
##شيا
النفسي
بقية
##تاء
##فان
ar
الزيارة
يشارك
للصح
##ـيـة
الشهادة
وتغ
المسم
##ويلا
نتح
التقني
المسئ
تايلاند
##سمح
##كيك
حينما
##حيل
تصفح
##دران
مستشار
فضلا
##ابخ
الألي
ميلاد
بالض
كاز
الجغرافيا
راح
العثم
سودانيزا
خال
الهم
يطالب
الصادق
##witter
محطات
يضم
المراه
هما
اونلاين
سائق
##ربول
##بيات
بائ
بالمر
طبيعي
الحجم
قادرة
##َص
تماماً
قيمتها
##عها
الما
بمث
آلة
العفش
83
##عوا
الشمسية
السلم
دفاع
##عدل
بالمع
الموضة
##اهل
الصحيفة
الأردنية
##كاية
##درج
##كرار
تختلف
##ليلة
سامي
حديقة
الخص
مستعارة
##ions
##وجه
عشاق
خبرة
أخصائي
إدخال
زفات
يسبب
##ركم
أجر
##ياتها
وتعالى
سهل
##َّر
وسيا
technology
حديثه
الاحد
احسن
##وتيات
مرف
##فعاليات
الفضائي
كير
يعرض
عظ
مؤخرا
##يتين
##ne
الكيمياء
الاغانى
مبر
للأمم
العشرين
##علة
##تش
##ell
حياتك
للانت
مستلزمات
##afe
حصريا
صحافة
##ماج
##داقة
##MT
البصرة
سودانيزاونلاين
التقارير
ملاحظة
##غفر
##وطات
##وبيا
لتكون
الادبية
والنا
##وماكس
##البات
فكل
سودانيز
##ليح
اكتشف
كريات
للتص
الدمام
وفقاً
غر
الروابط
الأحاديث
##افه
سوبر
بالقر
##هنئة
اور
وعلم
الريسيفرات
نشرت
##روبات
##ديب
والمه
الثل
والإعلام
النتيجة
##بطولة
والاجتماعية
وتك
فأن
##زد
البري
Dreambox
##ابون
صدي
الصهيوني
إقليم
وتاريخ
باط
اراء
حفظه
وعل
##ِيم
نُ
قبر
قصف
المنبر
آي
بطلب
##ِق
##عبد
##qu
أسوان
والمؤسسات
داود
يملك
##ارفور
##ky
جنس
صب
برمجة
##َار
توقعات
هاتفك
خزانات
اعادة
##ــب
يقف
تراث
الصيني
والعربية
##بعث
فلل
إنف
وطلب
سلوك
##وسائل
الفيت
##ـيـ
طهران
تنز
##ناقشة
الواردة
وبي
حري
##ord
##ائهم
سوري
قاتل
وأول
المصارعة
##anc
شهداء
عبيد
للدولة
الليبي
نعرف
##اتا
القضائية
##َاب
الجمعيات
المويه
البرلم
##قيع
##HP
وتصف
##حان
##كه
البقرة
الاحتفال
الخمس
وابن
ادم
تضع
تنسيق
الخارجي
وخط
##وضى
##وديوهات
الشريفين
سمو
الأكاديمية
حسني
تنظم
##تيش
##صيح
فريد
قوم
##غيرات
احتياجات
الفوتو
المبادرة
فؤاد
الربع
تعني
بشار
تسويق
مجموعات
غز
نريد
تجهيز
أدبية
لائ
المعنى
laz
##21
السفارة
๑۩۞۩
البالغ
خالية
القومية
##ضحكة
طعام
متصف
زمان
صفقة
advanced
تقبل
لام
العقارية
##َّل
لحماية
##ركية
SP
طائرة
##رفات
##قوا
تتبع
##اين
400
##جنب
اختلاف
الرسوم
الكليات
##حتك
الحجر
##لاس
تموز
التقنيات
##نمار
##وصات
المراة
والرياضة
الإصلاح
##انغ
##وائم
مؤكدا
المطر
الجول
ساهم
يصدر
عكس
##nline
بجانب
صدور
القوم
مونتاج
رسمي
والده
يكت
يواجه
اليوتيوب
أنس
##ical
الطرفين
يفت
##ويتش
##واض
والموقع
##حسن
الخضراء
الألوان
##نتها
الرئ
والمف
الشعراء
للأعضاء
##hone
##36
الصعيد
الإسكندرية
والمل
وسن
المعهد
مبيعات
نونبر
ستو
زيار
الَّ
##يتش
المذكورة
##75
حفر
اللّه
الاستراتيجية
هامة
وأب
بكثير
##34
أبيب
شبكات
شيئاً
وإدارة
الأشكال
رؤساء
قدمت
وقر
لأجهزة
لأس
الرائعة
##يتس
##ِح
##قمار
انط
المعرض
جواب
قَالَ
بالقاهرة
##ug
وايت
الأوضاع
ترش
##فايات
##ــــــــــــ
العيش
نيوزيل
MP
##طنا
بغير
يتطلب
##ree
الترفيهي
متط
ثمن
##ارم
##ـج
##بلوماسية
بالشعر
##رون
##200
ناق
الإخبارية
مقات
دوا
أراضي
سفير
مراقبة
##ump
أوكرانيا
AR
##قراطية
رمض
##وأ
راشد
##ياح
الاعلان
##َلَ
صدق
تقريبا
الشديد
خدم
##عاقة
مخالفة
وقعت
بالان
قادة
CF
أقوى
رضا
جرا
وسم
الشيعة
برف
التهاب
زيارتك
محددة
تدعو
عائشة
والتش
التحت
##سنجر
##لالات
كرتون
كيلو
##ضاءة
الخطوة
بعين
##وماً
الإيج
تليف
##وبين
##ىء
Sy
البب
الصناعي
الأحيان
##uc
تمويل
##آآ
أقدم
النحو
الرابطة
##ous
الاشترا
نظرا
أسط
ترد
الامور
البصري
جولة
العاش
التحميل
الغد
التركيز
معالج
##سيس
##فسار
الرَّ
اثنين
نرى
##ِف
وها
أني
اية
حبي
للبنات
للنا
تجديد
الذهبي
Play
##ــا
يستقبل
بموجب
القبائل
مناقشة
وحدات
خام
##جازات
##ND
المدرب
##جنات
##ائفي
الصندوق
##أحمد
##ائقية
الطرف
##اضل
تأش
العسل
ويُ
المشحونة
يُذكر
ياب
طائر
الزينة
مغربي
المؤلف
والجمال
مفتوحة
الدستورية
دخلت
متاح
CL
الاجهزه
رض
عماد
اكتوبر
وأضافت
الشعرية
خطيرة
العادية
##اااااااا
والتصميم
النوا
##ore
أغاني
##زيلي
العاص
بالرغم
مماثلة
الأحكام
الأز
مكاتب
##راوح
##شع
##MA
للشباب
Arabic
البدنية
كورة
أكواد
وعرض
والاتصالات
اجهزه
##ana
جاهزة
๑۩۞۩๑
شريك
يتحمل
العصب
السكنية
##وطن
القانوني
الكث
أمنية
فلي
تواجد
الساحل
الإنساني
الرئاسة
##الن
مايك
الزمان
per
ღღ
المبكر
##ix
ذكره
سدي
للمنت
بتش
لمجلس
ايديال
روسي
مطلع
لمد
سمي
يشهد
الزه
##بدء
جلس
##راجعة
تشعر
تضمن
##ضال
منهما
عدن
##فيظ
التحديات
الشاشة
##BD
قرا
والبر
##يرين
##سيطر
##طالبة
طيران
منتــدى
التابع
أيلول
الوسائل
بعيدا
اقل
نبي
الاندرويد
##ماش
الإسباني
عباد
كليب
والأخ
للموقع
منط
يحقق
بوتين
النصوص
للشعب
إزالة
جبر
فد
سد
##ريز
انتهى
2003
بمثابة
المرف
مجان
والتف
منص
توفي
الميلاد
السمو
##یة
خش
اشهار
##جنبيه
للتنمية
##لتها
تحالف
كنيسة
##tra
بالمح
البدر
الأحياء
البقاء
##ff
التدخين
متف
حيدر
الدعاء
لأم
بدلا
نواب
IP
كويت
المسار
برعاية
والجوال
الليرة
عود
الاستقرار
مخيم
##med
##البة
الدماغ
التوحيد
##صن
##ئناف
##اشيد
الاشراف
##غرق
الصبا
المبوبة
موافقة
لقسم
##يراد
جملة
ميدان
رأيت
التحتية
وحسب
##َيْن
حافظ
الماج
التدريبية
المحدودة
##ْتُ
ومحمد
كرم
##قاب
اختراق
عندي
عدا
نغمات
شاه
دان
العقارات
الريف
الشهير
التنفيذية
##حض
تمكّن
النموذج
hd
##أى
لفترة
جنب
بتر
88
إبداع
##اريون
##اليم
##ace
الشأن
بانور
نداء
منف
خطط
والثقافية
أقيم
مجموع
الاط
الأردني
حظر
بالمغرب
الضو
##ارتون
مبنى
##ائك
##ّاً
أجزاء
شاطر
الفم
القبول
##ais
##ودان
النمس
##يشن
المقدسة
تعاني
الجوي
##ear
عمّا
##صلت
الشوارع
##ساطة
سبا
هادي
الأدوية
تتمكن
مراد
##َط
الرحلات
التكوين
رياضيات
يستحق
ثقافية
العقود
جين
وضعت
##كاف
##ذاهب
تقدير
ياسر
وكشف
بعم
الاخيرة
##ؤه
##وائي
الحمراء
يهتم
##شارة
أسرار
التشطيب
بصي
موريتانيا
##ِت
سح
رف
66
وكيفية
الصادر
الثدي
##تراك
لإدارة
##ويا
##دامة
##زيع
Th
للكاتب
تبين
##ـال
والانت
##متاع
##آم
##GN
الكرتون
##ecial
تعارف
بتس
##سيكي
قديم
تكريم
##vel
شامل
كرد
تاي
##دونيسيا
المنظ
بالز
الهد
الليبية
قســم
وظ
أدخل
وسب
##اشي
تشارك
##غراض
حاسب
الإجتماعي
رونالد
التونسية
يشمل
##تبة
النباتات
##هداءات
##مش
البغ
##ET
##صبحت
الشهيرة
##يفو
السياق
##ْي
ممث
وحل
##خام
الصيام
حيوانات
التحويل
أقصر
##رقم
نتمنى
جولد
ربط
ستح
مناه
أعط
iPhone
الجرائم
لنقل
سول
##غن
السنوي
##ations
أنني
إسبانيا
والار
##ئن
كتلة
علاء
التصويت
##ايا
المنقول
ونشر
##الإ
التمويل
##سيع
ضحايا
الشك
##وفير
مبد
القواعد
تبدو
والقر
يرغب
##ms
جمعة
بخط
أريد
العاشرة
اصدار
وكذا
الموصل
الوعي
المشرفين
المعدات
البوسنة
##روقات
يلتقي
كروات
كبرى
وغيرهم
الخليجية
ورا
وطني
الضحك
##ult
توثي
الأهداف
سبعة
وسواء
تحدي
الأست
المحاسبة
مَن
##قيات
##ناسب
سيم
ويج
##IP
الفتاة
يعبر
الزم
##خدمي
انمي
بتص
##جمهورية
مستمرة
قبائل
ورفع
##ستن
##سير
صنعاء
وبم
فروع
يتعرض
انتر
الطائرات
الدهون
العائل
الأطباء
##ber
##ليمة
اثناء
##وريت
##فسة
مثلاً
يساوي
موضوعات
##رائق
والديكور
##ديدات
الدموية
الأور
متأ
اتخذ
عَن
##صلي
أهالي
الفلاش
الفكرة
نهائ
##edia
العينين
المباريات
##ْق
ابيض
الاتح
النسائية
الصحيحة
حسابك
الفقر
هاي
##قدة
الهندية
بطاقات
##عارض
للحد
تسل
يوماً
##يدس
بإذن
##سف
##ئذ
##فضة
بيعه
الإشارة
##ابير
الباطن
لانه
يهدف
الحيوان
##فف
##جيكا
##شأ
الأدوات
##اجه
##وندي
حزيران
طبيعيا
نصية
##شيط
كوست
ضمانات
##LL
وقوع
##رائط
والشكاوي
##سيب
الديك
البلدي
المائية
مضاع
السلامة
كـ
التجارب
أعرف
الخطأ
أَب
##OM
الأفراد
##وسيا
باي
mot
كريست
ينظر
الصوتي
الإنجليزي
لرئيس
بالذكر
الأصدقاء
والاش
SD
للعم
عمره
وَأ
mp3
المشروعات
##جأ
إضافية
##ذاعة
استعادة
المهرجان
رجب
##رافية
أسلوب
##obile
المتم
لذ
الاعتداء
وإد
ملع
رسوم
##ool
موظفي
كتبت
##نوب
يونس
ورقة
أَي
الأمل
ومدى
أستاذ
##BOX
مدف
##رشادات
مصير
الانتخابية
##econd
##اموس
وتكون
##تويات
ونس
جسر
##جون
والفر
بعده
##طين
تدور
تعبير
شوق
المدف
الأرب
وكم
فنون
مشتركة
الذهبية
##ولو
غاز
##بتدئين
الأسماك
فكيف
رياضي
أثبت
الأهلية
##ection
المشاعر
الجبهة
آلية
##زلة
مشكل
##كك
عظيم
أردوغان
الملي
سريعة
##امعات
روّ
##MS
للشيخ
الغذاء
##خصيات
الرقابة
رغبة
مخاطر
##بوب
مفيدة
المخالف
شريف
الواح
المتعددة
Dump
المدنيين
##ّات
##ِّي
تحب
الدائم
تأكيد
أري
##ئاب
##نتي
ولفت
##اصد
اللجوء
للتعليم
البرتغ
أسس
الثانوى
اسرار
الإعت
يؤثر
المديرية
##رابات
##لاعب
والابت
أعلاه
الحضور
روان
البرية
النصف
تخط
##angu
الإيطالي
عَلَيْهِ
##واتيم
##ownl
الفل
##شو
##ّها
اين
استغلال
##قبة
نكون
VU
##سعيد
تخت
الياباني
##ذاكر
##حقة
مراجعات
ليك
إليهم
للرئيس
نوعية
بورصة
اجت
شرط
وتحديد
Facebook
ولت
المجتمعات
تأخذ
التنسيق
تجاري
والتكنولوجيا
نفذ
##UR
التحليل
##ستها
الجليل
##ans
أضاف
الضم
المتخصص
الهندسية
والرح
##IF
##ownload
سبورت
##جام
##YR
ويعتبر
المعي
تام
##غطي
المعتمدة
فضلاً
##جزائر
المجيد
القمة
المشهد
متاب
قلبي
للتس
مرج
الحيوية
داخلي
السجاد
ربي
انهم
تأكد
##نجية
النقاشات
اته
كوكو
##داي
والشراء
ميناء
##افئ
أنشطة
الخس
شخصا
##يوف
حقق
تذ
أنّه
##اتيح
##َض
ترق
##عمة
التوص
##راها
لايف
##ربون
الاستشارات
##نسا
المتاحة
السا
##رجاع
الإبتد
المعركة
##الايت
الفطر
##37
TV
##طيف
نسائية
##انيم
El
الدوا
دعاء
##io
عالمي
##حون
إشارة
ابناء
أسواق
الصومال
الكونغ
##ــــــــــ
الهامة
تجرب
##شير
تابعة
المراحل
يشير
##وخة
العميد
اللحظة
المشرف
الفائدة
الوظيف
زالت
الماسنجر
الأنباء
##اظ
توثيقية
الفرص
الأسماء
##Tube
##كتوراه
إلكترونية
الغامدي
بريدك
تخزين
واستخدام
##طيات
##حيه
بمصر
الإقليمية
##عضو
اصحاب
والمج
سابقا
لمنع
جلال
##riv
والعاب
##والب
##راة
يلعب
العروس
غض
الكومبيوتر
والذين
بالأس
كب
الدخل
##IT
الفك
المغت
عجائب
معك
أمي
الأطباق
النهضة
ومر
GX
دوت
##ازة
وإتاحة
المتوقعة
##وافي
##وضية
يرفض
مشرف
والفن
استراتيج
96
##حاولة
##صية
التطور
ارد
##كريات
##راكش
الفرا
دامب
ماجد
بالقانون
الشرعي
سيدة
##حوا
وغيره
والاستفسارات
اقتصادي
##الدين
ملخصات
الحصار
غسل
بحوث
يمتلك
3D
والإست
##صابات
صوم
باكستان
جير
##عدة
الاستمرار
لتم
Phot
الطا
المضافة
باحث
##ary
فعلا
المحي
اكواد
السرعة
##يمين
##ؤولة
أجنبية
اليورو
استد
ابتداء
67
##حمل
علمي
##BC
واتس
يختلف
لتق
وبأقل
صحراء
بصفة
بسعر
التشي
هات
الـت
استشهاد
وبحسب
##ضيق
امن
ونصف
نارية
##ضط
الهول
##مائ
المقابل
تقت
أسهم
للتواصل
متوسطة
القطري
الانتهاء
المصالح
بإرسال
##يعية
أساسي
لولا
القتال
تأسست
##بطية
##ren
الجزر
رحم
أيار
روّاد
والثقافة
وزيرة
##يدي
دولي
بأم
##جران
الأنترنت
جافا
##old
المساعدات
انتهت
المحاكم
الجنا
##افل
أمريكي
لعمل
##حاح
PL
بقدر
يكفي
النّ
IS
هولندا
الفلبينمدينة
##صلات
فعالية
والترحيب
منظومة
الشكر
واجه
##يراً
##وقاف
##رحم
الخبراء
المستشفيات
##سيما
##ائيه
##يسر
##يمز
الكريمة
نفيه
السّ
النيابية
##فيع
##ليو
special
الإقتراحات
##سو
سوفت
##ـــن
مسجل
##خبارات
Online
تدفع
المباشرة
لث
احتفال
الجفن
وتب
اساس
الرش
البيض
الفتاح
دام
والقانون
يومًا
نبيل
سجن
##رئيس
الاسرائيلي
##IC
تول
##لار
التلف
##َخ
الإستفسارات
عميد
##يافة
##نيها
الميت
والبل
أشرف
##هلى
##ودر
مذه
اليها
##ادثات
##بعوث
لمؤ
سلطنة
##طبيق
والإن
ثانوية
##ere
SE
اعداد
الموافقة
App
كش
التمو
دل
شاطئ
المسابقة
الغرف
##انيات
##US
كُل
أدب
لاند
الألغاز
##يرى
حذ
أشد
النارية
المواقف
مدني
حلا
##فلات
تجار
يؤمن
استر
اسئلة
يعطي
معاي
الوجود
المدونة
##بادرات
وأل
الامراض
أوب
السلوك
دو
الإشت
لأجل
الممثل
القرى
أقصى
تكلف
أوضح
الفحص
##يله
شريط
##DF
مذكرات
##لاقي
لاحق
68
والانحراف
السو
فجر
##let
نصوص
اصلاح
120
الوثائق
##AB
ميان
حلف
##ارها
تطلق
نك
الفيزيائية
جيبوتي
والمك
سكاي
##ابلات
لتنفيذ
بالتر
دكة
##action
وسلام
الألف
##ُك
بئر
البث
سياق
صاحبة
غريبة
البطريرك
المساحة
##بوط
خسائر
الصادرة
الجر
بنها
تيار
القرآ
أسامة
##يما
التشكيل
محاولات
اطلب
ناشطون
الوحيدة
اثر
شديدة
نزلاء
صلة
##هك
المسلمون
##بكات
##ideo
##رياضة
وطلبات
##اكا
للمرأة
التطورات
التعرف
الاعتماد
المرجع
حدد
التاريخي
بمكة
جعجع
حسابه
##الحة
الجنسي
##فقود
جمهور
##la
للنساء
ديز
المراكز
لست
الدوم
أحلام
طبق
أيدي
أطباء
Black
مصورة
مواليد
شاشات
بدور
##برية
ماد
العالمين
ساعد
الحكيم
##ـــر
تكييف
##يانو
##هرج
السح
##ظلم
أبنائ
الدكتورة
تؤثر
ultra
وليست
آلِ
##ism
عائلته
المياة
##يادين
فرانس
للسيارات
السويسري
##خار
القصر
الخيار
الاكت
ناب
الهندي
قاله
الضفة
org
يمكنكم
وثائق
التليف
81
جرت
المخابرات
المبر
المدرسي
الانسانية
##اليون
الرائدة
التأثير
بنفسه
اتباع
القطرية
Prem
##ؤية
##KK
أذربي
القاسم
##تكم
US
تهتم
المنافسة
##ايت
استقرار
فإنها
##اسات
##قن
روضة
لإعادة
بعث
##icro
الخطيب
أسفل
##نم
والاف
الابراج
الجماهير
##ؤها
والمعلومات
موضع
بشير
##وجات
إنفصال
الهوية
سباق
أسابيع
يقولون
##يرلندا
600
extr
en
الراعي
الميد
وتعزيز
مشترين
##ِيَّة
الفيم
أوضاع
الإج
هُ
التسلية
حكومية
##هارة
المزع
بــ
##ثيوبيا
مناسبات
بقراءة
مُن
الشتاء
خصوصاً
##فاد
انتظار
الأسط
المان
##عاف
بائعين
زياد
موضة
##قتين
كود
نادى
اللقاءات
ريس
للاتحاد
القصيم
متصفحك
سار
منخفض
الباحثين
لمكافحة
الارشيف
الحرام
الدوحة
متل
والمحطات
الحادث
القدر
وقيل
بالتأكيد
الطائفي
مزاد
برون
الحضارة
وقدم
YouTube
وقل
أحياء
الصعب
خصم
زرا
ps
##ارتها
اكلات
وكتب
##خان
الحوادث
الإطلاق
الصحفيين
ضياع
يمنح
##OL
والدولية
##جيب
واذا
تحظى
En
يتناول
صفر
الفيمتو
##حمة
الذاكرة
روب
سلوف
تري
الفاع
##أسيس
الرائع
safe
تمثيل
##قيقه
شاح
صدى
##ath
نزل
الوحدات
Open
المسجل
°¨
##45
لحم
2001
بعدد
وفرعية
صاروخ
تطالب
عضوا
الشعور
لانت
مضم
وبركاته
مسئولية
##ضاة
##كررة
PC
تأخر
البيلار
مسم
##ـح
نظيره
يزور
الجريدة
عَلَى
##eg
قديمة
طر
وحقوق
خد
تدريبية
إمام
Games
##RD
##يميل
##وهرات
مانشستر
الخوف
وتصفّح
الحكمة
تركي
بانوراما
##نقل
##وتش
specialist
قيامك
سيش
##ung
يتميز
##IS
##حى
والرئيس
بحجم
برم
STAR
مغل
surg
##osecond
النمل
والأعمال
لور
تخل
##سيطرة
حسام
##لندا
الإساءة
القرنيه
##سهيل
حاز
الحرس
المعروفة
extraction
المخروطيه
بورت
والنقاش
حقيقي
femtosecond
الول
خصائص
الخطة
حوارات
سعاد
63
##وتس
محيط
غذائية
بام
##DL
أرقام
##IM
##الياب
##يفية
الشارقة
##ائز
عربى
نظرة
##ريش
##ُّ
والبحوث
المشا
تاب
البنفس
الكم
الشف
المدى
نبض
##ولوجية
##مادي
تصنيع
فحسب
##َّه
##قارات
الخطوات
لشؤون
كليبات
##علاني
ولعل
##رسة
طائرات
اضط
##زحين
صبري
##طالب
الإسكان
المفض
##ZN
تمكنت
الرباط
بطر
##عان
نقيب
ثانيا
لبناء
عضوية
ربع
##ريفي
عجز
العلوي
##بكة
واليوم
##توكول
إدراج
والهر
مدا
©¤
##خاء
##عدادي
##طبة
الأثر
آراء
##هيب
العظم
##MK
كبيراً
ورم
منظمات
القتل
وزيادة
بموا
فلسطيني
##طلبة
##َّد
الخد
##بلوماسي
أعظم
السادة
##كلية
يتمكن
##آء
زوجة
مره
الصل
صعوبة
ويمكنك
المحامي
أرم
ستجد
المعاصرة
واحدا
يترك
##قيت
رشيد
غضب
##OK
##بتها
##صام
##لتزم
##هرباء
شعبنا
##سيوط
سفي
دى
ختام
يدعم
اطلاق
##عاش
والمص
تميز
كثرة
##كبر
أطراف
##لفيات
الاهلي
##فسية
يتجاوز
خضر
النح
الواحدة
هنالك
وتل
طلبك
vs
##تهما
ماهو
وإعادة
المسألة
وتحقيق
حائل
توفيق
##ميلي
خطورة
مرسيدس
##عبير
##EC
والي
##يفي
##ـى
##وبرا
لوزارة
##erv
امريكا
الديوان
المحبة
##ram
##ction
عملي
وقا
1000
هاشم
يتأ
##اليل
المجتم
##قاليد
##يتا
ارتفع
الزور
##غف
والأمن
¨°
Su
أسر
قلعة
ليع
يريدون
ترددات
##oh
الحشد
##ener
##ارث
##دادي
زاوية
تتحدث
بلجيكا
ووا
##وسيقى
##تُ
الإتصالات
عبا
##َةَ
وخلال
عددا
الدموع
net
الراحة
##ain
الابتدائى
##يطاليا
##جنوب
دف
التصنيف
جميعاً
أسم
##أخذ
ينبع
الكبار
لافت
صعيد
ينشر
متصفح
الند
الخريطة
الحسابات
صرح
ضعيفة
لائحة
للأشخاص
ثلاجات
المصن
اغتيال
ارب
يتيح
##واهر
##نغ
قيادات
اعلام
الجمهوري
اتصالات
أغنية
أحيان
زع
خض
المختصة
ثمة
جسد
وون
CH
##ادا
كثر
وبما
والسياحة
##رجي
##كتي
نيو
##اعدي
والمخ
مسئول
الاسط
بالمنطقة
بدلاً
الحص
##65
##ئله
¤©
تدعم
##نال
الشروق
ميشال
خوف
##اغرة
مسح
تلمي
العذراء
خفض
يتبع
مقاومة
Hotels
##ولوجي
وند
الاسنان
المفاوضات
لأب
##اخرة
لحزب
عملها
الأمني
جانبه
##que
نظافة
عمران
لعل
تجري
لسان
مـنـتـدى
آم
##فران
متطلبات
##رضى
وهما
المفر
بآ
الطفولة
تبوك
للمع
تعطيل
للكمبيوتر
اه
##ZD
ثق
المعدة
وتوفير
فيقول
جنيف
كلف
الساعات
بتهمة
##الش
التوتر
بضرورة
Qu
سنقوم
مسعود
التكنولوج
وصيانة
##َأ
##َش
والحوار
مائة
##صائل
##وضيح
الجان
وقام
##اريه
مخصص
للمزيد
قائلاً
وشع
توصيل
كولون
ونظ
##َّن
##outube
##وريوس
Ab
اولا
المراقبة
فضيلة
##امى
الرغبة
الاسعار
##cess
شهادات
##يباد
الخلق
##داوي
المقص
##بون
المحامين
الجهاد
##لاسل
قابلة
##ادلة
الولاية
##ضاً
ميانمار
##ثيق
المذكور
استضافة
##▬▬▬▬▬▬▬▬
العادة
القطاعات
عصام
أصدقاء
الروحاني
قاب
الشورى
وإلا
بوزارة
بلدان
البدء
النسخ
لتج
الاعتبار
المتميز
##ION
تتجاوز
المكتو
الروحانية
##جزر
المشاهير
تسريحات
الانقلاب
محور
يومياً
أصيب
محركات
وطرق
##وبه
##ink
الشرك
الأنظمة
البحري
وجواب
توي
والعشرين
##ZS
يقود
ضيف
الفضائيات
شباط
الأناشيد
الثابتة
##يييي
مبدأ
الاور
أشياء
فيلا
##يئة
الكلا
حرارة
كين
بتعطيل
العادي
فرا
ادوات
معالم
المستويات
800
كذا
##هند
الأبحاث
لِ
##ونى
الحلم
##سيل
الجوف
مذكرة
##قود
ممتاز
##جتماع
##ؤدي
أميركا
شاعر
هاني
Twitter
##ae
2002
تسمى
الداع
##ـار
##IGER
تجم
##اكو
##يتال
التحكيم
##روسة
##وقعات
راي
بكالوريا
##تيك
المناخ
بالات
##ــع
ذاتها
أعتقد
قصيدة
##ادور
وذكرت
##ML
##ـص
يثبت
تمكين
جازان
##موح
ثالثة
الأجواء
##بابوي
انظر
انق
الشريفة
رواد
للسيا
##ِيه
واخ
وبذلك
السباحة
##يدرا
أوغ
المتقدم
السعيد
للفنان
اللهُ
##رقة
قراء
لآ
##بيقية
وجهه
المطاعم
##ريتريا
انتاج
رئيسة
الشرف
القراء
##ناصر
##ail
##osh
أصدق
##ـو
المستهلك
##املين
الزعيم
الشهري
المخالفة
أبدا
سهم
الفعاليات
##sh
الإتحاد
غرام
الــع
##وجي
العبادي
##وكالة
البشري
مشاعر
التمتع
##ضحى
الغرائب
البال
تبر
TIGER
فاير
القذ
time
والقصص
بتق
فأنت
##غييرات
##داك
##بدل
يلا
##ثنائية
موك
واضاف
تهنئة
الانبياء
لصوت
المكياج
الصلبة
##اهي
التقييم
لقوات
وأيضا
طبعا
تفقد
##ُق
داخلية
الكورية
##نق
اعتمد
الطباعة
سنتر
يده
روما
عوا
المناهج
بشدة
النقاط
حامد
حميد
##ظاهرات
##♥ღ
بنشر
بكافة
الدرس
تعرضت
سيب
مالا
صراع
رخصة
الحفل
وعليه
ليوم
بوست
اجتماعات
##ؤمن
صعبة
##سطنبول
الصيدلة
يهود
##ics
##ــــــــــــــ
##وراء
مهام
المعلومة
المرجعية
##واكه
المجه
صر
##يائي
مستخدم
الفتيات
جى
اليسار
##سيج
بصف
الستة
وأعضاء
بيننا
##مثل
والبن
Un
دارفور
بيضاء
##موية
مسبق
سكاى
##جددة
منتج
ممر
تستهدف
المساجد
##055
شوارع
##غني
البكالوريا
وثيقة
Tr
##اريكا
##قدس
عنيزة
ربه
##روش
الرقية
تقف
##فراد
موث
تجنب
مروان
بقي
مرتين
معايير
##ومبي
المستخدمة
الفئات
الحقائق
خان
مؤقت
الإرهابي
وتفضيلات
تشتمل
شرائ
السليم
##اوف
##ُت
##48
بمختلف
جناح
السنوية
تامر
تصرف
##دور
##ريجي
قليلا
سلف
المتواجدين
Islam
##ptv
بالتو
أدت
يحق
##وضحت
الايفون
هلال
صفة
فاست
##بها
مشا
ابطال
##ale
الصلاح
السط
مساهم
وفتح
أولئك
##زوار
##روشات
تايوان
95
نهار
للحفاظ
يرجع
الفرعية
حرم
المستثمرين
مندوب
تلقى
ويز
Mobile
##ئوية
عامه
البنية
##ربط
الكيميائية
##ياف
معالي
Sc
الجماعات
شارب
والذ
منقولة
##زامن
صحيحة
الفنى
الكف
الكلى
البيوت
مانات
التوالي
الأولية
للدفاع
الادبي
والمسلسلات
##خلة
ازالة
المتحركة
البطولات
فورا
دايو
المهارات
##وتوث
أعداد
اللازم
##سمين
التوصل
ايل
استشارات
##ٍّ
##رصاد
باف
مبكر
##لبنان
قصد
ومصر
##AH
تمارين
رونالدو
والتعارف
##ريفيا
تخصيص
يسوع
سوز
للإيجار
مبروك
وأخبار
##ّين
تطلب
المهاجرين
كاريكاتير
عامًا
##هرجانات
للحكومة
البيلاروسي
عيوب
تفعل
##نيفات
الملائكة
اللّ
القهوة
المساعد
والتطوير
##غول
هوية
حوله
فهناك
الشاف
المراد
##ّث
مطاعم
##ملات
##32
كومي
بحرية
يفتح
البوابة
مشكلات
##عال
الفتح
##يجاد
المطب
وتكنولوجيا
حصرية
المجد
معجم
##فساد
كرواتيا
الموسوعة
##َز
##اهية
كوال
يضمن
لَهُ
الفصيح
خريطة
##وراق
حياتنا
تقريباً
##رايين
الين
زجاج
##ثا
أدنى
مرئيات
جلدر
الجس
نصيب
والابتعاد
عمار
باستمرار
##غاثة
أسرع
الماجستير
##كاي
متس
لغير
بالتق
السياسات
للأم
##رهاب
##اضى
أفريفيا
انتقال
القدرات
جهات
##َكَ
يذهب
ثبت
مقابلة
معاني
##لاقية
طالما
عملائ
الجراحة
المخرج
بنين
لبل
##ترط
كيلوم
معاً
CNH
السياحي
الإسبانية
اناشيد
##كيلي
التحقيقات
##NT
##ْرِ
الأوراق
الكاث
ببساطة
PKG
مليارات
الإحص
ملام
##بعد
##ودع
الستالايت
نيب
تحدد
والتاريخ
تايجر
ارسل
نبات
لنظام
البشير
وتقدم
المهملات
حمزة
بمجرد
المثنى
النظري
الحوثيين
وحماية
##38
العملة
ألي
القصائد
العلي
##NG
##بره
واستفسارات
المخل
للناس
ومنت
الميكاني
زب
تفت
##غبين
##ese
الإبتدائي
أجواء
منافسات
أبحاث
الدليل
تأشيرة
عراقية
قلبه
العلامات
عندنا
سياسات
اغت
والعمرة
##صارى
وَق
مقطع
والاخت
لوحات
##ذكار
أزهر
شأنها
##حول
ترين
يتمتع
وأشارت
سلطات
البدراني
الرمضاني
الاستع
##243
بالبريد
##ock
حيال
أداة
تفيد
##ذبون
النك
تتطلب
دريم
##يداً
المشكلات
الشائعة
##ys
##َةٌ
##غية
ممثلة
##وتشي
التعاقد
يتكون
تنس
الأمانة
##كسية
سيس
##AG
المستقلة
##ـدى
مسير
جهازك
##حداث
الوقود
الإبتدائية
أوت
النادرة
زعيم
رأسه
وأهم
ملحو
الازياء
تلقي
اعرف
##فاضة
الديموقرا
فليس
قلق
الفج
##روء
##ْح
بقانون
جدد
ملم
حارس
بأعمال
المحذوفات
مِنَ
ضمنية
##ستانية
وجراحة
الشيوخ
##جتماعية
العذبة
استهداف
##هورة
اصبح
دوم
##قوله
التوعية
##اطب
التقويم
##ury
كوكب
جور
##ِّر
بقر
عادي
المثل
وشدد
##ذور
غسيل
##ستيك
البنفسجية
##ازن
الظاهرة
##الين
##وثيق
الأنت
##وجيا
استثمار
##قلق
Am
لفريق
تعطي
وعالم
اجعل
##انوية
العمي
مرضى
##inanc
لأنهم
سبحان
انج
التشريعية
كسارة
الممتاز
##ــد
الصعبة
الضمان
باد
تتعرض
مصطلح
وأج
الَّذ
زيارته
##وهم
المول
الترشيح
المرافق
يُح
##ْك
تطل
يقرأ
الصفحات
##ml
##ونغ
بوروندي
##لاقا
فإنك
والفنون
وأعمال
بقوله
##شاد
##باراة
بيك
وأخذ
##رود
اسلاميات
بيج
خاطئة
vb
فاج
والعد
هامش
الفحم
الكيان
نجيب
الفيسبوك
##شيما
يتوجب
لوقف
تقسيم
##قطات
حياتي
##شرف
##ِير
عالي
##خصات
##ـــــــــــــ
##روسوفت
ومنهم
والصوتيات
إبتدائي
##ئتم
جيم
فالح
الحارة
وجوه
ومنع
يمكننا
##ابد
سند
الشيف
سلع
76
غسالة
##رسل
العملي
أونلاين
بالطبع
تناسب
##ee
كونه
ايفون
التحضير
بطن
LG
##غام
العباد
التحريض
أحيانا
اقتراحات
وتعتبر
ديب
##هاج
##كسون
بولاية
0020
رفعت
هوا
بالاس
بارت
المرئية
##وازم
المالديف
إجمالي
التعديل
iptv
##يشة
بالمملكة
##يوش
سكنية
##ائرية
ريم
المحاضرات
تويوتا
تنتهي
##دان
##ولون
##يرم
الرشد
سأل
##سلامي
كونج
بخير
نيت
##uch
التخصصات
فرج
##ood
الإمكان
تثبيت
##ئها
أكل
رسميا
فهذه
يموت
الصاد
ارتك
تحرك
ميس
ادخل
والتد
كتابات
ارسال
الخليجي
قالو
##َّهُ
اسماعيل
ودعا
أنج
##لغاء
الجامع
لكون
##ينت
أقر
صعب
بخدمة
إيقاف
والأرض
قبيل
8A
شركتنا
روحاني
##oth
برابط
##امح
أَنْ
تسلم
الحاضر
الضوئي
قلة
لمنت
##ـق
وعجائب
أنيدرا
الحظ
اهلا
اقتح
##بيعي
معرف
##طلحات
بموقع
عوامل
التوجه
##ريضة
خرجت
صادق
والشيخ
الدائرة
جواز
للمستخدم
##صنة
عذب
فحوصات
##دمر
##رويجية
جال
##ددات
##قون
الطوارئ
تتأ
المنوعة
فورد
الناحية
للجيش
اجنبي
محلي
رجيم
اطار
الأبواب
يمارس
##oun
المنط
السماح
جيداً
remove
المعايير
##ـــس
##كلاند
بْن
سيطرة
يفضل
جامع
اليومي
##َاه
وملفات
فالأ
أفغانستان
لتخ
رَب
##ame
ريج
ولأن
انترنت
القوي
المسيرة
حينها
رويال
نيكار
##علانية
إيجابية
##الث
الثقيلة
نعيش
بالمس
##غى
سائر
##سمه
##24327
##7824327
مكتبه
##gy
مَنْ
##بورغ
الغز
فعلى
##ـــــــــــــــ
توحيد
##REAM
بدوره
آمنة
##يوانية
##آب
التوقيت
ياسين
##لزم
شت
البق
وخدمات
الحروب
ضخمة
إلاّ
توسيع
أميركي
الحوا
##همال
##وائف
تعامل
##يدة
كاميرات
لكافة
##St
ماليزي
للنشر
##وادر
الذاتي
ابنه
المشروبات
##عدين
اختار
تعليميه
بوش
وايضا
وأبو
يشبه
##مجرد
الفضل
صالون
التمثيل
السحب
##عربي
الناشر
الأصلية
نظرية
موق
الاقت
بنز
الشوط
متميزة
الامنية
##كريا
##كيلة
بتم
مبادئ
##صارات
بالموا
كرب
##ext
للمنا
رويتر
الأندية
تقني
بنج
##ليقات
والاجن
العشاء
##واعها
والحي
تترك
عددالزوار
فيك
ودول
##كريم
##0557824327
##َّب
وخارج
ملعقة
حقا
##َث
بدقة
سارة
يحدد
كميات
المجلة
كيب
خار
والدراسات
بطرس
حدائق
خطب
مجل
لمتابعة
القل
باله
الافتراضي
نعلم
القاب
رص
العوامل
قمر
ألوان
عرفت
##زات
ومنذ
لتحسين
الود
الوادي
##ْه
##افيين
##ييد
يعانون
##فاتر
الأربعة
الْح
قرأ
الشاي
البرتغال
##شال
أبل
عندها
المسيحيين
والتعاون
اختيارك
##ويين
مبت
الحميد
##وزي
إمكان
الناطق
متوا
تأجير
##ranç
الخليل
هريرة
##اليف
للجنة
اغانى
الذكاء
°¯
تقييمات
رويترز
التقديم
##اخستان
الآلاف
تقدمها
##غلب
والأجهزة
شهري
زار
##جاعة
مسقط
التلاميذ
والفض
##يوبي
الجنائية
التحديث
تلعب
المجاورة
فعال
التقى
##عاقد
للطلاب
الخي
هج
الحساسية
الحن
##rançais
الحكومات
##وارث
يكونوا
الارها
قـ
كه
النمسا
87
عَنْ
##ثوذ
فائ
سعودية
يمل
##شيوس
جرين
نجران
ماسنجر
##وزات
التوقيع
des
محب
وعبد
نستطيع
الاسباني
الخطر
والسكري
عامين
الأقرب
##فور
يستمر
مــ
عنك
AF
الدواء
طباعة
لتنظيم
وكنت
ميزة
##انو
وعلومه
##غطيات
الكو
##ريال
الإطار
وتحسين
المشار
##ience
##39
fr
##ياتي
العشر
بيته
والهرسك
##روحة
##ياض
أيّ
فساد
مناهج
سخ
فلان
محاربة
MP3
التفا
##طالبات
بلدي
##ليها
تستمر
للعلوم
##كشاف
السلفادور
##alax
النظارة
أطلقت
##اكن
القاد
كرام
أندرويد
المصلحة
عددالردود
العامل
الدجاج
##AL
حبوب
عنصر
ومخ
العقيد
المرتبة
Micro
الجيزة
هيون
قريش
آيات
الناصر
##ارن
المغاربة
سمارت
والاقتصادية
أجد
صوتية
شرعية
يفهم
المعاجم
مشروعات
تبي
أحاديث
والسياسية
أسلحة
الأحلام
اسبوع
يافا
##صقة
الكندي
مهاجمة
الأسرية
نجح
شرع
والأدب
للقوات
التمر
الفتاوى
##ثبيت
##ins
ادناه
وجبة
سبل
احدى
تكرار
الغضب
##UB
##ردن
ترومان
الوقوف
محاضرة
لاستخدام
المصلي
عمارة
إسحاق
الجرافيكس
لمشاهدة
والتجارة
##فاتيح
الجب
ذاكرة
تعل
تحديات
##ربيه
امير
والفنان
Gu
الهاش
المكونات
##GD
وخصوصا
للشخص
كسر
##ستين
##ــــي
زل
الدر
##ator
احتمال
آفاق
أبد
##روه
الحرف
##ترحة
لوضع
الآسيوية
##ِيد
والفلا
للبي
موارد
مارتن
مقعد
لمناقشة
تلف
مرغ
##ماح
المظ
تقر
##ريخ
##قدسات
تصريف
والأسعار
البحرينية
الباحة
إيا
مبالغ
الاوسط
هندورا
نائ
ربنا
بالاش
باخت
##لقي
المساء
جعلت
النووية
راحة
المفضلة
##ware
هايتي
ستت
##والى
الواضح
نوعها
شجرة
تمه
##صاف
##رقات
##لسطين
جبال
سنغافورة
##خبات
##ملابس
##ting
موظف
للجوال
##باكات
cl
فائدة
ردود
الزوجة
المحا
وإصابة
الإقتصادية
أفاد
##جدد
رئيسي
وبعدها
الفكري
الهرم
أقوال
##دمان
##سلين
الأسر
تتمتع
جري
المقدم
القوية
##يتنا
ليبر
الاند
والى
##ايلات
##eneral
##َةً
للض
يام
عقوبات
الأجنبي
##٠٠
التلفزيونية
##بريكات
خبير
فاي
المادية
Fl
ماكرون
المحر
الاستراتيج
أخت
##يست
حراج
الخبز
آله
الزل
والشت
##دار
حياتهم
الاجتماعى
مرم
يرفع
بوس
62
جديده
الجماعية
الإشراف
الأجانب
ماجستير
##زار
##plic
المحمولة
توصيات
عكا
بقطر
للقضاء
##بلوم
خاضعة
ارتباط
##سّ
##ماعيلية
استبدال
الموز
الطائفية
العطور
اللَّهُ
##قدار
يدرك
تنقل
للاستثمار
إعطاء
##كوم
والخارج
خسارة
جنود
##ـور
##وهات
والرو
##رابي
سنويا
إنهم
الاناشيد
إحت
للبحث
تدل
##راهية
متفرقة
##ثات
لعدد
##قدرة
رمات
شق
الاعدادية
الاختلاف
للمو
والعراق
##فرت
##حنة
التقليدي
يقدر
استقلال
سرقة
فانت
حصة
##َعْ
##وضوح
المرتبطة
للتجارة
الارهاب
##OT
الفيروسات
للمجلس
باقة
بالماء
احمرار
بكلية
مستقل
##يهات
دخلي
##ماط
لجلب
بفعل
تأهيل
##غش
##inter
##شرع
بإضافة
مكاف
الالغاز
وأكدت
الصناعات
مشيرة
عبده
ليفربول
كرك
توري
البحار
كسب
التعليمات
##نمارك
سراح
سترون
والعن
Premium
##صلاحات
وعي
أنصار
وقتها
EC
محاكمة
##vue
##اغواي
##ef
النظافة
الطويلة
معسكر
فتاوى
##وّل
Tra
لأكثر
الجواب
##ational
##97
##انكا
##جرى
وول
الدراسى
البترول
وأت
عبدالم
without
لوس
اريستون
وختم
وإست
اوب
بريف
عقدت
حمود
الجلوس
الدعا
ومعلومات
المغتربين
##براس
الاخبارية
##دام
أعوام
أواخر
لأغراض
بإنشاء
قانوني
##بيرا
وأوضحت
##طفي
القلم
##رسان
##ضاعة
تغذية
ومتابعة
يعيد
الإشتراكات
إلكتروني
لجافا
والطلبات
تأجيل
جاهدين
حيا
الكليبات
##جمهور
السمحاح
يتع
والتسلية
ينقل
المبت
للطيور
يحضر
الكردية
الــــ
تقويم
المتابعة
##كاسب
وحول
مزد
والرس
سلعة
محسن
السري
توبي
Sport
سنتين
Sm
##IA
وسيتم
يلزم
جوائز
World
المنصورة
معن
القليلة
أسود
##ليلات
شركه
ab
السنين
مطابخ
##علمين
للخدمات
آنذاك
الايام
مغربية
الطلاق
وتحدث
##يمه
بإست
نض
فقلت
التموين
##مادة
إلينا
##ُف
##وتها
##ابح
محر
##جها
قابل
العال
تعر
##KP
العظام
وبدون
##فظة
عندك
##ony
الاستثمارية
الكاريكاتير
##ئتلاف
زفاف
لاجهزة
نات
المحيطة
تخفيضات
لانها
كونها
أبيه
والتواصل
سيادة
باه
يومية
##فيز
النش
الصينى
##طاني
التا
Con
فرنجية
اقتراح
غري
مضى
##عداء
اهمية
جراحه
الكه
آيفون
##ترى
عشان
توقيف
الغائ
78
ثنائي
المنام
العتي
الحافظ
##ديدا
الرياضات
العز
والاستقرار
مواصلة
تنشر
بنس
الالماني
##iew
الملخصات
PHP
رومانسية
المواهب
##شهد
##زيين
والأل
المور
حملات
الغذائي
دورا
##ابيب
عر
وافق
الجسد
الخضر
74
للقيام
##الو
الحروف
المأ
الملعب
والتصاميم
##ars
الزهور
ميون
إكس
شأنه
تعريفات
الصار
طريقه
لاج
تفتح
##ّاب
##عفاء
##ـط
فون
اليمين
صحف
##صدير
أصدرت
والأخبار
1994
##ین
بتحليل
##حكام
المؤقت
يقتل
محاسبة
حوا
حصولك
مكث
افتتح
المعاملات
إك
القطع
الاحتجاج
مكونات
o°
##EF
طرد
أبداً
الوهاب
الأستر
##شعر
والاتحاد
الأساتذة
السهل
أند
##قادات
77
##رازات
البرلمانية
##كشف
مؤخراً
##ناعات
##ضت
النجمة
والشركات
والمسا
لطلب
صالة
دوما
محرم
##انين
##هجرة
لاتف
دوليا
الإب
ويقوم
الإماراتي
الكتروني
كاميرا
ساع
##قاعد
المثالية
متحف
##مازي
وتقول
##ُها
نصي
القلق
قرى
الرقمي
##ance
أوباما
والحماية
tr
شعبي
82
فعله
SC
process
##دينا
##اريين
ورفض
##عك
نظيفة
الاحمر
مشد
##ندقية
الأشغال
القوافي
المنقولة
صلاحيات
أرى
معدلات
العظ
يشار
بوع
عليهما
حاكم
ويق
التوفيق
دقيق
الأمان
##او
##max
يطرح
##ement
السيرفرات
إخراج
معكم
يحكم
الشيعي
أثار
بروناي
ميلان
وور
الرحلة
لمجموعة
##ضراب
##95
أفادت
باتت
##وعا
الهارد
بعيداً
للنظام
##ضادة
##قذ
والشباب
اللَّه
الجنود
ربح
##سيقي
الانجليزي
وتبادل
المسافر
وبط
صلي
##als
الهادي
بالقول
حقيبة
الرئاسية
مغلقة
التمييز
Se
الواجهة
جوكر
ثل
الوسائط
وبمجرد
للعالم
المرء
##ich
هدية
تتردد
ولادة
الطّ
بالعاصمة
##واتي
بعيدة
وحين
باللون
لهما
مصرف
##مرت
موديلات
##كتل
##َّت
financ
Langu
##نافس
وأصبح
##ميت
حافلة
أقام
البطل
##68
الأخلاق
much
##واص
حكوم
فرش
الخال
والمنطقة
معاوية
##tl
الموض
##تهن
لتلك
الميدان
نهج
اشكال
##طفولة
مثلما
نرجو
مراعاة
Te
##جرام
##iyab
تهي
وكن
تسير
ولأ
بوح
والثاني
الموسيقية
أمريكية
##ياغة
والخط
doctors
لأصحاب
بينه
للقرنية
لتعزيز
وفيما
##وائع
ممل
والثلاث
اصط
والرحلات
العقار
اكد
مقاطعة
##كوك
الاسئلة
ترتي
الشفاء
surge
اكشن
المقام
بخاري
لمسات
البلدة
ماستر
أوقات
##خرية
الفلاح
هونج
##ّاء
للشعر
المنس
المواجهة
##سيطة
لبنانية
المباني
التقد
##OA
التضامن
بمجلس
بمتوسط
بذكر
##خبة
العنك
##سيح
مجددا
الكود
تقدر
الفلاشات
نظراً
بوب
##ux
العظمى
المعدنية
الغرض
كوبا
##يمنة
ضابط
حاتم
فريقه
تنفي
الاستوديوهات
إخت
الباحثون
للرجال
##ina
وتوزيع
##يرت
وجهات
##ورون
ثقافيه
للنق
Em
وأق
قرأت
عنهما
98
للدراسات
صيام
جثة
##جهز
الامم
الجماعي
فكانت
##الته
مخل
الاطلاع
الراهنة
أذربيجان
إنحراف
mod
قمنا
مؤمن
##ندى
حرام
رحاب
LA
off
والمالية
الإرهابيين
بمركز
وزوج
أكاديمية
110
البورصة
##رعان
الويف
الحلقات
أعلام
الزع
ومج
الآيات
##ثاق
بنى
##صاري
بأحد
ابداع
##روز
وضوح
##وفد
اهداف
الأكل
##يناء
ينظم
##يدز
عتامة
الخالية
غربي
أرمينيا
والفرفشة
وزن
##سكس
استشارة
بتنفيذ
##قيد
##ٌّ
شد
الاسكندرية
والتغ
##لها
1995
التراب
جوانب
جنسية
يعملون
وفيه
ويعد
ورسوله
خفيفة
المهام
استكمال
تكذبون
مدرس
يسأل
##طفاء
عات
اطلع
##ِيل
إق
انطلقت
التسيير
##صرار
للبر
##ودو
GMT
##ائقي
يمكنه
لبي
بلس
ابداعات
##جالس
والأنا
بتج
##ahar
للاحت
رزق
صدرت
بالث
مشاهير
##عقد
##الل
##جلترا
##31
صاحبها
بشرية
الصباغي
مشيراً
نبراس
متم
السلة
يتوقف
الإجابة
بحكم
مقهى
المفاج
##قيمين
بتنظيم
ساموا
بالتالي
إننا
1968
قدرات
بفتح
##يرن
##لط
حظك
financing
تمنع
lazer
##ئاً
كليات
##َاد
##شان
طرائف
##تهي
femto
lasic
customvue
motiyab
surgury
motiyabind
ريح
أثاث
بانيت
الشراكة
##ازات
الباقر
لغرض
##يتان
##َانَ
DREAM
انتخاب
##وليك
العلمانية
الدعاية
الاوروبي
الطهارة
الإق
قوالب
صباحا
##orn
يثير
##برع
لتوفير
إنهاء
التكن
مسافة
الكثيرة
والألعاب
الزهراء
والشكاوى
يفيد
أهله
بلال
مكتوب
حركات
الأنس
##ــور
كهربائية
فلسطينية
متلحف
زحلة
##ــال
الإعجاز
شاركت
مصم
عدوان
الأشهر
نستخدم
الرجوع
مدبلجة
الأولي
السرية
الدراجات
arab
ضريبة
forum
##نتظر
واعتبر
CA
اصابة
تدمير
الامت
أعم
##yle
المَ
##فوق
##آر
طاقة
##ique
الوكيل
الانضمام
وبس
القرأن
حريق
ثمانية
والكر
روت
تفضل
##يدين
محتويات
صيني
##فسهم
يتوقع
سابقاً
والاقتصاد
النهر
المنعم
وثقاف
الفوائد
العماد
مايخص
الحرم
وأخي
وبلغ
السك
##احف
روى
صحفية
New
بالمست
الرحمة
المكسيك
رأسها
الحراج
##ظرة
لشراء
الحزن
عاز
##ild
##بيح
اعلى
##وسة
97
الّ
الجهد
الغدة
##ress
الأخطاء
##ديمقراطية
والتراث
السلسلة
##هههههههه
##تكار
نافذة
منى
##ديها
أريحا
وانما
سفيان
نعمة
الثمن
تتيح
##امبورغ
شغل
لعلم
الاستخبارات
الغائبات
والاعت
##ــنــت
بجوار
سواتر
بوتس
المالحة
##واري
بحلول
##هله
أحدهم
والفنية
##راحات
كورد
الناج
1999
النازحين
المنشأة
مصمم
ميسي
يقضي
الملاحة
المترجمة
الرعب
الـقـ
السريعة
والتأ
لقاءات
لاحت
##روءة
واحترام
تشخيص
psd
أحمر
تنبيه
اعلن
##يدية
تكري
التكرم
##دال
##لائم
الناش
##واتم
ساد
الصواريخ
سرية
##ائمين
المساهمة
جفاف
الخياطة
بنية
نيج
##خلاص
##مارين
ثلاثية
##صفيات
الحين
العراقيين
بأسعار
لآخر
للسيدات
##min
الأبعاد
##الحريري
وأصحاب
رموز
تتمثل
يجتمع
##َوْم
وته
وتحت
الزكاة
الأوز
##ـــــم
والمواقع
GT
SV
منزلك
اقوى
أظهرت
##قارن
العجز
الحبيبة
ودور
السجون
ممتازة
ميجا
##جزات
طلال
بلاغ
شركاء
للمواطنين
HU
أكمل
عثر
##قاً
يونايت
والحديث
مضحكة
##رافة
أخطاء
الأوقات
الآخرة
هرم
الاستعداد
##كييفات
مظهر
البطالة
الأسبق
##يداد
##انيال
##فسي
ستارسات
61
اللجان
##نائس
ككل
المقترحات
بديل
سيرفرات
##َةٍ
منطق
ديفيد
الصع
AD
عطاء
qu
##وفو
رائحة
##ابها
مايكروسوفت
##مانة
ماهر
##Sat
وكت
عناوين
تتوفر
##قتراب
المقترحة
باشا
مفت
الموازنة
الحية
قدا
بيرو
##ps
ماري
المجر
المعادن
##اها
##irl
عطلة
69
صافية
محارم
إعت
قصير
ترو
أكلات
وكر
الطرائف
##its
إحياء
##باقي
مستشفيات
والاثاث
##UP
الفيل
وغرائب
##فيض
الخدم
اذار
قلبك
حاف
قطري
والتربية
##عيها
أنتم
بعرض
سيئة
عقيدة
لجان
جرافيك
##رتك
أصوات
بمقر
أحوال
احداث
##جنبى
حدثت
بالجامعة
##قاتل
الامين
المتصفح
ليه
التوازن
المجمع
امتداد
درو
وقتل
العوا
##okia
الاحاديث
الازمة
الزراعي
السيدات
نشرها
##oy
وتنمية
##يسكو
التحقق
البؤ
##overy
دبليو
##طاف
##ـان
الحجة
واجهة
الكونغو
جار
المركبات
وتمت
مشهد
بداخل
الجبال
والإد
جلسات
وبت
مستقب
B1
السوف
قريبة
يقومون
انظمة
ميلي
العنكبوت
عطية
باز
حامل
والغرائب
العكس
ولماذا
##ريجين
مرسي
بالطائف
##ايدة
للأمن
أساسية
##يمبابوي
وعبر
الأناقة
اللَّهِ
المشروحة
##فيين
بأول
شعبان
##اميك
##ـــــة
##اجين
مسجات
جنرال
تايمز
الرّ
المنتظر
والاحت
المرأه
##سيكية
سقف
لابن
المبيعات
##يبات
موقعها
جبريل
نيجي
دينا
اخي
el
جديدا
الكاز
شاغرة
bl
73
My
العائ
##شراء
##قتراع
يونايتد
دقة
الأرصاد
##صحيفة
بأكثر
المسجلين
القدي
##ision
##لاقه
##بوين
لاتفيا
##ُج
##كينات
##alaxy
ZW
##ظاهرين
وطب
ويا
رؤوس
ويأتي
آبل
##حضرات
والشروحات
سيح
##هاوس
وضعها
عقار
منزله
الشهادات
عجل
تعبئة
لرفع
تونسي
جوهر
##ـــل
لقائه
الفرح
##لاتر
##ستمر
المعاصر
##شون
الاستثمارات
نمط
General
المرشحين
الأدنى
##يرادات
##رقى
ذهبت
##طاق
الملاح
باح
التطبيقية
مناس
عملت
##ينج
Intern
كيا
للفريق
هير
##جزئة
إنك
انفجار
الشهرية
يحل
##49
##ript
وبشكل
سنين
كالم
يصف
خلايا
بنقل
السلبية
##ــــات
##ولاي
الشفرات
أردني
##NL
رفيق
داف
كيان
##100
##َيْر
التعليمـــات
متحركة
المسب
للتنس
المتأ
لتحديد
إنسانية
##براط
عشرين
شام
لأسباب
اغنية
اخذ
عرق
مذهب
##يضاً
طاقم
برب
الساخن
##soft
إنَّ
صبا
أحدهما
نادرة
محاول
خميس
الجولان
FR
إثبات
حا
انهيار
الاعدادى
الفوتوغرافي
اريد
ترخيص
##ملين
أوس
تعقد
72
النظارات
##هاجم
##VB
للطيران
سترونج
LED
rec
لطلاب
والعجائب
موريشيوس
بصوت
تفرض
##amsung
مختص
أشعار
##جيزة
الحركات
رول
المدة
ناد
الإط
نظيف
##يسور
##فلون
تتراوح
TH
##يفورنيا
##عارضة
ونظام
##ــاب
مستخدمي
لتأ
السوبر
نيجيريا
البيئية
حمدان
للحوار
تلاوة
ينتهي
البطن
الناتج
ورواج
وائل
الصحافي
´¯
الباك
وطالب
غي
##كتات
##فهم
الإفطار
مفاهيم
ضربة
مخطط
والحض
مسرحية
##ory
##غرة
وشارك
بفر
الفيديوهات
المحطة
كلنا
والكل
وإح
طفلك
حنا
موقعك
##ْو
فيمكن
كيني
##ظاهرة
الوثائقية
السعوديه
et
سرطان
الحز
الصبر
##ــــــــــــــــــــــــــــــــ
واخبار
لتت
الانتاج
جزءا
##ـره
طقس
عمرها
وتو
السائق
والشعب
نظارات
ساحل
بإح
##همات
مرد
الجملة
للطب
لتعليم
أقلام
العلمى
الاجنبيه
ملامح
التسم
هز
ثمّ
لمصر
البوم
الزب
اوروبا
بتوقيت
المخصصة
##واكب
السياحه
بجده
فوركس
BO
سور
##حام
##واطئ
##قض
وَي
مرتبة
آخرون
##ann
وبخ
غالبية
السين
تفوق
انتصار
المعتمد
جوالات
المشرق
محدد
تتلقى
##ويح
والتدريب
والعشرون
##ll
القريب
مُس
مؤسس
##لمانيا
##ائنات
الضع
وظيف
اللذين
##فسر
نشاطات
fil
لأننا
##لتك
فط
طي
زينب
الورقية
عاطف
فريدة
##ميزات
أبلغ
بوجه
إرهابية
الغائب
الاحزاب
انما
##MW
قاموا
قريباً
وثقافة
المختص
##بث
تخفيض
شغ
بكركي
إثارة
##ازيق
الاتحادية
us
بند
لازم
تنتظر
سويد
##نتوس
يواصل
##فتح
الظلم
قرارا
##ناز
توصل
##يقاف
المصاب
##ــك
تحذير
ره
مطلق
الديب
والشتائم
للحزب
عندهم
##ages
##ya
##ينيات
الغريبة
الخليفة
النثر
dm
شعوب
أدرك
مسج
##برغ
حاولت
كنتم
بورد
##ميص
الآباء
فيتامين
رومان
والعالمي
بحد
توبيكات
##يسار
##سيارة
##سيد
##ناص
##تاب
الأوقاف
معم
وفا
بولندا
دنيا
منشورات
كرا
##غطية
##ديـات
لزيادة
الإعدادي
الاشتراكي
##وارب
ret
الكرو
##يسير
##لمة
الدقة
ظلم
اليا
وتعليم
مختار
الفاس
بالخارج
##قتهم
العلاجية
الخش
وأنها
واكد
تمارس
ღ♥ღ
جدًا
والإسلامية
##نامية
##جما
آليات
##افيا
##لندية
بالعربية
بعملية
يدور
العبور
شاكر
ann
تقرر
##ضائع
اللسان
##جزيرة
تكاليف
السياسيين
بذل
استلام
مصرع
لإتاحة
المستقبلية
140
همسات
##طيك
معاليه
المقصود
مضاعفات
الضروري
لنتأكد
##ئاسي
أردت
##ower
##ندسة
كثيرًا
عليا
الكناري
النزاع
رصيد
حدة
##فكار
##راضى
##ـاء
المعتقلين
القريبة
اللطيف
بروز
للام
لمدينة
##OC
تخفيف
للشركة
أسوأ
واشت
والأش
السَّ
اختلف
الأشعة
##إِن
والبط
والـ
الحادي
والإقتراحات
بتلك
المأكولات
##يرغ
هدى
استمرت
عماني
##ولمة
خيرا
##لاند
##امع
يقر
ويعمل
العدسة
تامة
والذى
79
الثم
حمص
الورد
بالمائة
تزوج
وجمع
يصيب
##يداع
##روا
ونقارن
##ron
التحدي
وآل
##كتشاف
القليل
عمق
حادثة
##ru
كفاءة
ودون
الدعوى
اولاد
العرش
الببغاء
تومي
شرقي
القابضة
##RK
يمكنهم
بالقط
##صت
تهدد
ظبي
المدع
المؤشر
والدفاع
شقتك
جلالة
الكاميرا
##اهدات
##يلى
السينمائي
190
صيف
عدداً
يعقد
العط
الرياح
##TD
مرتبطة
مرسى
##اطرة
سرا
المانيا
بالإن
الرضا
الأفريقية
لبيع
متكاملة
أمم
محبة
##IO
البلاك
صهيون
وصفة
لِل
PS
##وليه
الأصوات
استعراض
##ull
##وانة
نصرة
الملاحظات
##تيبة
عذاب
فيزياء
اسرة
بالاح
##عايش
##َاع
صادر
اللهِ
1998
المتهمين
فتفضل
الابت
نشره
##les
ينس
الكاري
فإننا
##تهد
##obe
الصحفية
تسب
ساو
نام
الضباط
البيطرية
##نكر
##ضعاف
##2018
والمشاكل
##لاجة
##هَا
كلين
##دوية
البصرية
ثنا
ديل
النباتي
التذك
رئيسا
مميزات
المحذوفة
##فعول
##داقية
##مون
معارك
تبع
##وتة
##يانا
للمقدسات
الأنواع
الالهية
صحتك
##قصاء
الدعوية
أتى
##يادي
##وفى
بإد
هائلة
أخب
ومف
معروفة
أطباق
حمامات
العصور
##باحثين
LC
الوليد
بدم
حجة
##47
أمثال
السمع
الغناء
##ولت
استخدامه
فعند
##جزء
##ade
التشيكية
عمليه
ببرنامج
تفر
اختصاصي
مضيفا
الهام
لفظ
##َعَ
جاد
##GA
إغ
ناص
حفلات
##ريكي
##iss
الدرقية
المسافة
ودر
المتمد
بجائزة
المعارك
##قراص
يخل
والكتب
##erat
الفردية
ومكان
ريت
##ويف
لبحث
DM
##يروشيما
##cript
العالميه
فوج
##هرام
منتد
##lect
##كز
لنشر
مطر
##لكات
القارة
##اجل
بأفضل
أود
العفو
متوفر
نصرالله
فی
##ودج
إسرائيلي
ليو
نفسية
فيتنام
تسا
الثوري
أناشيد
الامريكي
الدريم
والعل
##ices
سُ
تشجيع
بالمنتدى
الاتفاقية
##ضن
بنحو
التّ
عف
وتصميم
إشراف
المقالة
حقائق
لنفسه
نظمت
##ليبس
حكايات
##ومو
النظرية
حولها
بالعالم
موجة
لاسيما
يتقدم
إضغط
والالعاب
##فلة
ناي
الدبلوماسية
طيلة
يبر
انتهاك
الرحم
الرسيفرات
الصداقة
##وتات
كولومبيا
##EM
العقدة
##هدوء
بغض
وتوبا
##ick
علماً
وشر
تنزانيا
1439
##85
##نجهاوس
##وزة
مخصصة
بنجاح
مُنذ
ass
##ّية
##ركين
رينو
HTML
care
يسعد
اطباق
التعازي
المسرحية
لدرجة
##erry
اعتقد
كيس
##أسم
تراج
89
الشَّ
##ينسي
وشمال
يقارب
هجمات
تما
هدا
المناق
التوقف
ميكاني
نقاشات
معاناة
Des
العثماني
توقيت
وَع
الأكاديمي
أركان
فاش
الفاط
أساليب
تسمية
عدنان
هلي
Download
المزايا
مقبول
هيونداي
التعذيب
®¤
نضع
وحدها
##ِها
##plications
##صائد
عقوبة
والكمبيوتر
مسؤوليتها
##قاليم
##ــف
ومواقع
تلبيس
إيه
فقر
الحسيني
التام
النعم
مواهب
الايطالي
نفوس
Nokia
الناخب
##RL
بشحن
##قاتي
بنجلادي
##ارثة
جانبية
جمعت
##فترة
##عكس
مرتبط
لوكالة
اجتماعي
ماع
RT
الحليب
##ترق
العزل
إحص
##ساتذة
##able
تار
Sun
للشركات
كاليفورنيا
##َرْض
وتحويل
سجلت
بالجملة
##تال
##اصلة
اللات
بقتل
##سنة
ووصف
##راقبين
الكبد
تفهم
اللقب
الشريط
سورين
ألبوم
يتحقق
##yp
##ألك
AA
مصن
##air
وقوله
الوفاء
الجالية
##atch
المتوا
يخدم
##ize
خطير
ورجال
ترحيب
وأخرى
العنايه
وسجل
انجليزية
##قبول
أمة
المصريه
مؤهلا
الضرورية
نسمة
Islamic
الخالق
sa
##mb
بنيامين
شرم
بروتوكول
##وايا
وستنجهاوس
رائد
المذهب
يوضح
##علك
##سوبي
010
الكش
##أو
##ــى
مريض
حاجز
##فقد
مباحث
المستدامة
MK
اللائ
الشاطئ
آداب
يوجه
بإعادة
أطول
##ناط
مراكش
وعنوان
الجائزة
مفيد
فيرجى
ينصح
##ستار
قار
الدردشة
##وجواي
مثيرة
##واها
نيوزيلندا
حقه
خيرية
ed
الكوكيز
##500
للبل
الزق
الصي
##ّان
الجانبية
محدود
توج
بليز
الوجبات
مكانه
برفع
دست
الهيئات
##ote
الحبوب
الافضل
أيمن
غالبا
##اهده
لحركة
كاش
والعلاقات
يسير
مقام
##خور
سويف
##كاليف
ايضاً
##خرط
المتجددة
الواق
الساخنة
خصوصية
Apple
الشقق
فرنسية
للقانون
النحل
Wh
عزاء
تعليمات
يستعمل
لحضور
ht
الخزانات
لتصبح
##َدْ
##خلف
مشج
بدورها
بالتف
جبران
دلي
شخصي
بالجسم
دفاتر
قلم
الشاشات
الجارية
عـ
لإنتاج
إسقاط
الكوري
المتك
صلوات
ذاتية
IPTV
أصاب
البرمجيات
130
مسيحية
##عايير
القيادات
لإح
تزويد
##VR
تحد
im
##وسية
##شدد
الإضاف
2020
ايه
##هدت
متصل
KM
##قتنا
المستمرة
Section
الوص
##ركون
الوين
مرشح
تذهب
##ـاب
اسمها
الرشيد
##ضحيات
صفا
أرباح
ثابتة
##اصب
مواط
سوني
مثله
##قسيم
اسحق
لحد
يديه
التعديلات
اير
Net
نزار
##صان
توم
هت
سكك
وشعب
1996
1980
الـح
الجذب
تلقائ
ووزير
اراضي
##آة
جورجيا
الأرقام
أليس
النفايات
قُ
ومدير
كالت
تهديد
الحريات
ملاحظات
ايار
مئة
##نازل
دفعة
##ِـ
بزيادة
متنقلة
##وّر
الجيد
دوره
يوح
العــ
وتحديث
°°
التحض
AB
##ern
Ed
##صلح
وفعاليات
ساخنة
يعرفون
تقطيع
أحياناً
ومي
##iel
##هارات
السني
دستور
الإصدار
يصعب
علمت
##َّات
دورية
وأحمد
صواريخ
##EP
##ديك
ورائ
مؤكدة
الكلاب
##سيان
كوستاريكا
اهتم
Mar
الضغوط
email
شتى
الغني
حالي
##يميديا
الصلة
الخيال
##ليط
المحترفين
الحجاج
##َها
عبادة
التفاعل
تحسن
فأنا
وقصص
متاحة
بصيغ
ag
##ويدي
الأغذية
حكاية
الْع
سيدتي
مُح
##رحيل
##عيب
والمتوسط
المبيدات
المساواة
##يها
تسيير
##عتين
##ياطي
يعيشون
صدام
التشكيلي
فوري
##روفيسور
المترجم
بروك
المسائل
فالت
مقاول
Comp
الأندرويد
للدول
اضطر
##كسار
المصابين
فلسفة
##لبس
نخبة
الإنك
##زح
##ــدي
##ُح
##دياً
المنيا
##والف
إسم
الملح
الزيادة
المفقود
ببل
إريتريا
المحقق
##ivers
ضحك
خيال
البطاقة
دعوى
يهدد
عظيمة
تقديمها
لاد
وحسن
الاخير
بأمر
البنت
للتحميل
gu
فيجن
##ماعي
٢٠١٨
والحل
يقرر
والمشحونة
مايكل
الوض
اللاسل
أخرج
كازاخستان
مستعد
شعور
تتكون
يجيب
ويخ
والتقنية
أودي
الرسل
أكون
مصانع
##كبة
أَو
قرابة
إرهابي
##مارة
نسعى
نان
ومجلس
مكانة
الاختبار
تمنح
##وفاكية
##افير
حققت
حرق
##BP
الاجراءات
##فورت
والدين
##سكي
الحما
ضباط
رومانيا
##oshop
حقل
##شرية
##بيري
مرب
EG
##ائيل
ارتداء
##ؤلؤ
باراك
استلم
المحل
للزواج
الإستخدام
يرتبط
ترفض
بالمش
عروس
والعنصري
##وتى
new
##ياطين
راديو
وفض
الأزمات
وقاية
ودم
عارف
##كأس
لى
طنجة
للحياة
الشبهات
##RR
الخمسة
you
##اغوا
##ضيحة
بابوا
##ID
الإقتصاد
ووجد
التفاوض
وتعمل
الرياضى
الدولى
وسوريا
جادة
##مط
العائلات
##ens
رمضانية
آلم
هيكل
##اكسي
هُوَ
ملكية
والاجنبية
عنزة
##بوينت
مفاوضات
أمانة
##قاسم
##ئران
##اؤلات
عبارات
الصهيونية
قليلاً
بالتنسيق
بالمق
##اوري
تستحق
بالتجزئة
فوكلاند
الإقليم
الشيعية
الكهربائي
النسب
بدع
الشافعي
إقرار
الفوضى
وتضم
الإفريقي
النقدية
بقاء
الفقراء
##ضوء
جماهير
ويؤكد
لاعبين
##شيه
بورسعيد
الهجمات
الأض
##غياب
استهلاك
##ـرة
##ريلانكا
تضر
ومؤسسات
##جاع
مؤشرات
الكفاءة
غالباً
لويس
لزيارة
المبكرة
الكري
التعرض
##ريغ
لأماكن
ترجمات
##وضي
##قاولات
محلل
##لتين
الحديدية
الكورة
يستهدف
بلادنا
للإست
ترجم
حياتها
ورف
كد
ونقلت
##VE
ووض
##هنئ
رشح
الطالبات
ورؤ
الحادية
كايمان
عليّ
التوبة
رحل
بوتسوانا
عادت
الأنتيل
الضحايا
الاستح
الاعلامي
بطولات
اليهودية
##فالات
إسرائيلية
للمبتدئين
##قطاب
الإختبارات
HK
الكثيرين
وللم
##يقة
الاوروبية
ومكافحة
الصغار
وهد
جده
##باريات
ايس
##زقة
مكتوبة
Sky
عاجلة
للتدريب
الطبعة
قضائية
##سيخ
##قفين
ينفع
وثلاث
والحكم
##ِذ
فريزر
فيلد
##احنات
دياب
شمالي
للرد
ضعيف
##فذة
##راعي
الثلث
TOP
كامكس
أوق
الآتي
##مسك
عضلات
وقفة
فلك
تلبية
الغس
con
وتنفيذ
قائم
الميكانيكية
##اكيا
أوف
لمشروع
ونص
قطار
عار
العباس
##اجرة
انقلاب
##ْط
للمواضيع
متهم
أخذت
##جزة
الحصري
تتخذ
الحربي
القمح
الفوري
صريحة
والكثير
##RC
الصلب
الأسرى
لإطلاق
دورها
المجل
##ستخدم
للإعلان
للتأمين
1990
كينيا
مقاعد
##ِيّ
السلك
هيوماكس
الاسهم
بِهِ
أمطار
الملاعب
الجاهزة
##cam
سنه
بشيء
اشترك
والنساء
الزقازيق
التحول
فتحي
توازن
##خات
تعز
##ــص
والحلول
وروسيا
##الاب
##رفشه
فقالت
##شتري
صفات
أعض
يعادل
مؤس
##شـ
وتنظيم
قوائم
الأمازي
أنمي
وفقًا
والحمد
المكاتب
دفعت
التصنيفات
##كوري
الايراني
هوايات
تخضع
اراد
##رائية
المعارف
##ستا
مقرر
##جتها
##فاقات
القرآنية
القبر
بلص
##خطط
فئات
للكن
الصيفية
الندوة
##ini
النقطة
##َّق
التأكيد
نجمة
زهرة
بالسجن
كح
##طول
الإك
الاكاديمية
باعتبارها
القادة
##جى
التشغيلية
##لوجيا
SZ
هيا
مواعيدك
Book
تعكس
المخطوطات
قصور
##موض
والنشر
BD
المند
مضيف
والمسلمين
وتركيب
Cont
التمارين
الإفريقية
جهته
محادثات
السنغال
يصح
لَا
عيني
##عدت
الأرثوذ
بأنهم
##212
ديزاين
لافتا
المرحوم
رضوان
مدبلج
للآ
المغربى
تسهيل
والجغرافيا
KH
نقلت
94
كربلاء
أسترالي
ليسوتو
##شره
اللو
فاروق
##برج
ناه
##SAT
النصائح
والإبداع
عموم
تعرّف
زادت
##اعيات
التجار
الممن
##موت
##وفه
البدي
##علامات
ناع
فإنّ
السويتش
لاو
الأهم
المصارف
تنتج
إرادة
القيادي
تقيم
أظهر
الزاوية
##WG
للتأكد
##رافقة
الجافا
حساسية
الميزان
نادر
وأهل
وسواتر
المصطفى
اللحوم
عبايات
بالانت
لاستقبال
جزاء
القبيلة
الملتح
امين
¤®
وتُ
##67
##توك
فلب
##رياء
الدوريات
وتقوم
تلاوات
##ضار
كيمياء
دعت
مِ
##لوان
والمسرح
الكيوماكس
الربيعي
الماك
يأكل
الجهوية
شاهين
حيفا
##ليميم
الالي
عموما
DREAMBOX
##لفل
بمل
تثبت
AMD
Sa
##يليت
والمغ
##ناث
الثروة
لدول
##ليبات
والغاز
قف
الراف
##رتفاع
##توس
لإجراء
والشعراء
بيتكوين
محاور
##interest
بالأح
BW
لاعبي
فنلندا
غيرهم
افكار
ديني
بالخبر
الكسل
فيكون
عرضها
##idae
الانك
دن
أمان
مقب
الخم
##INE
إبداعات
ميني
نسائي
والدعم
والثانية
كلمته
##یر
القرض
##اتين
جث
عصير
ننصح
استشاري
##اليك
المراهقة
شملت
Galaxy
تتوقف
تشاهد
لوجود
##ِّن
النفطية
والمفاتيح
سبي
المصار
##ديت
المختلفه
التليفزيون
يُع
يتابع
وتعد
##غرام
##صرح
مهدي
بالتقسيط
للمياه
حوالى
NOK
الإعاقة
##bc
غوار
يلت
##uter
ودخل
##واتو
لجعل
انست
بعب
وسام
بالاعشاب
المثيرة
تسليك
جوي
Techn
زميل
ماس
أكس
##ماعات
يتكلم
الدورى
لشخص
عاصم
##التزام
اعتراف
##ااا
الخبير
والاجتماعي
أنش
##وتيك
مدع
##يمكن
أعماله
زكريا
ترفع
الاساسية
منسق
العطل
حقن
ورج
المستعملة
##ليمون
Web
بتأ
ليش
رعب
عرضة
التجويد
حنان
صاحبه
ويبدو
تفض
النشاطات
##وثائق
##und
عمالة
النسبة
أنزل
ep
السويداء
##سلندية
آلات
##ساءل
##سامح
##يسية
علاوة
Res
موافق
والمطاعم
##سيين
##وادور
تمتد
نحت
يقصد
كافيه
##ياسة
##طاقات
مهد
##بق
الملكة
الأرجنتين
يوافق
الوف
أهلها
مضاد
للتخلص
اكتب
أشارت
بقرار
مبيدات
يتس
توعية
تكس
ظن
تكتب
الحجاز
All
قطرات
لضعف
##كيوماكس
ترينيداد
ارتفعت
بإطلاق
زراعية
والمواد
اليكم
عاشوراء
##ِيُّ
##ثله
فرعون
الجمل
نبيه
سياحي
MS
الخلافات
أوائل
كجم
الحوارات
##ترنيت
وبإ
تمسك
الشقيقة
بريدة
التخرج
تاون
الهاردوير
##ثني
##يتو
##زول
##ition
برقم
data
احباب
##وهة
أرضية
والتبريكات
AC
بحقوق
العنصرية
الفصائل
المتوفرة
##ـــت
##لاحقة
يقوي
تدريس
رع
الأسم
un
غن
التحرك
المقات
الكا
بلي
مكس
##يعاب
العجائب
متطورة
راجع
فست
اغلب
المذه
دمياط
##سمبورغ
اللق
سعيدة
ارشادات
العبرية
Pinterest
يسر
الروس
وأجهزة
يتخذ
التأليف
رابع
الأرضية
##شاركات
1992
يناقش
أَح
واصل
وبدأت
احب
إدراجك
الهدايا
أنف
والنقل
الاشخاص
يعنى
##جهيزات
##ّص
العاطفية
۩۩
71
فانواتو
أثبتت
نايف
الأبطال
السعي
اعلم
استثناء
حصر
ايراني
الزمنية
وأفضل
المتع
سيط
استضاف
والمط
والسير
ايمان
1967
يمكنها
والطرائف
##طلسي
##MAX
الشرب
أسنان
غداً
Forums
ولها
معال
##راكت
الشّ
جثمان
##المن
Av
سلك
إلخ
الدافع
وكالات
الريح
كوادر
##مصادر
وَلا
ويتحمل
فـ
لمعالجة
نحتاج
الأبراج
الموبايلات
بحريني
0096
نيابة
والاعلام
السخ
جاهز
الفرو
أجمع
أبيض
Box
Adobe
المستجدات
ساند
BT
A8
جواد
الحرص
وتوباغو
جح
ملكة
تجن
Samsung
إختبارات
بشارة
إبن
سكربت
##حث
كوت
كونا
صوتي
##توية
والحد
##طوبة
البعد
اجتمع
##كتيريا
بركة
##amp
البرج
ملاك
اموال
السفينة
المزعجة
##اميل
##باتات
والجن
التور
دائمة
درعا
المحادثة
اليهودي
مفاتيح
يجلس
الضمانات
والفنانين
الكومي
##اتنا
تلاميذ
الضعف
##نتيني
أورد
فيجب
شوت
والآن
المدونات
نعيم
الراهن
##line
##ـول
facebook
فبعد
إِنَّ
##ماه
أمه
ضح
المادي
للسياحة
الانتظار
واقعية
المـ
الصدد
الصّ
السامية
عملائنا
ظفر
الأسترالي
وجهها
##عيان
لعدة
ينتج
انعقاد
ونش
البحيرة
روات
تسوية
الملايين
مثب
Mus
المفترض
##ُور
المبعوث
أنفسنا
##امينات
توس
مجرى
##ركيب
##والد
الدائمة
بَ
دوائر
##ـــه
الضريبة
المهمه
سوداء
مجاناً
برفقة
اللفظ
##ound
الشريك
##وفان
بنتيجة
ستيف
الخلافة
روماني
بيده
ممنوع
الأجيال
قســــم
العملاق
المكتوبة
التشيك
البسيطة
##بادلة
##زاق
ونق
باج
الذكي
الغبار
السابقين
الكروات
##ats
##work
الضرر
صمت
ومعدات
مواصفات
##لّ
##دعي
تقي
إخوان
للمستخدمين
للتق
السام
بعثة
##شاركت
تشبه
##PS
الموريت
مؤكد
لواء
والمعلم
بوضوح
صيغ
فلو
كذ
المعن
والعديد
طلبت
الصفوف
##رور
واحداً
للتحويل
إِلَى
والآخر
##com
مجلات
إزاء
يومنا
الأت
أوجه
الظالم
أهمها
اعطال
التلفاز
##تحاق
فيج
باستثناء
نيكاراغوا
رحيل
##form
ستيشن
يحفظ
##RA
ستايلات
##افظات
وتفسير
والحفاظ
إستخدام
والدول
جديداً
MX
الإستقلال
تصفيات
باحت
##ولال
كروم
الإسلامى
عالميا
##ode
الكاريبي
الهج
الصيفي
يقيم
الفائزين
اتهم
والسب
الاصطنا
ومسا
بأقل
مؤلف
آخ
مصد
تركيز
##احه
باراغواي
تبارك
اشتراك
نهائيا
الفشل
المفوضية
نجحت
##موحات
خصص
css
ملحوظ
طبقة
##ميّزة
##كِ
النصرة
##فيلد
المساهم
الدّ
تدير
##وريون
جاني
الكيما
افا
التجديد
شيكل
جنوبي
##رائد
والاهد
ولات
العضلات
يقرب
والإمارات
##هدفت
غضون
اقليم
رمزيات
##ازى
كوبي
##bl
المجتمعية
بأكمل
الطائفة
الحارس
الأهمية
الاجتماعيات
خفيف
كاري
Smart
وسيكون
البرازيلي
الطول
بابا
مهنة
##فورد
الــم
تهاني
الصفات
النقيب
عمري
##يفورم
الحمية
وَهُ
والجسم
##raph
جدوى
##ابتن
##هبة
للاعلام
وقطع
فجأة
##وساط
طائفة
جوه
غربية
وقضايا
حماد
الاعلى
##خصيص
فصول
ويقدم
##تمة
كردستان
درويش
المُت
للدخول
تطرح
لتسهيل
##نيابة
##اركوم
الموحد
للغة
##وارض
باص
غيرك
كع
##وزع
الأنصاري
يوحنا
دراما
فِيه
لجهة
وبرينسي
Rec
تمّ
صلات
دواوين
التصرف
يفر
##rong
تنطلق
يختار
صَل
ملغ
ابا
##العدد
روفر
##ابته
المبنى
أتمنى
##بتك
مجوهرات
تشويش
##جتماعي
النسائي
عُضو
##رفت
##شهر
موريتانية
تثق
تقدمه
##ركائنا
المسرحيات
والعلاج
مركب
نقله
لإنشاء
وداع
غادر
الفنلندية
##طوي
والما
وتركيا
##لاءمة
المرشح
الـقـاه
1989
والسيرة
للدكتور
فخر
ودفع
قضى
الدقيق
صارت
الأهالي
التصعيد
يمين
##rig
يخضع
وأعلن
المنتهية
Fr
##غشقر
عاب
فلس
##سكري
الـقـاهـره
والرق
القم
لمساعدة
هوندا
تعاريف
##سيوي
الزيارات
معاون
##جليز
ياباني
عوف
##جور
صيغة
##سترد
##ليج
إسباني
الحسون
موسيقية
مطلعة
ليصبح
لأهل
أقيمت
ألفا
عرضه
ALL
##ِج
اللغوية
يوفنتوس
كونغ
##برنا
##بلات
يسيطر
##ودها
وجوده
جدران
السمك
annahar
وحكم
إنش
##WD
إسطنبول
##YP
الموازين
قرن
أمره
##هول
المرات
ضحية
وحفظ
العشرات
متت
الغريب
##قايا
شعرية
يسمع
البرد
ياد
بالو
معبر
الويندوز
نفت
##EX
##فها
##يرًا
ويك
##98
##ظروف
الرئاسي
##متك
أدوية
بالحق
الزفاف
والاخبار
دونغ
مؤكداً
الفرع
lat
إعدادي
وحض
محفوظ
وصولاً
كلهم
الحضر
##ربا
الراغبين
جمعيات
الزجاجي
جزءاً
مازال
##اعيد
البنا
المقط
قدي
معارضة
وتز
أفراح
وبخاصة
الفيتنامية
##لن
استيراد
أطل
مهاجم
الحلف
التوقعات
قرآن
##َـ
الموج
حوض
غام
واللي
توضيح
COM
تتع
والتسويق
الأشجار
بالاشتراك
المعالم
ومعرفة
الجلوتين
عراق
الصربي
##لقة
انح
يناسب
غانا
##سلط
ظه
المعاني
ميزانية
استايلات
0A
##ونديال
##خلاق
الأبناء
كتبه
والتقني
الصمت
ووجه
قاع
عميق
رابعة
المقت
لتحميل
ودية
طراز
الاسود
أدلة
المنح
أدم
اللحم
عزم
##ّدة
كروس
##سوق
الأوعية
تجميع
ومحاولة
ليلى
حتّى
الظاهر
العماني
والاه
علام
حصيلة
الدمع
تنظر
الرياضيه
أخلاق
شهيد
السباق
##ther
ايجاد
تهييج
##ثرات
جزائرية
والدر
نوح
انقطاع
والدراجات
العمالية
القديس
الإجازة
الدش
فولكس
ماركا
##شيبا
مسؤولة
صم
أنْ
##واحي
الكرواتية
لتد
رمضانيات
اتفق
الفرات
بلغاريا
والمعدات
العقلية
والبيئة
بحجة
الفريقين
تساقط
وبهذا
والسلامة
طاولة
##ياتهم
وعائل
القذافي
وارتفاع
العزاء
##ated
الانتفاع
##دونيسية
بالاعت
##دوا
##رباط
متوفرة
العصبية
واشار
التواقيع
كاون
جولات
الأليفة
UF
تـ
الرضاعة
##روطية
بمرض
##فاذ
إقام
##ّك
المنز
المتظاهرين
##وزو
السرير
وفاته
مواطنين
السيادة
رفضت
الإبداعي
##ِّم
فعلت
طموح
للانتخابات
التشريع
NT
يستعد
الروحية
والغير
180
منتـدى
##gypt
الهض
الأقس
##ومن
##BA
والأناقة
الفضائى
●●
##فاية
مساهمة
حلو
بالشر
يار
##يمر
عناية
بود
Microsoft
يساهم
##اسير
نزول
سرير
الجيدة
يأت
والدكتور
##قدّم
غرار
المؤتمرات
تتحول
التشكيلية
انعدام
جنة
##rivers
العقوبة
المجلات
شراكة
المتعلق
بتف
الاعدادي
درج
قائل
وروايات
نافع
حذر
شمل
غاب
الحديقة
الإماراتية
بالفر
الأعشاب
الصحه
إنقاذ
##وسفي
بيتك
##قور
##طعام
##ستطيع
##اكهة
##وجر
تعالج
موضح
تسعة
وجوب
أبعد
0D
القراءات
طنطا
العاجلة
##اصي
الإعدادية
الأقــس
المصرفية
##itt
المطعم
المائدة
الجوانب
##جلوس
##عث
##غوا
إحداث
URL
والمزيد
تساهم
وضعه
المتكررة
الرحاب
يَع
النقر
##سابقة
السفن
##ْج
##آلات
والدولة
##ابهة
exper
الأغانى
اسك
المليون
وللشراء
معلومة
##ures
ترسل
##َنَ
وانه
الإذاعة
سبأ
بتوفير
النيابي
الضيافة
##يزي
الحجاب
الأربعين
تكمن
يتوفر
مداخل
وبرينسيبي
##كتشف
يتسبب
وَس
غو
##ليد
الالكترونيات
##anger
##امبو
##76
للذ
القصف
لتغيير
##أسبوع
الضيوف
تقليل
البولندي
الطيار
العطاء
للتش
##ank
بالخط
عيليت
##اعرة
أيوب
للتربية
والأسرة
size
الطلابية
لتحرير
الرفاع
أمني
##sn
معناه
لاري
بالدرجة
شمو
youtube
انخفض
ويوجد
البؤر
غالب
تولي
تسأل
مركبات
الغالب
الاضط
رجاء
تستقبل
وردت
رجلا
والخاصة
هبوط
الأهلى
بون
الوزارات
يدوية
IQ
الجدل
¨°o
حرك
##يرلندي
امكانية
منق
فسي
##تمت
شئون
اطراف
بمت
##َمَ
باكستانية
السمنة
المواطنة
النظامية
صقر
##ولادة
بى
تحريك
زيدان
##منين
##tv
##كتبة
للعربية
توشيبا
لذوي
##ـرب
شرعي
قرعة
MAD
بالتص
الاختصاص
##vent
الأئمة
وجمال
الكاميرون
مسؤولين
##رابة
القاموس
الإرسال
الترويج
انضم
الدف
##انيةال
التنقل
المشاهدة
Language
المدي
هذة
أجن
##ZT
الامتحان
صعود
غني
تنشيط
جهاد
والقنوات
##YN
احتلال
ووسائل
جنبلاط
اغلاق
برميل
قتلى
Fri
عسل
الجهوي
##انوي
الممثلة
##وماتيك
لمصلحة
للتم
##RN
##يعة
روائع
عذ
اقتحام
المردة
مثبــت
للإنسان
##التها
بهما
امتد
إعجاب
الرؤى
والجماعة
انجاز
للكتاب
دراسية
لدولة
##ادها
الأنف
بإصدار
##قاها
الوفاق
الدكتوراه
كامب
الْأ
وبكل
تحتفل
##فرين
اوراق
الأث
##rim
المعطيات
##ــــــة
الرومانسية
جامعات
##واتير
html
رؤيا
مخروطية
الاعتقاد
لكنهم
##oot
شرائح
جود
##وليت
القضاة
ضمور
لكننا
موف
##كند
رود
الأعراض
السادات
يصنع
##غرات
والإرشاد
الادبيه
يعكس
عدو
المخصص
الخشب
##َكُمْ
عشق
700
عقده
تَع
النطاق
بتشكيل
المخالفات
بالشكل
لبناني
المواصفات
بلاي
تستضيف
للمرحلة
حسم
يوان
الفقيه
انتخ
خاصية
##تمالات
1982
أنط
##اروسيا
الشرح
ET
والطفولة
الفروض
برازيلي
الملوك
ويرى
خليجية
الدوائر
التقنيه
التفاع
الْق
E2
اليك
ذكريات
تاريخه
الرياض0557824327
وفيها
بوصف
هدم
الرومات
الإلكترونيكتابة
المشاركةالمشاركة
Twitterالمشاركة
Facebookالمشاركة
نصب
أولياء
للإعلام
##امير
##قالي
وحق
تدا
IDR
يدعى
##كُمْ
الداخ
استقالة
بارباد
##شفاء
هيلانة
المالك
##مَا
سماع
##ولف
ابنة
صناديق
##ئنا
العبادة
التشاوري
##َّح
##any
الكذب
الجذ
العفيف
ومقاطع
نوفر
فضائية
##لمس
##ماق
الترمذي
##ييس
##YG
الرومان
إِلا
الازد
للاتصالات
تهريب
##َلْ
الميلي
بالأن
الجغرافية
Fil
مسائل
إيطالي
ارجو
##اذبة
وصولا
أوروجواي
لحظات
الاعشاب
Ap
##قفال
الغاني
فينا
تفكر
وينت
##عمر
##بحر
##نط
##وظفين
للاستفادة
تأييد
سمايل
عفيف
ومرئيات
##ليمي
وحيد
وتنظيف
##ينال
##خوان
الخريجين
##ّس
ينيك
برلين
وبات
انحاء
##vb
ووق
فائقة
صيانه
الاحص
##زازات
##PR
بتنسيق
المستفيد
وجودها
درب
السلمي
طلعت
ذكاء
بإمكانك
كارت
تغي
تثير
الانتح
فعالة
اللام
الاثار
القلعة
ألأ
تسع
نزلت
لمناسبة
اسبانيا
الالمانية
تطهير
توت
##يقظ
الالب
واقت
المهاجم
السفارات
ليتوان
ايم
للعد
خاف
مانع
##آخرين
##غازي
مستوي
##َسُول
تختار
استرا
أبعاد
تراه
##زلت
##ــق
أنقرة
##طت
##ائله
##ْلِ
ضخ
للخروج
##كسات
ريسيفرات
شهريا
والحكومة
مساحات
##ems
محبي
اعتداء
مساعدات
عددهم
كيك
مسرحيات
يَا
أوقية
للأسرة
اقول
المجاردة
##طري
التصدي
سلبية
المنع
##ويب
باختيار
##حار
وتخلي
الاصلي
##انز
يميز
فتحت
عمادة
اخري
حجاز
##ديين
حازم
الميزانية
يفكر
A9
المتعب
لخدمات
الائتم
رواتب
آلي
الداعية
الناصرة
##nxx
##تحدث
كاملا
ولكل
##ier
الجادة
ومسؤول
جارد
##لائمة
##ـــا
رفي
والمشرفين
المفضل
والقضاء
العظيمة
where
بقد
أخرجه
ترتيبه
Drivers
الجرافيك
المحلات
وعشرين
اللَّ
when
93
ببط
الكلب
No
الكازاخ
الجار
البحريني
للكيوماكس
prot
Ag
الوثيقة
##مدية
شكاوى
لوح
##عبي
AE
السنية
البطاقات
أسيوط
##زويلا
وتطبيقات
وكأنه
لإست
الشيوعي
##ليني
رواندا
تقام
BHD
##طالما
##GK
كرس
Gr
والمشاركة
الاستمتاع
القِ
عطور
##قابة
باعتباره
الاساسي
يفرض
91
##NF
ستر
##مب
المعنيين
قهوة
لكأس
الحريق
راك
منغ
##لبول
تفاهم
##eal
الأرز
2018م
المستن
ودروس
لاحقا
وجاءت
التنموية
latest
بأسلوب
SAT
أساتذة
التسوية
##بهات
##وكو
##بارو
##ناقش
المكتبات
قيرغ
الرائد
مدنية
Man
##مبية
بالبحث
الدومني
##ؤنا
مونديال
##ــــــم
منصبه
##روبة
بِال
ذمة
ومسابقات
مستجدات
##land
عرفات
مظاهر
تورنت
وحاول
التغيرات
الموديلات
اليوسفي
المدم
اليونانية
الفاتحة
##vol
PEN
LK
اعراض
المتحف
ولبنان
الأطلسي
##شفير
تخطيط
ينزل
سوس
يسكن
الايطالية
الفاضل
يختص
والعرب
جوية
comp
ومثل
الشوك
التز
فوكس
ويؤ
##نجان
الفتوى
الوصف
جميعها
ويوم
وتأتي
والأب
##احل
الاستراتيجي
الاقل
##هاتف
مشيط
أخبرنا
1988
قو
تمديد
الأنبا
##راوية
الناشط
##ّج
تصور
تأخير
وأدوات
للسوق
طابع
##براطورية
والشبكات
ضيق
فترات
##هيري
تحويلات
طور
##أله
##ase
امهات
الشابة
##صرين
الأقــســـام
المصمم
موناكو
أرجو
الحربية
الشيخوخة
لتتمكن
##con
لموقعك
المقررة
صوف
إستراحة
##َّف
بالآ
##زس
الرقة
الطابق
##rans
##لد
وتحليل
خسر
عوز
ليم
OM
##plus
ممكنة
قبله
الضخمة
تدري
##Berry
قطاعات
البعث
خارجي
للمقيمين
##46
المنافس
الفتنة
الأخر
اعترف
والسينما
جماعية
guid
تولى
¤°
مقدونيا
##المات
المعمارية
##داثة
أصحابه
يرك
##راجعات
##تهاء
دراجات
لذي
ردا
لتف
الفلسطين
##fo
rtl
##نبلة
بالغة
أعداء
مجهول
لشهر
V2
ووزارة
القطرات
##مله
##راجة
ملح
الاسرائيلية
Ak
le
تحية
صام
المبادئ
المطالبة
المتضر
والأخلاق
بمعدل
باور
CM
افرازات
مجري
##EB
استنا
باربي
بلح
جيت
الجمارك
vision
الاني
نال
MDL
بوم
160
##JF
برك
##HS
روسية
SLL
الزر
الديكورات
لقطات
##her
قدره
مجتمعات
GYD
يبت
ماهي
بخلاف
كُ
المحاسب
المتمدن
الحكام
92
ونتائج
HRK
طلوع
بُ
الطّلبات
وعروض
1987
حان
##ّمة
##وانئ
##عاطف
الأمثل
جاز
فديو
اللوحة
واتساب
احتفالات
يتحول
الجانبين
الإخت
بلادي
عادية
تصدير
##زوق
مناقشات
##وخي
بوج
does
experience
حبة
وجرى
المهنة
اقرار
117
منقول
بالنظر
الاسبانية
ونح
ستقوم
والدم
المحرك
يهودا
وجبات
##جعل
##بيك
اختصار
لتشكيل
تخدم
الحدائق
العادات
##ـــدى
ساحات
راند
لأنّ
ليلا
##cy
تضطر
والحكايات
عقدة
الفو
##ـوي
##ميات
القطار
تستعد
##لتهم
أخط
الشيخة
للشؤون
##ـــب
والعق
نشرة
خاصه
##براز
style
وإيران
الجاليات
free
يفقد
1970
##جمعين
للثقافة
راعي
##جهد
علية
قلوبنا
##لاوة
##verage
الخفيفة
##هامات
الخطب
الناقلة
كرات
والمعرفة
الاستعمال
##ادف
ناجحة
والمراد
مجدي
##اميبي
معيار
جزئ
هال
صناعية
اللغوي
محاكم
للولايات
النفوس
والتنظيم
رعد
المؤس
##اسر
ولذا
ترقيات
la
الإغ
الأمام
التركمان
مغامرات
ويقال
الفهم
مواقعها
##ones
##eed
تدفق
##ts
نهيان
الأضرار
الكارتون
سماء
##na
الشبابية
نية
##راوى
اللغه
الملتحمة
والأع
مضي
تحصيل
التنوع
نول
المارونية
صوب
للسلام
تزايد
الرمد
والإطلاع
الدفن
##2010
السعوديين
أبى
إليكم
الإنقاذ
Français
##رفه
أناقة
##ines
1962
جلي
تشكيلة
غازي
##َّمَ
1997
التما
خطبة
وجب
2AS
غاض
نين
للتعاون
ثقيلة
##اقه
تعليقك
##ّما
والوط
دجن
الاماكن
بلف
##الرئيس
ذكية
انتهاكات
مفتو
##وقا
بطب
المصنع
خدي
الوزاري
يفترض
ويه
الدوام
الأمومة
الحليم
الشغل
##مرات
والسم
عشيرة
فشلت
إلقاء
لمنظمة
##ــــام
بطرق
المرطبة
af
##wa
##ائعات
##رسول
عادات
##ذيات
الورق
الروحي
والعب
يفتتح
فصائل
وشركة
الأبد
##206
الاندونيسية
أبرزها
شكوى
للمحترفين
##عباء
##ناطق
الراقي
##نيست
تطورات
فيراري
##ثرت
تفجير
رائدة
سويش
##لائه
¦¦
آلام
الاعلاني
##خذه
١٩
سفينة
استخراج
هجر
##اذبية
both
لزوج
##شاق
القبطية
One
##ْنَا
مصاريف
##جمان
بارز
وشك
دريك
الهوايات
##ودى
الاستماع
عنيفة
حزين
Of
البضائع
القضائي
عامي
##دثة
##َمُ
تشيل
##يتور
جواتيم
perfor
125
اللوح
surgeons
##قدان
اتبع
مثير
##غرى
مجاهد
شوب
جريح
للمجتمع
##isted
المرحله
الرأسم
قلنا
الخدج
الافتتاح
موديل
شدة
وسلامة
##ربها
وأمن
دوار
إتمام
الاشغال
ومعالم
وحب
الفيوم
والعلمية
وَمَا
كذب
if
تنفيذها
سياسيا
الصبغي
##هدئة
وتعكس
##منتدى
ومك
يرسل
1434
إشعار
جوان
البت
بمؤ
Air
مضمون
صراحة
المضي
أسماك
كراي
اتهام
تدريج
##نيطرة
##غاوات
وطرائف
مكر
##دها
##ربيا
مولاي
المحدد
##اطير
الخلفية
بالطرق
##راصير
التفتيش
1976
الورا
حار
##آف
الاعلامية
أرمين
عددها
انسان
وبالم
والتوزيع
والمكياج
الدومنيكان
##ندينا
والمرأة
خصي
تاريخي
جروب
العثمانية
استثمارية
recovery
me
كمب
getting
المعلوماتية
تدريبات
##جبك
##زى
الامة
سلب
##اكي
##ظهور
##زما
تحقيقات
°¤
يغير
##بيلان
##هاي
##جمعيات
##منع
قيس
##جرم
الكافي
النيجر
##ْلا
##سفي
اصبحت
المذاهب
والطيور
رسمياً
تدبير
SAR
بانه
وإذ
3AS
يشاء
عَب
##بيحة
للـ
##هيرية
تسوق
اجتماعا
الطرقات
متكامل
توافر
سيات
##ater
المطالب
عقول
الثيمات
إيم
فرنسي
دجنبر
##سبان
بواقع
هذين
ورأى
ليصل
هود
الممارسات
##manent
البرتغالي
وصحيفة
الاميركية
فلماذا
وأمر
زمنية
الخيل
##اراكت
##0000
التنظيمات
الحياه
##angerous
##ife
المسح
للبرامج
رخام
روعة
وخص
##يبي
لانكا
بتد
خالص
وأسر
##راخ
ultr
##كـ
ثانوى
آمنوا
الهادفة
الأعظم
##راكي
وصفه
وقم
مفاجأة
##udi
شنودة
أعمار
قومي
##يفاء
بجروح
الفقرة
بالما
لمركز
والجامعات
##ُؤ
المهن
طاب
دراجة
ميخ
##610
##زواج
##اردو
لتنظيف
ونب
تقدمت
لكى
المتحدةأ
بالدقة
الاسماء
المميزات
وسيط
شاحنة
اقدم
استهدفت
ومنه
##ati
انسحاب
وخدمة
##ـتـديـات
مغادرة
##یس
تنسى
للمنتديات
توضح
##صق
permanent
##وردين
##ings
فينش
النوعية
شوقي
##اشا
لمل
الطاولة
##71
مرافق
السُّ
IC
الاستشاريون
وشكرا
والعروض
الاستفتاء
##بطي
##ولك
بشرط
لطيف
الافريقي
المعالجة
ماركت
تحيات
المجمعات
average
خلقه
استهدف
removing
##انم
مقروءة
ولاد
removed
تكنوسات
يستفيد
##روعات
الاصلاح
تالا
الازهر
داو
والمغرب
الَّذِينَ
برلم
قرنيه
##ــو
شعلة
حاض
ويرلبول
##َّةِ
مراه
##سبه
##ضامن
##¦¦
##كلمات
COP
dangerous
وضرورة
يرض
طاهر
السيئة
تقضي
تغريدة
##اقفة
المكرره
المانجا
وتأثير
هندي
العبيلان
##eratome
الجري
والجوالات
بقيت
فانه
##اسيس
تذاكر
لدراسة
##ظور
##ـيـم
##ربيل
##ily
الخاط
عاليه
##PF
انطلق
وتقنيات
للمملكة
عجلة
##صرت
##بطت
تتعامل
الميل
الكتاراكت
الناتجة
الدماء
بالذات
شدد
تراك
فريج
تبني
مرمى
performed
والنكت
##رطان
محامي
أخطر
هوب
المفاتيح
بفوز
تدوير
specialists
الذانية
ليبرمان
بدولة
السبيل
assisted
guided
دواء
مطال
مثالية
للطفل
طريقها
امي
طبقا
##YU
complications
الفتن
إندونيس
المؤشرات
الكورى
epi
التكنولوجية
توغ
##الابصار
مقط
الورقة
احولال
افندينا
بامت
##ركيز
su
keratome
متع
ليد
والنصف
النادى
يخالف
يتعامل
باليوم
ضيوف
والتكوين
يصلي
الرموز
صومالي
والولايات
##ces
شيفر
بالنا
##ومكس
معتمدة
الاسره
كَانَ
فيات
##سلر
الاراضي
حسان
اكسب
القح
وتقدير
للطاقة
عالمياً
##توت
Cup
##تداء
##علي
##ديداً
##كرين
الدولارات
وهن
النع
##مبيقي
جورجي
##زف
و3
تحولت
أعطى
مصطفي
أفغاني
إقرأ
الأحم
بضع
كلامه
روك
span
بإجراء
منزلي
##ستية
قائلة
##َبَ
وخمس
بوز
حُ
المؤهلة
تنفذ
السلط
جذب
##رافقه
استئناف
المشاهد
##ادقة
##ِّل
##co
السائل
contact
الدستوري
##رحي
##قاءات
##ريكو
وصار
##ميّز
مُت
واجهات
مسط
بأنّ
ومركز
مآ
والمحذوف
1991
##رعه
صياغة
##ساة
##ُواْ
مواجهات
##عارات
التوزيع
لمساعد
video
الحرارية
360
105
منتدانا
ابراج
راض
متفق
مخططات
والسعودية
الإستقبال
##شور
الاسكان
عطا
بشري
##لبن
##انها
##ica
المناصب
الاقتراع
##رافكس
للتعامل
العمارة
##وصي
##طرق
جرينتش
star
إث
سق
##َظ
وتنت
العقبة
الرومانية
سبوت
وأصبحت
جعله
شهرة
مكل
##وافر
وتلك
الصدق
النضال
##عاقب
محج
ap
USB
بلدنا
AS
##UL
هيروشيما
سـ
##WK
ستان
العولمة
الدعايه
ماكينة
والنثر
والمسؤول
إظهار
الجنرال
احياء
لكزس
##جمالية
##ors
##وليكية
دماء
الصوفية
ممثلين
جزائري
لصحيفة
سباحة
مازدا
رامي
تكبير
مدافئ
أندية
##هره
المعني
البطاط
الهادف
تحذر
##JS
بتوجيه
تيمية
كريمة
المضم
قدمه
المطاف
لأنك
الغالي
تدهور
Gold
والمتوسطة
بالمؤ
الأدلة
##ناقض
##WF
ونتمنى
النظم
مدغشقر
نسمع
الصفا
فعلي
السياح
بمشروع
##يتام
صلبة
مشب
IG
##بلاغ
##ــــر
يسلم
فستان
الاقمار
عطورات
NET
news
الماركات
حاسوب
والصناعة
عك
بسمة
الصمد
##حتنا
مكسيكي
بشركة
SM
تليفون
محاسب
##الط
حاد
ودع
ربك
وخلفيات
##َرُ
##ويضات
استقال
الفواكه
##ُمُ
بيجو
حاس
سون
طالع
حداد
مــنــت
الكونغولي
البالغة
والاط
##عاقبة
والصلاة
Photoshop
##غض
صالحة
##غور
وتونس
فسوف
مجتم
الإعداد
فاد
##ّون
شائعة
شكراً
جذور
أتل
الرمل
كوين
امتلاك
الكول
فخامة
ووفق
##GB
ووقف
شهود
AED
حلها
سويدية
بالذ
موضحا
##صلين
##وشة
##ague
الجرا
##اعب
الثلاثي
ليتم
##زعاج
تصليح
للصحافة
كريازى
##فارق
نجل
مقابلات
##خيم
وتشغيل
##ـض
يسجل
STD
نيف
##عمد
##وقاية
فلبيني
بيوم
##ربوا
توثيق
القنصلية
##هانة
للتصميم
والإعلانات
الانتصار
غانم
فعلاً
##اشية
ليالي
##سوبيشي
##ميك
فولفو
لاس
##مبيق
استطاعت
اجراءات
الاردنية
##َلُ
ستائر
الرصاص
##اسة
##قيل
الانتباه
SMS
الجهراء
##مائهم
تربط
المتشدد
حنين
جرح
الموظف
والإت
ضخم
##oham
تفاع
Free
ترفيهية
وطريقة
مونت
##لائل
تلقائي
##رابطة
والالغ
CHF
غلاب
أرو
الشرع
مؤتم
الارتفاع
مهن
الواحة
طحن
الرقبة
##َنِ
مجهولة
زخ
##فرج
تسيطر
##طراف
ومما
المفاهيم
##فرع
أوسع
ياه
رغب
أشعر
ينتهك
ابين
دمج
اعلنت
تشار
الرشي
##ema
##ؤهم
مزرعة
للبيئة
مخرج
منير
والاز
خامات
تصيب
القصور
شخصاً
التعبئة
يراه
##انطان
السوفت
مطلب
وتجارب
الكرامة
لاتس
الابعاد
##رائس
الخت
الشعار
##وثة
نظري
Super
المميزه
والقوات
القديسين
وأيضاً
لطيفة
##كترونية
والرج
الكمال
خَل
العمومي
السعيدة
##ياده
البلاستيك
متقدمة
##صيلية
آر
استراليا
الوزارية
منافسة
RA
المسئولية
مشروبات
شعرت
1993
مقدار
##STAR
##غواي
أخري
المصم
وتوجيه
الفيدر
المنظومة
مخاوف
نسم
إنا
قُل
الاستر
##ارو
ممثلي
الباه
النقالة
احلام
الروبية
إدريس
التسليم
بواب
استطلاع
معاملة
الكفر
انضمام
حزمة
تاكا
لاقت
Soft
القياس
العائلية
الربط
الكتل
كارثة
هذ
واقعة
تعنى
الروحانيه
نزيف
هدايا
##ari
شيك
وخلق
أضف
النزاعات
خذ
الراشد
FOR
صيدلية
نتحمل
مديرة
ونحو
##فلي
الكونغرس
يان
تصنع
إصاب
تصاعدي
##اليسار
بالعديد
الستار
##مّل
بالام
عِ
##سلو
ويحت
بالبوا
أصغر
بوليفار
التمريض
تستعمل
وتتم
كوي
القتلى
##ional
خضرية
##ايكي
تنغ
##ينز
آمال
نيل
PDF
##ECH
فرن
Video
التقاط
الشرايين
اعد
##ويع
بالسعودية
##تني
se
رينغ
بالتن
ثلاثي
بوف
حلوة
لشئون
##ربح
##ZK
الأضحى
ساهمت
التعادل
الاطباء
نابلس
CC
يمني
الغاية
مُقدمة
دعوات
جندي
وفنون
ابريل
التضخم
##ابلية
ألق
هلا
المفيدة
واللغات
وانته
وبيع
ساف
##ريقه
القاتل
يتولى
##لتزام
الشاهد
ميقاتي
quot
جلد
##افيه
صعوبات
الصنع
إسلاميات
السد
محمّد
مشاركته
محطم
##سامة
شباك
المثير
الليمون
##اجيكي
والطالبات
النجف
##ava
مشوار
الحسا
##شركة
##هندسين
لمنطقة
القصيدة
المستقل
وحلف
مبوبة
نتحدث
المطران
جوار
ـــ
بالقرآن
غرين
الايرلندي
ابل
لإقامة
ago
الـب
المطلقة
يونغ
وكافة
بكلمة
الدنمارك
تعويض
للصور
00212
الجدران
وقامت
الجلدية
الحذر
أربعين
170
البالغين
##جيبة
##ّز
ظاهر
الأغنية
##فيري
##قلوب
سوهاج
اشعار
حسابها
##omen
تسي
تحدثت
التوصيل
##تبع
الثنائي
دجاج
بمستوى
الإيجابية
##يوود
لإظهار
##كله
##ّرت
##station
زينة
##ئم
دوام
و6
##ــــت
##يقاع
المراجع
##ــلام
##باره
بمبلغ
050
أسعد
##ارتين
الوان
السيسى
TRY
بعدة
الجوار
الفقهاء
الكثيرون
##phone
والموث
حلمي
مطروح
المطلب
ضغوط
##port
##طلا
مولود
الواجبـات
##ـلام
ميتسوبيشي
وفرض
النايل
##ظه
الألكترون
فاتو
بصور
26°
متحرك
أكادير
SCR
##وووووووو
الاستغ
رينغيت
تحق
اسيا
##74
##aus
##فرغ
لإسرائيل
##المة
تحس
زوجي
إمارة
يظل
لقي
تركز
الاستعمار
مجهود
##يلو
Ech
##جيم
الثورية
عدي
نيبالية
رآ
##باني
أمت
كوس
شيلى
Prog
##امد
##يبيا
خلية
SEK
أوكرانية
ثُم
إذاعة
الطاهر
المهد
ألباني
إضاءة
السعوديةال
شقيق
##زوجة
Travel
ايطاليا
تنزاني
sw
##aper
أولويات
اللائحة
RUB
جالي
فَق
محجبات
بلغاري
قبرص
بوقف
عملا
كعب
الهكر
برسم
##غلو
##اريات
الأحمد
بحري
سوزوكي
اهالي
وشرح
##مث
الحار
المختار
##بني
##de
##ربما
التربيه
المنكر
الولد
وتفعيل
تكر
سينا
##aj
##عطاء
حسبما
##ايغ
فاض
كينا
طفلة
##بداء
الاميركي
##ـــــات
يضرب
##زهري
المتعة
أوغندي
وفاء
ZAR
الخطط
واسعار
الانتهاكات
##افلام
الصفقة
BlackBerry
تدشين
الكب
DKK
المزد
طاجيكي
وسفر
##ُوب
التقاعد
والمأكولات
والأدبية
الصليب
يُمكن
##بحوث
الهدى
##درسة
##يادته
يشغل
الألع
تعاملات
##فاءات
o°¨
غسان
الاحترام
الدا
الاخرين
انني
ينص
تعادل
بوتاني
العقاب
إختيار
##فيا
الحضاري
بوليفي
راه
الخرج
MYR
والشر
سلا
المنوعات
ترتبط
ممارسات
كنوز
##أر
إسلامي
درع
SGD
الزبير
ينتمي
بالمعروف
يتغير
فضائل
##uto
بالقطيف
##وكية
للاعضاء
top
##َاف
ابدا
مئوية
##ـية
التَّ
ARS
وجهك
وحمل
لاخت
والاعلان
منغولي
شيري
طويلا
ممرض
لمثل
مركبة
الظلام
الفراغ
شوي
EGP
نفوذ
والفت
كيات
إيف
##ارش
هزيمة
سموه
استثنائية
نرويجية
##هال
يقدمها
##داديه
تعم
دائمًا
Tour
ضروري
فوجد
SVC
المحلة
الــعـــام
##ــاء
GX610
لأعضاء
SOS
قرض
تذك
##زيزة
البني
CZK
يجعله
الشركاء
##JD
تحمي
الجوه
لفتح
الايج
بتصميم
فورنت
##ولها
CLP
المنطق
##ائفية
الكازاخستاني
مطالبة
الببغاوات
الصفقات
##اندة
بالمركز
الـمـن
##اليوني
##واً
باستعمال
##وطنات
عرش
##آلم
الإل
الصاروخ
المقابلة
##ذقية
قلوبهم
وَهُوَ
دانمار
##باين
وماذا
وضمان
##باري
مركزي
قتلوا
لتسجيل
احكام
مسيرته
فضيحة
عينه
والعدالة
اسلامي
الماضى
##اسبي
التقدير
يرتفع
MOP
والناس
هريف
تخلي
جامبي
الجدول
KP
الجوز
إِذا
##هش
##اندرويد
الانتهاك
##وينة
بالإس
2030
##أساة
لبدء
التحدث
للوطن
##ullet
دوراً
ظلت
الماركا
عظم
غواراني
##93
اعتراض
تعديلات
##بيها
دوبرا
##شفي
موزمبيقي
##VL
##ake
مدم
الرمال
السيف
باتاكا
##GX
والشرطة
الأفعال
الاردني
يث
تعيد
المرصد
1979
وملحقاته
بيانا
الأرواح
الجنين
تشي
بأح
مواقيت
كوردوبا
دري
##كّل
Guy
الزهر
الأفريقي
الاساس
##اسمة
ANG
هارون
حضرموت
##باي
أسلم
تايلندي
الرشاقة
بوليفيانو
الزلوتي
##ذيرات
تريدها
الهدوء
ولس
QAR
وحركة
التوحد
للتحقيق
Media
##جاد
والحصول
سناب
ابادة
إذاً
تميم
اصابات
سيراليوني
##roup
الحامل
هندوراسي
نشأ
كأنه
الخسائر
##تكارات
الهولندية
الشوق
##عادن
فيروس
ميزان
العشق
KWD
يارب
##ابعت
فقدت
شخصيا
إشارات
شوم
ايد
العت
##واحل
بالخير
تنازل
##بته
كانا
مشاهده
بلوغ
والمقترحات
اصدارات
الوفاة
زه
سوموني
بيتر
وحيدة
الحملات
بصدد
فهر
كينيي
تحفظ
للعب
العصبي
Friend
سيشيلية
التحويلات
تعتقد
تبت
المباركة
بتحويل
بأجهزة
شعارات
مقررات
النافذة
نزيه
##هلات
بصح
لطيور
0111
##رث
أشبه
يملكون
##UN
جاسم
##سح
##المبور
هدفها
OMR
فوزه
جيمس
##خباري
صديقة
الكعبة
الحاكمة
المريخ
الاداره
CFA
خامس
as
مالاوى
ساحرة
ناز
الأميرة
الجوائز
برصيد
تتحرك
##صرخ
والنت
##زج
ناميبي
##حيين
مصنف
CSS
وَف
أستطيع
تفكير
##ارئة
وفت
حاله
داخ
DZD
الكراهية
LBP
##قلالية
هاجم
تعبّر
مزيج
قذ
##قهلية
##يلاء
المجاري
this
اتمنى
بإسم
الحارث
1983
الجزاء
والفلاشات
1436
NAD
##نتينى
حقاً
الداعمة
##َمِ
CUP
##وكيو
##َذَا
السينمائية
اثيوبي
ماكينات
MZN
المتخصصين
مقص
الحفلات
استجابة
##ضانة
الفلس
المؤقتة
##ديرا
ومراكز
صغار
ثلاثين
##يسبوك
خليجي
ثواب
والمياه
بذكرى
الحضارات
ماضي
دومًا
يقلل
الكاثوليك
الشاه
كيت
حمية
الروضة
NZ
فتر
العسكر
ووفقا
لتنمية
أكن
التدبير
SDG
الحراك
السبعة
##تيه
الطلابي
##ays
بدرجة
المزمنة
المخيم
حسنة
تسجيلات
الاشتراكية
غيني
الكنائس
بمساعدة
الاستعانة
أنواعها
العلا
الوصفات
الموحدة
يسقط
ذك
ووز
البص
المحاكمة
الجامايكي
الزوجين
غارات
RON
يعلمون
##ected
بنمي
الزيمبابوي
##ئنان
ليبيري
DVB
##ينيين
الأسلوب
الإخوة
ساعتين
وضح
Dis
الحراجية
الطوائف
بركات
الناشئة
للتف
##وظائف
مشغل
أروب
##خراط
مراسلتنا
بروكسل
TND
الرجيم
مخالفات
كتير
يرح
CRC
كادي
المصانع
يوقع
##يبود
SYP
تتناول
الأجزاء
خرائط
LYD
الدب
IQD
##قله
نوعه
PLN
المصير
##طرح
الكورونا
الملتقيات
fun
غا
يعزز
للعلاج
أحزاب
وفرنسا
UAH
الكرمل
سلوفاكيا
الأوزبك
THB
Ser
##صفحات
الفوبلس
أنور
بلقب
الإيجابي
التشيلية
فاتورة
YER
يود
بمقدار
##42
شيفروليه
BSD
العَام
المزمن
تنوع
نرحب
الانسحاب
MRO
الرئيسة
مثيل
حروب
شىء
##ِّد
##زئة
واللغة
MVR
عـــ
##رداد
شكري
للاعب
بلغة
السيرفر
GEL
الاستجابة
##غتصاب
بشرى
خارطة
الحادثة
الاموال
NPR
DJF
فرانك
برود
وتصاميم
أيرلندا
تأويل
والقوانين
البروتين
##كاك
لاوسي
الضريبي
باربادوسي
##حتهم
BAM
IEP
Exp
كركوك
معاد
نوعا
ERN
متابع
##ــج
وخل
تساوي
##ركيا
HUF
نايرا
وعضو
##خن
##توب
play
KMF
الـمـ
BOB
CVE
##قتال
سقطت
##جيد
يسبق
والتب
العيادة
الفقهية
البند
الممل
AFN
رفيع
الإعتراف
طعم
المدخل
اعشاب
ناميبيا
الظهور
at
PAB
يتوجه
العميق
الحزم
##جموعات
لإنهاء
KES
##مساك
الأقليات
لوز
PKR
بالسل
التربة
سوازي
الافكار
ISK
يفوز
ليسوا
NGN
ألماني
يقتصر
استراتيجيات
والحرية
وصاحب
المعاهد
BWP
MUR
BND
GIP
لشركائنا
BBD
بغرض
DOP
يصلح
ألقى
الغامبية
اضافات
تعلق
Act
LAK
##ارقام
LKR
JMD
كمبو
IRR
شيوخ
رواندي
VEF
MNT
العابدين
الأخوة
Club
BIF
والصرف
المحتل
BMD
##جمعات
يتعين
برمودي
ليح
أعرب
سهرة
سريعا
NIO
لمبيرا
الاخوة
نيجيرى
شكاوي
GMD
BTN
##arn
ETB
هريفنيا
البكال
AWG
دلالة
نويفو
KZT
##adem
MKD
BYR
المتميّزة
HNL
PYG
فَل
KYD
BDT
TTD
SHP
بهاما
ايسلندية
UYU
GTQ
مرتفعة
SBD
TZS
PGK
UGX
مولدوفى
MMK
RWF
##cl
GNF
VUV
أرجنتينى
LRD
HTG
BZD
SZL
LTL
KHR
FKP
MWK
سلوفاكية
جواتيمالي
اسرائيلى
الوظيفية
لمص
ليتاس
داعي
TMT
غطاء
مالطا
MGA
وفن
AOA
منتجع
WST
الاعجاز
الخطيرة
CDF
الأرباح
BGN
LVL
نافكا
سيطر
المنافق
دفتر
RSD
اسكودو
مخر
منتداك
التكريم
FJD
GHS
SRD
لجهاز
راد
##كالي
فتنة
عفرين
Guyana
UZS
TJS
AZN
جرير
##قدت
الدرجات
الأوزبكستاني
ماكاوي
##واجبات
بينك
KPW
##ظلات
الطاز
لليوم
زعم
الصفر
التكاليف
وكانوا
كورس
LSL
##وريه
لاحقاً
لوتى
Comm
سنغافورى
نيوزيلندى
ملال
##خيصة
مقترحات
التسامح
والمرح
استفسار
بنجلاديشى
##سكرية
بثلاث
توغريك
التطرف
أروبى
نولترم
سورينامي
التركمانستاني
المفقودين
يرون
تونغي
ZMW
track
ZWL
جماعات
الفيجي
المئات
##ئى
##ric
##ياك
BYN
وامت
صحافي
الزائد
دانماركى
المنوفية
ZMK
قدمها
CLF
##درالية
بحالة
SKK
##صره
الأسلامية
خلل
التراجع
المخطط
يلانج
يحاولون
دودج
##وديا
كإ
ماليد
ســ
إندونيسيا
موجهة
بتخ
##ulletin
تزداد
شان
الشجر
وتناول
إجازة
لصناعة
128
معتد
ينال
هوت
900
معاذ
أوساط
أتباع
FIM
XDR
##عج
##نبر
1986
##row
انجولي
البعيد
أرمينى
ضرر
##ents
ماليدفية
يلانجيني
بانغا
ITL
Pal
الزملاء
##بيهة
الأهل
كولومبى
الجدار
الغورد
رييال
والتخ
FRF
مكي
##mbian
Guyanaese
ملغاشي
مقدونى
كمبودى
CFPF
قيرغستاني
الاكثر
يقام
سيز
##هرت
تدين
والمستحقة
##ـوم
وَر
محف
الجديده
##واعه
إيجاب
##وضوعات
المتد
فجاء
وشركات
الديموقراطية
Off
حبس
غادة
أخيرا
1961
الطعن
المسؤولة
الأفراح
ازد
الأكواد
حزن
##است
والايباد
##لاي
بالقران
##72
بغية
خاني
ممتعة
واهم
قتال
##يزيا
##وميم
فوراً
ويص
الرتب
وأنظمة
##ريطانيا
دالى
حيوي
##hd
وصال
ضربات
بعل
مزارع
##شهاد
المطلق
المحمدية
الصحراوي
##اتيكان
المراجعة
##لور
##زرة
##EG
لكان
الثورات
وتطور
بالبل
التخزين
رأت
والبناء
Team
تقوية
##زاع
مقاولات
##بداد
يذ
##عفري
مكونة
##لانات
##رن
أوروبية
أمّا
##زيم
##ْنَ
للمنتخب
روحانية
الجدير
تحفيظ
الأحذية
##صوله
##حنان
##هُم
التحضيرية
##ظافر
رات
السيول
المصور
101
مجانًا
نفع
بشخص
والالغاز
الخبي
ينقص
المشي
القروض
افراد
والاختبارات
Est
لاختيار
##حيي
كريستيانو
والسكر
##اجنة
قالَ
##ليوبية
السلبي
H1
للعديد
111
هدار
الإنشاء
أوامر
الفاتح
القطط
ولكنهم
اعتبارا
أرواح
البعثة
وضبط
##باكستان
##امجه
##جيج
مواكبة
مصحف
رجع
للعودة
الأجر
تركت
##وتهم
##جمل
ملفك
##صه
قوس
##سترا
##لهم
يستطع
إختر
بالأم
بالجزائر
العنصري
المحور
الركاب
ذكور
بالكمبيوتر
مختارة
المتكاملة
بقايا
يوميات
الديون
الجراح
تظل
Symbian
خدماتها
للكل
##92
اثارة
لحين
طالبات
الفرج
جنية
##الاس
بضعة
##عرات
115
Im
والباحثين
والموثوقية
موازنة
الأقصر
تقرأ
##فهوم
طاج
##kh
واقتراحات
والمث
مزايا
خرو
وباقي
المستقلين
أمامه
جني
المصارعه
تساعدك
وجرح
##يدير
##وادي
الدبلوماسي
ويذكر
##63
بكرة
سرعان
المهتم
المقاطعة
مثبت
صريح
للمنطقة
##ستيكية
بدعوة
النهوض
والهج
التعدين
البلاغة
مطحنة
vB
للاعت
قرط
الأركان
As
تداعيات
لوزير
##دشة
##رتين
##وليس
بزي
الروبوت
##َدَ
للبنان
والثقافي
##سيون
##حها
جدية
النغمات
والأثاث
إمارات
##كولن
الخسارة
سألت
##يميشن
عبي
جيلي
بوصة
تتابع
##OU
و5
الدفعة
##غلق
مصنوعة
تبديل
القاعة
الاث
استرجاع
##ual
أيق
##أسف
الجنائ
font
خاتم
وورد
يتفق
مرتفع
رضى
المثالي
##َنَا
##ستم
H3
تصغير
الاصطناعي
غطي
MA
النبوة
تمث
##ours
تكو
الصياد
##ديمير
متجدد
استثمارات
بكامل
بطول
أبراج
والأطفال
الأَ
##َمَا
يضر
##تيلا
جدار
كاد
المظل
ومواد
السالم
قادمة
بتحديد
##ديري
فله
الكوادر
##سابات
حصرياً
خدماتنا
اربع
الألباني
002126
Sil
بتغيير
يونيفورم
##سيوم
بوليفيا
الألياف
ولوازم
حلال
ودولية
هان
الأندلس
##قلية
وافقت
Sk
والتقدم
وتطبيق
الروائح
سنوي
احتجاجات
الفح
خصومات
##تير
المتف
الغنية
التفاح
ينطلق
##وسم
براد
بابل
شريحة
الإتصال
الاكشن
والخروج
تعاط
تتغير
##فلونزا
الكهف
للعلم
بالمدينه
##ember
##يبرا
والنائب
تمامًا
للمواد
ستارب
##OW
##ميديا
ليص
والفعاليات
صناع
المقاصد
راية
تسور
##قاقات
التدابير
##ودرن
##ّهم
##ush
بمق
منخفضة
يعترف
أصابع
فكرية
الابن
التلمي
##وكة
المضادة
أجريت
إدراك
جيجا
الوات
استف
الفعلية
السودانيين
اشخاص
شاك
الموعد
الطبيع
Sur
آت
وألعاب
يضاف
الغياب
النخبة
ناهيك
الخريف
##ـدة
شبهات
ابواب
وفع
##سخ
ومجموعة
La
Pol
نيم
الطابع
إصابات
##مبياد
بالاحساء
السموات
للنف
وشعر
يستغرق
بحيرة
يطلع
ماب
بتقنية
الطفلة
تغطي
ينجح
السويش
ارها
المــ
سيدني
##بب
مصور
للأنباء
وشخصيات
محترف
##ريدات
السور
##كستان
حصان
الغسالات
دوب
وسائر
EL
والموسيقى
ورود
بالقوة
لبس
##هوض
##ُكَ
بالضبط
وطال
بايرن
كلاسيك
##غالات
##ـــــــة
فمث
##رتس
LCD
مضت
الفاخرة
ذكرها
الخلفيات
منال
شوف
أَوْ
##ضيات
هونغ
التشفير
##قرام
##RON
الأمازيغية
والرش
إخلاء
صبر
##واس
plus
تراكم
##ولار
الميديا
فضلك
هوائية
رَسُول
يدعون
##َوَ
يحظر
كده
المحادثات
مترا
##جرامية
المقيمين
##سار
تمييز
وكأنها
احصل
المرورية
التلفزيوني
الاحياء
##تيان
##نسانية
الزميل
الديموقراطي
وملحقاتها
##ظف
ومنتديات
protected
المحتمل
الكرب
رمزية
بعناية
الاسترا
جراحات
رأيك
الأممي
الاصدقاء
يشترط
اوت
##ليين
وعاد
##الكسي
##هيدي
##هاينة
خديجة
لسنوات
##endo
بنتلي
حمدي
##شح
##كف
سفارة
العموم
يحد
ضرورية
##ِّين
أمرا
##فيلم
وبالنسبة
##WE
يأمر
##غيب
النقال
الموسيقي
والدروس
للقاء
صلّى
أعقاب
أورو
ونشاط
ترميم
توريد
##رمان
تدرس
350
##لازمة
##699
التكلفة
والسيارات
جنيها
##الدرس
كره
الحنيف
صيحات
أخيه
ودراسات
النعيم
الهن
##بتهم
سني
بلده
المناعة
يجعلها
خانة
الباردة
التسعين
فإنهم
نسيت
شارل
تكليف
مادية
##َهُمْ
أشغال
والمعاهد
البغداديه
ترمب
والسي
للنقاش
التلوث
فأخذ
حاصل
سوبارو
##اخبار
رحب
وحضور
بقابلية
الكردي
الآونة
البقع
حرج
##اهره
تؤمن
والملاءمة
البلديات
منوعه
##شيء
بالأمر
##راعنة
تسرب
المنصة
sy
##رغم
الرف
##formation
وقوة
حقوقية
##أمون
##كاست
مذهلة
##خيرة
##بادي
ساخن
الصالحين
يحتفل
الكائنات
المرسوم
والتلفزيون
الذكور
الموجهة
الحيوانية
تشيلسي
داون
##هز
للعراق
للإسلام
حَ
##رمز
##ُص
المفس
Sunplus
##َرِ
مري
وعمر
##ودعات
055
رغبات
العشرة
##ـآت
السنّة
##ثف
تناولت
أذن
المنخفض
وإنج
##ووو
التشريعات
فجعل
##by
الإستشارات
للكناري
رولز
218
والنف
مسؤولون
##يهاتسو
المكس
والديمقراطية
أعين
إيجابي
والمرئي
الهادئ
سمح
وكلمة
Internet
ننسى
التهم
أكرم
النبى
##ْمِن
##ءان
التخلي
##ّار
الباد
صريحةً
المعيشة
##عودي
النظرة
كرايسلر
1977
متعدد
103
والقط
والاستثمار
الجندي
ريب
توضع
أَف
راموت
حكومي
أكتب
والسبب
واستقرار
شلل
نايل
المتطورة
المنظم
مَع
العمانية
هادئة
فقالوا
فتيات
والمشروبات
المدا
أُم
اال
بيكو
ثانى
يدرس
##سترول
صفقات
العذاب
##ويلاً
الايمان
فـي
وانتم
الوجوه
عضويت
Sports
##road
##بدع
بالترجمات
العر
فيض
اسفل
##ثيف
Hum
ننتظر
تسقط
##ــرة
##وكان
##وابع
##سترونج
الليبر
كارتون
هاوس
قات
##ديهم
المستع
للجمعية
col
##ئام
وأحكام
##نتج
##ترجم
واجبـات
Ps
وسبل
الصَّ
ضمنيةً
الأعض
##ضافات
##فلت
يزداد
تود
برأس
المرشد
لاعت
يديك
ترشيح
المنتشرة
بالمل
الشقيق
اليمنى
الأمية
ومناسبات
الإعدام
وتشجيع
الصعوبات
RSS
تمل
سلوفينيا
العاجل
الصال
##َدَّ
إداري
الأرجنتيني
SK
##ــار
##ينها
##te
لجماعة
فوزي
والإح
هموم
المعجنات
لمنتدى
والمساعدة
نقدية
##مشاهدة
##مادات
المؤرخ
كارل
اماكن
##انيون
الشديدة
الجزائريين
استمتع
زهير
غوغل
إنجلترا
الإنفاق
يحافظ
##oma
المولى
مشغ
واما
المشتركين
ندعو
إِذ
شح
وخواطر
##واجدة
##ميري
##aster
الصالحة
تدرك
##كوف
##وامر
1948
المضحكة
والنس
تصويت
تعالي
العسكريين
والاجهزة
تشري
الفئران
الفاتيكان
الهولندي
العلاجات
بدءاً
108
نيكول
وهواتف
انتظر
وصحبه
المواصلات
الأثرية
التحشيش
والسياسة
كاديلاك
DVD
##cadem
الحوت
عرضت
والسلطة
##ونهم
تصدق
لجامعة
الواف
نشرته
##وعاً
وقالوا
##ْدُ
الوالدين
المصنعة
##قطت
سامح
الإرادة
أئمة
##وهاب
وفيديو
##ومني
محتر
وحزب
بكون
قدرها
ايسوزو
##ريـ
مصالحة
صلب
مزا
سفن
والصين
dmc
حكمة
بورش
اسود
lb
اتهامات
عودته
البريدية
مفرو
الوطنى
للسلطة
الهيكل
##برين
##ونالد
راتب
عمد
الرزاق
للمسلمين
بإس
##أب
ضده
الجناح
كيلومتر
يتصل
حملت
علق
118
نظير
الحساسة
سوي
##وسا
660
بمثل
اوف
الاجت
مدينتي
يصدق
##eta
##بايا
طبقات
مسمى
حَت
وممثل
تسمع
معقولة
فلاتر
لمباراة
معمر
أقس
والألغاز
للخط
##خالد
كامله
ولله
مطور
ممد
الزمني
هر
الأولاد
منفذ
##ماة
حكيم
إعمار
##ider
##واهد
الخيري
السليمة
الكره
يهودي
المجوهرات
ينب
يبعث
أجيال
##ياتك
محو
##كاثر
الألفاظ
##نترنيت
المعمول
هالة
انتقلت
السائد
##بعة
للموبايل
نل
نمر
##فاج
أجمعين
102
عملهم
نذكر
العملاقة
تلتزم
النقب
أخيراً
##رائه
##َعُ
بروتون
my
الإستراتيجية
الاشياء
الإرشاد
الترجي
ارخص
NE
ناقش
##أدوية
شير
اللاتينية
##ise
##وطنين
أسهل
وَج
sport
الخصم
##فوكس
رقص
تاريخها
واليمن
افخم
فلاديمير
الــعـــامــة
فرك
التوافق
الاتحادي
القرم
والارشاد
وتؤكد
تغذيات
يضيف
لقوله
بالمحافظة
iOS
##جدية
الاجتماعات
سكودا
وجم
الاسد
وصلنا
وحضر
بروح
##حقوق
##َّا
المرفق
وَت
##ياتية
والهي
السند
نبينا
سال
فاذا
الحائط
الاطباق
الفيفا
اربعة
##IX
يور
##Station
##واجية
كنز
الخار
الموجات
بلادهم
##ابيح
براف
##عضوية
##amily
فادي
##ْص
سلط
زح
المشاغب
الانجليز
التهديد
الصلاحية
##ital
فرانسيسكو
##يراتي
تتقدم
##آع
اقامة
المفروض
##تيكو
الون
الكتلة
الأعوام
طري
##230
H2
والجم
أثارت
##orr
لحساب
خليج
بالعودة
بايت
أيد
الراقية
منظور
Home
سحق
##ــان
##ماعيلي
##73
ينفذ
العائد
المطروحة
ومعه
انتشرت
##intendo
المونتاج
سعة
##وديو
الضحية
وأبرز
الـق
والرياضية
بكثرة
ليلاً
كمن
##جواب
عربيه
وأفاد
##رافات
الوارد
الإدارات
حيز
لايمكن
الصلح
الـمـس
ودورها
وأنتم
دايهاتسو
يونيون
ينطبق
والاتصال
توليد
##هاية
ورك
الاجابة
للإن
سداد
الكاف
المشهورة
عــ
##صصْ
##ضيوف
حديثا
تقود
علی
المربع
تتوقع
##يرمو
يخوض
ويعت
##01
##كنج
الاختراق
مبكرة
##we
الطبقات
##عاث
خلاصة
##ريمه
حط
Max
مناصب
الأسير
الأمامية
الدعوات
القطيف
انواعها
خمسين
google
##بعه
104
والقوى
توصلت
720
مرغوبة
بمص
نهائياً
one
الكفار
##urn
بالجبيل
الاحتجاجات
يُن
##سيكو
##ora
##رشي
استخدمت
إحساس
Lin
##راص
دولارات
اليقين
وإس
4K
مخلفات
للجامعة
رئيساً
والموضة
مهنية
##اليين
الالبومات
##مداد
##ْرَ
لقوى
الصايغ
وبحث
##يسا
مودي
و20
نفذت
##نوع
الستائر
وحواء
##ثيرا
وخرج
وضعية
##َّع
بيض
##600
ويضيف
##اقبة
الفط
تلفزيونية
وحجم
##باحية
كلب
كبيره
تعليمي
رجلاً
تكنولوج
جبيل
##VA
##زلاق
الاتهامات
القصوى
تبييض
##براهيم
##لقاء
##قاض
مسجلة
حاي
اسمك
##ِّب
##داس
##يكات
المستحيل
والأنشطة
الحاصل
سكانها
1435
##ـدي
بالعم
أحدا
مريحة
فَأ
غرق
##inema
وجنوب
ادارية
والإدارة
يكمن
##ربى
##ربوية
ويعود
جرام
ومقالات
جات
حوبي
الإسماعيلية
ملوك
إلّا
وسائط
الصادرات
تعزز
اذن
تلت
المحاور
ايها
عاتق
والطلاب
وتقارير
لأمراض
ترتفع
بإلغاء
والضحك
##قرب
وتقنية
أروع
راسل
بالكلية
والوظائف
تنف
##لوا
السلطنة
واعمال
والرأي
مراقب
B4
حوبيكا
مواف
الخصائص
يخلق
والتابعين
شاي
المشاع
للعملاء
حمي
##ject
والماء
قَ
بمساحة
##شارع
الأسفل
لقطاع
##aq
استع
OS
##artment
تعدد
##قوس
أمراً
رُ
##NA
ثلث
اﻷ
بالي
##ْرُ
عصابة
اسرع
gmail
وطالبات
مشارك
download
المدفوعة
##سلسلة
##وازي
تمد
##ولاتة
ستاركوم
روحي
ديمقراطية
الطبى
وقوانين
قســـــم
وابت
##جرات
الجفاف
بكت
فراغ
فرسان
##َلَّ
##يروين
##فينيتي
Sec
الانيجما
والتقدير
تفاعل
اخصائي
دينه
##كرام
عصب
والخلفيات
بفارق
القصير
##ارسال
##حاكم
البوليس
فوت
لعملائ
السهم
##رضا
Phone
بكالوريوس
أشعة
الـن
سعي
المكي
طاعة
نوفو
عاصفة
##وعين
الناخبين
##nder
الخوار
1973
مازيراتي
ابنته
الأولمبية
##جميع
الحاض
الاكبر
ويضم
الأخذ
كاظم
الغيب
المفت
وأك
للقطاع
##راثية
بالموقع
ريد
إقبال
Par
نبذة
الترفيهيه
B3
وحيث
##بابية
لعقد
##جهل
##تناع
##حاً
تأمل
##ماطم
وشكر
قيمته
Red
دبلوم
الافريقية
إصدارات
مازالت
ولدت
مسبقا
إنجازات
المحتاجين
1956
PlayStation
وأعلنت
##دنا
مناخ
تحركات
للنظر
القياسية
##ـــــــم
##ضرب
العي
والمو
مضحك
بنادي
بالمجان
##لطة
أيا
السعد
معاهدة
التراثية
النيران
برلمان
موقعه
حدا
الأمهات
وضم
برمجيات
الآلات
طع
العبادات
حش
AT
حصد
بالبن
ومستلزم
بسب
التصحيح
##جنه
نعت
##كّن
بصيغة
العبارات
ديار
شري
##دياد
الحنفي
اغتصاب
فعندما
كمان
طيز
##راسل
الانتماء
والمحاضرات
مختارات
##كنات
ثورات
##وطين
النخيل
نموذ
فكري
Bar
مهندسي
وقفت
وخصوصاً
##ount
##بحرين
فهى
تتجه
صنف
تلم
##وردة
تصفية
جَ
##ــــس
بتحقيق
لتصل
سمعة
Br
ومات
السياسى
للهجرة
أكّد
##يتاج
القتالية
أعمالها
أعت
##بّ
مرجع
شيف
يساعدك
النقابية
الثور
الحدودية
ايت
الجوع
الانقسام
خوض
لخط
يمتد
اروع
النصب
##ديلا
نسخت
المتجر
أحداً
تتسبب
والمراكز
##ائات
الاوضاع
ليا
الآلية
ليج
لدور
التصريحات
لتأمين
والتك
بحل
الشياطين
الموروث
تنتشر
106
الاهلى
العبارة
المخيمات
الأعم
أوبل
للنقل
##ستراد
الوظيفي
##باشر
صاف
ستن
##ملكه
متعة
الإفراج
يتواجد
d8
يكاد
فاح
##ددت
##ونك
استشهد
بنُ
الغاء
السلمية
نفى
ألك
##stem
##ved
ارتكاب
وقلت
##وعب
تنص
##َرَب
وشؤون
Network
##والم
أسفر
مقالة
إيصال
##43
النسيج
يليق
يُس
بمجموعة
##ثنائي
الصغرى
أكشن
صادرات
##راحه
وجدة
##زعة
الباطل
إخبارية
كق
لينكولن
العــام
##وفين
##هتية
##مأن
للكشف
##يرموك
##اربين
0235
مصل
قاضي
##سمي
##وريس
##ccess
درام
والولادة
الإلهية
مدفعي
الرؤيا
##َغ
وأرد
سلبي
##فادي
Qmax
##ناقشات
حفاظ
انعك
الكشفية
يتمثل
الاجواء
بنو
Bu
التـ
متخصصون
شفيق
توحي
Ant
##ِرَ
هامر
##وبى
##نجاح
حكام
للبلاد
فولكسفا
اعتبرت
##جاني
دعمها
السطح
المفاصل
نقلها
sc
المحام
خطف
عمون
ثنائية
القديمه
الانترنيت
اردت
الفرن
إثيوبيا
والتعايش
##جدل
حليب
ترانيم
عميل
ازمة
البغدادي
تحل
التحرش
##فعل
لأنني
عينيه
1433
ثقافي
إياه
وظل
عبير
الامل
##راضية
##يادية
قياسي
يستطيعون
##خلى
عميقة
والرا
للتعرف
كيميائي
مصاب
بهدفين
ترحب
المشهور
##ركبات
تفادي
بلوجر
جمل
لارت
يتهم
Kh
##ccam
##راثيم
ياف
تلوين
مستن
قيود
##AY
سيقوم
والتعليقات
سجون
تباع
والإف
##َنَّ
التنظيمية
##فيضات
بارد
تقتل
##قاة
ومشاريع
الداجنة
مهني
بالمدرسة
متاجر
التهانى
ويجعل
الإحساس
##ـــج
الهوائية
##اخذ
والعناية
لغاية
عاشق
##حيى
لتطبيق
##ugins
##ارتي
استعمل
القطارات
البيئي
مابين
girl
##اعدك
##عالم
الايرانية
الرمز
##منية
##بأ
السويدي
حاييم
الجنائي
جماعي
قـسم
غلاف
حضارة
دموع
تشاد
الفارق
والأنترنت
الزين
بنغازي
##LE
##اصرين
ومرت
والاكسسوارات
قسط
##كيما
الشقة
قرون
لير
حفلة
ماريو
نضال
للاجهزة
##حوم
منصات
الحا
التحرر
النوبة
يدين
بيتش
##جيري
متحدث
قرآ
##ــح
النقابات
وبار
التنفس
##ذهان
الرفيق
بصمات
الرضع
عنف
فيم
قومه
الميدانية
##جماع
مبين
الذنوب
##شتاين
معظمها
المصرف
موقفه
الانتخابي
كرمل
##وراة
world
المحسن
وتوجه
ارتكب
مكانها
أينما
تصاعد
تيمور
##سياً
للوقوف
##كندر
مرق
التميم
القدير
##آإ
لتحويل
الصلي
الحش
لجمع
لأفضل
عبدالفتاح
للمساعدة
قضت
نأمل
##اتباع
out
##رشفة
سمعنا
العـــ
Egypt
الرقص
##داه
الدرك
##ضج
الاسئله
أفعال
##متهم
والعلمانية
res
اكل
بتنظيف
الأهرام
عزيزى
فقام
بشكلٍ
##قاطعة
مازن
بمنت
##هض
الرمادي
الأخت
مطلقا
قالب
##عط
البصل
ملحق
تاتا
vBulletin
##سبت
قــس
مجتمعنا
تحديثات
الاستعلام
اشتباكات
النهج
بهاء
الرملة
يتعلم
ختم
يرو
يَت
الكربون
هدفنا
Stud
##راكم
##ويقية
بأش
##روية
قـــس
خبرات
Med
وتحرير
والتطبيقات
مبني
ومسلم
Ne
##ذاً
زغل
تعال
بقرية
قوام
مجدداً
##inder
فريجيدير
فلاح
تطرق
تعرضه
فيكتور
##آمر
اللحظات
وغال
الفلل
للاستخدام
التسجيلات
والشخصيات
والمنطق
عُمان
أميركيّ
الابحاث
اضف
الإقلاع
إنفينيتي
##قبض
Youtube
قارئ
الراي
يحمي
رسوله
شكلت
وتطويرها
للسفر
##اعده
بانا
كج
##عيدي
الضرورة
مسؤ
تجاوزت
Cent
وكتاب
بتطوير
الشاذ
فيني
يَق
هبة
حبيبي
المبادرات
##فسد
الفرفشة
##لاوي
##ict
يكره
الغابات
المشتريات
جند
وعائلته
##واتيمالا
قدرته
##احبة
##ama
وبالف
المنشور
صوره
دش
انجليزي
##¨°
باتشات
ومستقبل
الطلق
المنصوص
سيلان
البه
##ختفي
##ïз
للحدّ
نفط
##درت
##واحف
##ساهم
النحاس
بالبر
الأعصاب
تراجعت
لصف
تكلم
##ْض
مدرسية
النبطية
##ردون
رأينا
جورد
الممكنة
مليئة
السماوات
دلع
العقول
نقبل
والمساواة
باللغات
تبعد
حمادة
تجهيزات
بولي
##UM
##صون
ميونيخ
المصحف
وصحة
##ERS
والخاص
##طير
تفتيش
مديري
typ
مكاسب
Ind
يظن
سائ
بموضوع
المنصب
سليمة
##خامة
بالسوق
تغييرات
ميوتك
محط
##طالع
فيمن
التشريعي
والقصائد
##شفافية
الإنتخابات
تريده
it
والتجارية
##ووورة
##94
التوصيات
وتعلم
معجنات
الخضار
بسل
##ـــع
##ألعاب
##ria
لوج
##ايكا
المتاجر
ابرز
135
الشجرة
شقه
الثمان
المناضل
ويبلغ
الودية
Abd
##قاقير
Nintendo
مورغان
كثيرون
الزوجيه
##وكيت
العصرية
##ربعين
إرهاب
والهواتف
ايق
هاجر
غروب
ديننا
وَلَا
##سارة
##اهرات
##افلات
بريس
وزوجته
PRO
ووصل
فردي
##نعة
الراج
نقلا
ومواقف
##ذيه
تصادم
مكيفات
##خا
رئ
ناروتو
والافلام
أذكر
##رسنال
شخصين
وإجراء
##ثية
لفض
##وريات
المفهوم
الفجيرة
##eys
لطلبات
للفت
يوش
حـ
##ismet
##قطار
الهواة
بالصورة
الأجسام
أوروبي
تساؤلات
##ــــــر
ذنب
وصلة
للفوتوشوب
منازلهم
والفلك
العصافير
يحذر
صفاء
برد
للقرآن
المتقاعد
الاندماج
##وفاء
تطبي
الحيوي
الكنيست
والال
الملاك
تلقت
والتعامل
##خالفة
مسلمة
والمنظمات
##غوليا
مؤلفات
أَس
##bo
ديوانية
##يلا
عملات
والمعلمات
متعلقة
المهرجانات
##قمشة
مودرن
##قطعة
##ونَ
##داعات
##النا
التشخيص
الاداريه
الوها
الجزئي
النقاب
##ويري
سرد
بثلاثة
هائل
##ّرة
والبعض
موجز
##ومب
الجدي
##ساندة
وإقامة
مجموعه
لإزالة
ثقب
تعاقد
سلمة
ليبيريا
الأرثوذكسية
1438
##هاً
النجاة
188
لأبي
الهاشمية
عاشور
المشاركون
المحفظة
لتشغيل
الهضم
يتج
لائق
##زلات
فولكسفاغن
الأحرار
بالاسكندرية
ايقاف
خلفه
لطالما
مزاج
توما
زيارات
يحتمل
الرفيع
والقمر
ماركة
لمواقع
بناءً
السات
##me
التركيب
سافر
##ْز
والأج
و4
شهاد
القسط
شهاب
سبوتنيك
الوساطة
البكالوريوس
خم
علمه
Car
##موذج
مقار
انتي
تكاد
والكت
اختفاء
حيوية
##آح
Dreambox®
ولكننا
##UT
نر
والاهداءات
العنصر
شـ
##ِّي
220
الفاكهة
ومدينة
العرف
##تماع
الهاشمي
أزرق
تيسير
المعدل
ومطبخ
لنادي
##كوت
المذكرات
والأجنبية
لأداء
الغزل
يلجأ
شيئًا
داي
لقضاء
الأغلبية
##عتهم
عقبة
نصيحة
وتقع
سائل
التهديدات
مخلص
والاقتصادي
تعتزم
##رتنا
استاذ
الصلاحيات
بشراء
##فئة
العمرة
المتشددين
برصاص
##لاش
اندلاع
يسب
جامعية
والحق
القائمين
وتشير
##ealth
الأعداء
جوزيف
تفاج
iPad
##عبئة
والمحلية
بلوم
الاطلاق
تخالف
Blu
بنهاية
حادة
MC
الفروقات
والكليبات
يفض
##جيك
يلتزم
الأساليب
أميركية
##يوط
ولف
اتخذت
لوحد
##قرية
ترأس
work
الواقعية
غنية
الجبيل
بالحياة
والقانونية
بولس
القومى
عيار
##رارة
ارج
حجاب
وكلما
##قاص
رجالية
##صاد
بالأع
يَس
للآخرين
ابنها
المنتديـــات
##ؤلؤة
فوضى
##حيم
غنى
صال
Ge
المشروعة
##ران
##يبه
والشرق
المنتجة
ذهبية
وسلّم
مخروط
##ليانس
سى
لوتس
بورتو
##ongs
##يزة
وطننا
الاسطوانات
وسير
السموم
##طلوب
زكي
متسا
لتشجيع
للجسم
شعرك
افتح
##oll
للاندرويد
##نيش
##كانيات
وَب
##كاغو
والجرافيك
الائتلاف
أَم
إنست
البطار
ترجع
رأيه
زيف
السيئ
بافضل
يفوق
ومز
افراح
مفردات
لسنا
داعيا
براك
جداول
اللواتي
الاخوان
انطلاقا
الروا
المحب
أنظر
البلوتوث
للتعبير
أوبك
ينفي
سادس
##عيشية
##ذكاء
Power
##Box
اللودرات
الامطار
##تز
##ستراليا
النطق
text
بمقت
الربو
##تيبات
والاهتمام
الأقباط
##ouse
الإجتماع
##ماض
الانتقالية
الجعفري
المباحث
اعدادي
لكني
##ليفه
تضمنت
أحس
##داها
لسبب
أرجاء
إنذار
ولكي
الدورية
الصدرية
Sat
الالتها
تناقش
أَخ
صَ
##غذية
خرق
قاطع
حولك
##صوات
##باغ
الصفراء
فيهما
##كاو
كهربائي
للحديث
جراحية
تورط
##تموند
الفصول
الريوكان
الأقمار
##oom
##جبت
بكري
جت
طيار
ياسمين
##ضيري
وردة
تقريب
داء
Akismet
الأحدث
##اتيل
تجاهل
لتصميم
والآخرة
يبق
الاولي
إقتصاد
تقدّم
الجوده
سكراب
بتناول
والوطن
نيوت
الـعـام
وشروط
خُ
الأمس
نهائيات
الإذ
الممر
##حتاجين
كلفين
الأه
##موش
العَ
content
##rag
الاحتفاظ
فضلًا
المهتمين
والتصوير
##بريس
وارد
ومط
نصار
الحدي
وكشفت
##eer
بمكان
للعبة
εïз
للاب
الفعالة
العرق
بصحة
الاخضر
سيراليون
الماروني
تركمان
لفائدة
تأثر
القنيطرة
الأنصار
مساجد
الخليط
البعيدة
العف
رحيم
##RONG
فنانين
حبه
المحطات
بالتزامن
يطالبون
##ْلُ
ريش
المعسكر
بإدارة
يُق
استعدادا
حث
اهتمامات
1984
الصبح
أجرى
##ضول
يجر
رين
المناظر
للمنتجات
الايم
هدفا
أساسا
المخد
العاشق
والمال
هواوي
الموص
أصلا
الهائل
استخدامات
##محمود
وزاد
والشؤون
وأحد
##ؤوس
Cam
المواليد
أمهات
الضارة
الفعلي
لإنقاذ
1500
أنهما
كليميم
##ريها
التوراة
نسأل
طبعاً
قميص
الكريمات
##ضطر
لمراقبة
Java
الميزة
جهن
بالرباط
اعمل
القحطاني
وحرص
نشأت
##كاذيب
وتغيير
بست
قتيل
طالبة
العـ
وحرية
ودورات
كند
وحصل
حاليًا
واث
فماذا
الضمير
يتناسب
والنظام
Mon
استن
ينتقل
عباده
لورنس
بتطبيق
والاص
ليال
الوقائع
tv
جمالك
الضعيفة
والقواعد
ستاربورت
الجاهلية
وبالإ
الميناء
الكمية
تبليغ
جعلها
نغ
##سَ
##هيلات
ازداد
البنى
مفتوحه
للملابس
والجيش
نفحات
##ِهِمْ
استبعاد
بسط
وقوات
العار
والمعادن
صينية
لغز
تضاف
سمر
وجهت
##احن
واسر
ميكرو
برهتية
زن
##جدة
وتشت
وحلولها
الاعراض
صفحته
ميركوري
جسده
صاب
الخلفاء
حقوقهم
قادم
لاغ
استفتاء
##صيحة
ينف
الغوطة
##ضحت
لامبورغ
##آكل
المعروضة
أعوذ
##ِيِّ
ذكرنا
أسل
عقائد
التغييرات
offers
يبيع
##own
كوالالمبور
##RS
يبذل
اللاذقية
الخمر
بكين
وعق
علبة
الحمامات
بعقد
احمر
##ates
لإيجاد
طعن
النقض
##عمير
لتلبية
الأعراف
الأشراف
القنا
##ards
لامبورغيني
لأح
بحلب
بنوك
بطرح
إشهار
الطراز
وزيرا
##َلِكَ
المنتخبات
كتائب
أدوار
المبدعين
##رجس
والوا
وبحضور
Design
حارة
يربط
أديب
وقوف
##سلندا
##قاوم
##اسه
الاستثنائية
##فيك
قناديل
الـس
##عمارية
It
المتحدثة
المونديال
المحليين
أتم
والتخطيط
##ane
الحسينية
لافتة
معتبرا
الجهل
الخضروات
##تن
##القر
مشيرًا
##ونروا
لحفظ
تتناسب
سلمى
حفص
الحلال
الناجحة
الخزانة
هدي
المتبادلة
ابني
السلكية
المجاهدين
تال
الوريد
تصميمات
برن
الذروة
##امس
##مدادات
أجنبي
مفتي
محدث
استون
مقدي
للإدارة
جهل
والست
حية
بالقدس
كلفينيتور
##ثان
مكعب
والعملات
واك
ناسفة
نصل
والدها
##ستو
أنثى
ودود
تكييفات
إعلامي
تصعيد
##َاتِ
اللقاح
1981
تنجح
اللد
مراسلة
الثقافات
وتعرض
صوته
##فاهم
الصحاح
لاَ
للمخ
##قتراح
الأرضي
ملاعب
انتم
أفق
##جداد
اصدق
المنطقه
##IV
والاستشارات
بأنواعها
اللاسلكية
لفر
##َين
هدوء
البيتزا
function
هيثم
##وجية
ميليشيات
الفهر
بحياة
شَيْ
اللع
والأسماك
لطلبة
ولكم
##ِيث
##وبن
شور
للتأ
النجار
والعربي
والأحداث
More
##arm
دريان
##راجم
مبادرات
معز
الفاش
عهده
##ence
IX
نَ
ذاتي
يعتقدون
المعاناة
المنصر
عضواً
جيف
فالإ
الإجراء
روش
الحفر
تمس
الأحساء
##كته
رامات
##ta
والكهرباء
الورود
عَم
باند
##aly
ميركل
قاسية
بوربوينت
##بؤ
##قيها
وإسرائيل
بوق
تبد
للمدينة
والمستقبل
إز
المبدع
وثائقية
الصراصير
الوحشي
تنتمي
##توبات
إعلانية
لتناول
الاحتياطي
جاب
الرمضانيه
خشب
لسل
##الخ
##كنه
سنن
لقانون
وسأ
طاح
##الغة
لتجنب
روبرت
الباقي
ملاحظ
واضحا
الريم
ديون
الوالد
الحكاية
لتغطية
اليرموك
التدري
الحوثيون
نسي
يبحثون
البوت
السائدة
أفر
عشية
أمد
ويضع
##جاهل
الاستئناف
سَ
##خرين
والصورة
ننشر
الفروع
والقرى
##قيقا
تأثيرات
والتحديات
صانع
##عانة
##ـــور
##طونيو
المتعل
الترشح
اللاصقة
##lies
السجناء
Eur
بالطريقة
معتقل
لشعب
##شري
مجمل
واختيار
##ليمان
مرجعية
ليتوانيا
التدريبات
خيراً
مستحضرات
دفن
بالنفس
اجنبى
حيوان
يخاف
ثوب
والاعمال
##بج
احتجاجا
الكترونيات
##ميمة
المبدأ
##يبال
لقناة
أمثلة
##وبكر
يغطي
التحية
##ـمـ
المكل
دمن
لهواة
##المملكة
حشد
يبين
كنب
وأصيب
up
الصحى
ورسائل
زيارت
##ِيك
المرجح
اشار
يولي
Sony
جريت
بالبخار
للصناعات
##رضاء
الإضاءة
أوز
فرحة
للطباعة
تصلح
التعريفي
مشابهة
والنجاح
الهضمي
خواتم
##اندا
سياد
والعين
امور
غالي
الجها
##الاي
المقطع
شمر
المحرم
تفاسير
ستس
KG
تحافظ
بأننا
Software
الأعلام
تنتهك
المخلص
استشار
الظن
وحديث
##ايد
##ظي
##نفال
مشر
محضر
جغرافيا
دوس
شموئيل
الطور
ايلي
والالتزام
مسودة
أجاب
##اغوار
الدقهلية
استغ
##غتربين
##حدر
ألون
وبالرغم
المفتاح
##ــض
الطرح
والفك
العطلات
كُن
##زالت
##بتون
المنص
نظارة
العروسة
تقليص
منغوليا
##كتريك
وقائع
الإنتاجية
التجريبية
WWE
امتدت
##ike
ED
اللم
الالكترونيه
مخاط
##رائها
ممثلا
التصفيات
نؤكد
الذئاب
النشرة
مئ
##تية
##ــوار
##رتهم
المفروشات
##rench
ناح
مقديشو
##ضباط
ومث
الغيار
لرئاسة
والمناطق
سيرين
نطالب
##ness
خلاص
##بيدي
منحة
##alm
التوسع
جونز
والعلماء
وذوي
السرقة
##وليم
تطويرها
الربحية
II
فمع
بيني
مغامرة
بدفع
الكتابية
واستمر
الأصيل
الانسي
##غه
وعا
اصل
واسم
والجنس
##لاديش
التجسس
web
الانش
المسلحين
الفارس
مميزه
Or
للتج
الخان
مشاع
##جوهرات
يسعدنا
اللوحية
والدته
مقترح
الفاعل
مجر
نتاج
##oz
##ahoo
أبها
sms
والطاقة
للشرطة
هدفه
##صيم
الَّذِي
مخيمات
مطلقة
أولية
يُعد
تلقائيا
المتحدةت
بإعلان
الفيصل
فاعليات
##يزان
##ution
السواحل
الانتخاب
وُ
والحب
##ْدِ
وذات
الأيمن
احتراف
قتله
شريطة
Bad
نفهم
##حيق
CD
بسام
استعرض
أعمارهم
##توحيد
وسوء
الطرب
القرّاء
واتخاذ
##apt
يروي
للدراسة
برغم
يولد
##ّلت
##أيت
شنط
وذهب
اكي
الحسنة
طويلاً
لمختلف
والبا
عايز
الكرا
مطبوعة
الشري
##كرانيا
قبض
مود
##ألوف
##ارعين
##اريس
الأمريكيين
التلق
##مامات
قرص
الصراعات
##دمت
لشع
قبالة
موسعة
لمحافظة
##سامي
ماريا
بدخول
##قاتها
والروح
يتلقى
شاع
##lim
اسعد
ووك
##سله
##لعبة
بإشراف
الشاط
te
المناقشات
ولكني
أنّها
جمهوري
ومغ
المبالغ
##امش
والجيزة
عبدالكريم
ويظهر
شواطئ
وأهداف
تعهد
مضيفة
##دوات
والآداب
إير
بالكثير
بغدادي
##روجين
ماح
وآراء
بريليانس
أسترالياب
Sw
وتبين
البسيط
##TS
وري
هارد
للرقم
للشراء
##سمت
وتحمل
##قصات
كانَ
مسلحة
يقطع
الشات
الصحفى
صافي
المحاولات
##ools
التالى
##ـيـع
الاتجاهات
الأكس
المنصور
العاملي
عرفة
الادعاء
مفصل
توجيهات
ركوب
ترتيل
GR
##ركس
الحفظ
أحذية
فهمي
##َهَا
يمثلون
المتوفى
مؤخر
الهيوماكس
غموض
انتح
التصنيع
كرامة
التصريح
##ْتِ
رعا
غرد
قداسة
مكه
مـادة
ur
##ْدَ
##ّته
الجلالة
المتحدةني
طرحت
##هون
المداف
لينا
##رته
الابتكار
##وظفي
##etter
صدقة
الميليشيات
ياز
منظم
كويتية
تحرص
##arket
Dr
الغي
والرسم
كوربا
ومشاهير
حصار
الثوم
والحقيقة
Priv
حجمها
وقنوات
البكتيريا
##مئن
تند
أمريك
##عتنا
والزراعة
##شآت
طالبت
البقاع
مسببات
اداء
تغلب
موحد
ملء
##uss
##86
##press
##ـيـات
طلع
واجهت
الأدوار
مسبوقة
أرسلت
اثنان
نهضة
##سندر
حجب
الجغرافي
اتح
##َيْنِ
##خلط
للمحافظة
الهجري
للفوز
المتحدةس
##ديرة
##ولاد
تهديدات
##aD
##فيت
##موا
متفرقات
الخرس
يتحرك
##ردين
طوارئ
بعلم
المعلوم
place
##صفية
الوراثي
مجاري
##ميوم
كاملاً
##بيون
التغير
##يرها
##طاليا
##كاسل
المقبلات
الترخيص
هاكات
##وران
##لز
هندوراس
المعاملة
لتأسيس
صديقي
الإصلاحات
العاصمه
السخنة
Mac
¤¦¦
الشرط
جوا
مناظر
##شوف
وتدمير
Friendlies
المركبة
كيري
المسرحي
إلع
¦¦¤
##اراتها
##غرل
توقفت
##ْهُ
البركة
عملك
##att
تارة
##يتون
استقباله
##ert
##كدونالد
الأنجليزية
العمرانية
##اسِ
ناعمة
وفدا
وأخيرا
عيوش
محتاج
ميم
##زمية
صورا
الانجيل
والإس
توقعه
تيك
##عوبة
أنطوان
##وابق
للزوار
أسفرت
البارد
الوالي
عديد
ادوية
بدراسة
ومشاركة
و2
##وسيه
التغطية
##أنف
116
3000
##ـلـم
فرفشة
after
##داخلية
لجذب
app
والثلاثون
ثالثا
ثانياً
##كومات
المدعي
الكوفة
وجز
مجدال
دانيال
تستفيد
سمك
شقي
لبكالوريا
بوينت
تخر
البوا
##ضاعف
المتطرفة
##ِلَ
سببا
ايجابية
استئ
تنال
##رائع
##اير
مؤثرة
قروض
بوغات
وكثير
##راقة
الجاف
##اراً
والسيد
##باسيل
تغطيات
الظواهر
مختصر
##هيد
اصول
##هوت
تثقيف
فذلك
ملتزمة
##الغين
يميل
الفردي
##درك
تسببت
دراسته
لمادة
##بيروت
يحسن
فلقد
وشباب
السبا
مادي
لابتوبات
مهتم
التأهيل
##سيحية
##AND
ميدي
إفت
عــــ
الاطراف
حاش
قاط
والقيام
موحدة
قبلها
##rah
سجاد
الجرحى
القيادية
ذكي
المدربين
الكيميائي
البلجي
##براني
##ئته
خادمات
والصحه
الهجال
اليمنيين
ماله
للشاعر
مثالي
نزع
الكأس
ووج
إطلالة
##أته
مشعل
بضم
والزي
للخطر
نمت
رساله
تعريب
العطر
شاحنات
وأخيراً
##ْلَ
نقط
والوصول
الزيوت
معمل
والحلويات
المرمى
شهدتها
وتستمر
بركان
مستح
filter
الكوميديا
تقتصر
والاستفادة
مسنجر
والخمس
للأح
الأسلامي
ثُمَّ
إهمال
بسلام
المزودة
var
مخازن
وبالفعل
الجسر
##ثه
لقيادة
امتلك
وكلاء
كتابي
مسؤولي
1978
الجنسين
حدثني
لهن
الانباء
بعمليات
بيتي
والتنسيق
شهرا
twitter
وني
##وفيتش
والموس
خلدون
العاهل
الفائز
محمية
القرءان
عرقلة
يترتب
موجه
##زور
والكن
سلاسل
وإضافة
للنادي
العضوات
##كْ
التكنلوجيا
##ساقط
##ِيب
أوقف
بيبي
##ينى
فنزويلا
الموه
النم
##199
يرأس
##جيتال
قطب
المشتبه
Nov
ser
الموث
##وافل
رمزي
مخز
طائلة
##عاً
موتور
البادجي
أنجز
غار
ومعا
يخط
##الفات
لطف
مؤتمرات
##ؤثر
Other
والدعوة
الأنظار
والتقنيات
الكرسي
التايجر
وغياب
أدري
المقاولات
كواليس
الأخلاقية
موص
##قراط
المواجهات
الزبائن
العمود
لإد
استدعاء
لافتاً
للتخ
##ريكية
المصرفي
أندونيسيا
الخيول
الفرس
##جلد
المخططات
الكيماوية
الواجهات
تبرز
يعل
القرا
بيش
الكي
شيمن
##غالية
والزوار
انتباه
مسك
شعبه
الرزق
##ract
##ايات
##ردقة
أبن
ورجل
رايتس
والدة
الدولتين
لايت
العقرب
1985
ونتيجة
لاتخاذ
والسياسي
فضفضة
للأندية
معادلة
ديو
والمشاهير
غزيرة
بلق
الإناث
الالكترونى
الثواب
حجاج
البيرة
١٤
##حيف
بيئية
تُع
كبر
بأنك
كرانة
كوميدي
البرلماني
اللَّهَ
المجرمين
يوضع
الأقدام
الحدودي
##طلعات
للسعودية
##زلية
الظالمين
##جاة
##غارت
الانفجار
حلوان
الكاثوليكية
فرنسيس
جوست
##انياً
برين
للعاملين
الخلاص
عطل
##رادو
ويبقى
##ميق
يغادر
عموماً
تجريبية
يحرم
الانكليزية
وضعف
المحركات
لمؤسسة
الشعلة
الإسرائيليين
##ريبه
112
##ائبة
وتأمين
مايت
ملاب
الإسم
الكوره
الغبيري
متمن
المدينه
SH
##طغرل
الشاعرة
الادوية
##نائه
##وباترا
الاكل
بحوالي
الشهية
المساحات
اراضى
وتأهيل
واعادة
الإنجاز
محس
107
##ubl
عائلات
وإعداد
مكلارين
##هيبة
date
تخصصات
##خطاء
الجبر
Cop
##َّاء
المـن
جسمك
الكلاسيكية
شومرون
##دلعت
##لتا
##طلعت
##هين
##صريحات
French
##طبع
##ــــاء
عبدالوهاب
ذهاب
ابْن
يرحب
عملاق
align
الولاء
##du
وأمام
##زايدة
بقضية
عدل
الوسيلة
باناسات
الأذان
##واكبة
ومنطقة
بقصف
مــنــتــدى
الخرائط
تمهيدا
أرضه
عايش
تاجر
الكاتبة
للصحة
قاموس
تفاقم
##َدُ
وفك
دبل
لينكس
المجاز
إنترنت
6605
مرئية
##app
للحركة
الثلج
جاغوار
الإرت
غمر
والوطنية
الساق
تركمانستان
فورت
الانتشار
شرقية
الفراعنة
فيكم
وسع
ابحاث
210
الكابتن
صَلَّى
مشمار
تهمك
همسة
يبد
حقائب
فأجاب
##برام
##ثرية
ملتقي
الكيل
التليفون
عكار
استعاد
تضامن
CS
الأذن
دورته
بمديرية
##irst
1960
فواز
##فيس
فضائح
كووورة
أوغلو
طلبنا
دبلوماسي
##oss
يحول
أخضر
والمذاهب
طالبان
نموذجا
براءة
##لاءات
رویس
لمسة
هيد
فائق
المشركين
كلاب
الإي
السجل
الغنم
الموقوف
بدار
فاعل
##صريين
البذور
غذاء
يقين
وأخرج
بقول
الموق
الخاض
##ئبة
منزلها
HP
مسيرات
طابعة
نحب
##وجا
بالمت
##هدفة
والجرافكس
إيطالياب
ماسك
Me
الترانيم
لمجرد
لأني
عملنا
مشهور
لتب
والنقاشات
اتفاقيات
المبذ
تناولها
عارض
##قيبة
يعين
##بيهات
وَسَل
لكلا
مقاتل
إعدادات
ورؤساء
ويصبح
##ــــدى
جامايكا
لبطولة
تصب
WEB
##oud
##ـــح
الشا
القرشي
##لله
وصيانه
مستعم
المستثمر
يحوي
شئت
الـــــ
مرتضى
يتردد
تحكيم
##ange
القرآني
المتطرف
والرد
185
ومرح
الداخلة
##oker
لعملاء
للتسليم
القائل
##ِّف
وَإ
جدير
##غون
والترددات
##الر
تراب
شَ
##طارق
اقرب
##غنية
##يزو
##onia
STRONG
إضافي
تمزق
للدي
تفصيل
بأهمية
والمدن
المعتقل
Amer
المدافع
الملتيميديا
##يسيا
الصهاينة
الدينيه
يرافقه
الهزيمة
##ابايت
رسومات
الكائن
الأدعية
الرموش
تعلمون
تعميم
##دلة
المنوعه
وصنا
بلوتوث
أدر
نعتبر
ويحتوي
الكلاسيكي
العجوز
سانغ
الإقتصادي
الرامية
الوقف
الاسرية
الترق
اعتقاد
ضيفه
القبة
النفوذ
لرؤية
ترف
الميزات
##اهن
المتواصل
متابعات
وروى
واكسسوارات
##ائدي
التفاهم
المائي
والقن
يعالج
منطلق
فاخرة
تقصف
Plugins
الشراري
فرجه
طالت
متعب
بكتابة
رفقة
الأدباء
فتو
متوقع
اكاديمية
قنديل
##ظارات
ولح
##بتين
##ories
1432
والعاملين
##ثيمين
القَ
يتجه
مترو
##خبر
ونز
مكتوم
الأجل
##NO
قوق
##فارقة
بريك
##ويرة
##انتا
مغرية
كيد
والقيم
للمطالبة
عقيل
واط
##iger
المولود
##urity
الفردوس
وانترنت
تتواجد
اليكتريك
المدرجة
أضيف
ونفس
البومات
بوغاتي
المشر
ويعرف
تدعى
بنود
الأسلام
المزارع
الجفون
بعضنا
للرجل
##ft
يسي
##اندية
الموازي
نترك
ألس
##ara
##ّال
حدّث
Sro
الاكتئاب
المساس
المحروقات
الفري
آلآ
Read
هجرة
##وتنا
Women
##enger
والمقاومة
##ـــــي
iphone
##ساهمة
لأبناء
الشفافية
بمستشفى
علشان
الورشة
الحلوة
##قادة
الجوهر
تاجرات
المتقدمين
تأكل
Xbox
##ورط
##ـالـم
متسبيه
والثالث
وبينما
الدرام
فوتو
درد
البلي
أعمالهم
يزرع
##همت
ابتكار
بقطاع
فارق
السفلي
الاعتقال
وطنه
تنتقل
احتفالية
الادوات
##ثيراً
##خرطوم
ونساء
المقارنة
للفنون
والأحياء
موثوق
خوري
الفس
أشاد
العميقة
الفصح
##فليقة
Dep
##كترونيات
وتصدر
الـتـ
خلافات
##ِوَ
##عظ
الرص
##لائي
نتوقع
الحراري
منفصل
Sch
3ع
نينوى
ثياب
يورك
##ref
##rid
##طعن
Cat
BE
بكتاب
##uk
والفساد
الأوّل
بإط
ساس
والعنف
فعليك
##أجر
الودي
بكروت
شعري
##جيرات
مواجه
والسودان
مواسم
الغزو
##فتي
##RI
والتسجيل
الخاتم
تواجهها
التميمي
وقواعد
الأقاليم
ستوديو
والرف
والنقد
تربي
خوفا
##رائح
يدعي
League
##87
الانمى
سبلة
##ep
تحشيش
وانخفاض
ميثاق
متخصصين
##inic
##أييد
تحيط
روتانا
بالصلاة
مزود
لاصقة
نعرض
اكتساب
الكوكب
##وانه
الحوض
الصلوات
معاش
الأيدي
مكافأة
حرس
##ماهير
المسموعة
المحاولة
مصطلحات
##وازن
اتس
##وقراطية
برفكس
FC
سريلانكا
التأسيس
لصيانة
يحيط
لقرار
لبرامج
الاستهلاك
يترأس
ومواضيع
والابداع
برجك
##َعَل
المزرعة
والمناهج
والقد
أقامت
##براً
الفيتامينات
الأطر
أقدام
آمين
الأوامر
##هاض
all
لخوض
خبز
حزم
بالكل
تدمر
##باخ
والأردن
واحده
والادب
خشية
فايرفوكس
##نجبيل
الوصل
بتكلفة
المتواجدة
الدهنية
أسبوعية
قدرتها
معان
وشهد
جاي
مسبوق
للطلبة
الآمنة
بَع
وصفها
الاسواق
تقال
المسك
1971
قسد
جارية
انو
بخاخ
التقدمي
بالأمس
معتصم
تذكرة
البات
والأفلام
التقيد
طبعة
يستغل
عجيب
##afa
صوري
شرايين
اناقة
##ضييق
بمقدم
الحرير
للمهندسين
##itor
##ّام
ˆ°
##روان
بالعربي
لزوار
الجيتاج
##ُرْ
##خري
##توتغارت
بصمة
تراف
##yg
##over
القليوبية
##acy
معانات
بنغ
ألمان
Ma
اللوحات
التكنولوجي
الانهيار
وG
##ضعف
كلينتون
المتابعين
che
##tic
بالتفصيل
التأهل
##وارى
جهنم
لرعاية
الوجد
عدمه
ميدانية
الاتهام
Sol
الترابية
الثوار
ويزيد
لأعمال
هليوتيك
التجــ
ناجي
تسريع
فتحى
تير
الرخام
محي
والري
ادخال
وصوله
وقراءة
ووجود
نشطاء
##ثوم
##شارون
كاتبة
##براطور
##وراي
نسبته
##IR
الأتراك
الراجحي
أعاد
للاتصال
والعطور
بتسليم
##كرات
رؤيته
سكني
##بكية
تطبيقها
بطلبات
تهمة
##رصاص
start
تجده
حكمه
نبه
الشبان
والصيد
##بض
لاول
المراجعات
الحضرية
قراراً
المصنف
جغرافية
##هجوم
الفاض
الرفاعي
منفر
حلي
والمدارس
ساوث
##ميلا
يدر
مهرجانات
لتط
كيو
ويحاول
ماسة
مختبر
النقي
##لسطينيين
##حيصا
hot
حدّ
طبريا
البادية
##ويّة
قادرين
الْج
داني
للنفط
أسألك
كالتالي
br
أظن
القادسية
under
بامتياز
##نانة
استراتيجي
Tourism
لاجئ
وإخ
Gl
##اليهات
بادر
العمرية
السلفية
داوود
الحداثة
المطابخ
للخبر
التهرب
Computer
##جموع
##هيلي
الناجمة
##ــــــــــــــــــــــــ
المير
وأحدث
وتظهر
إقناع
site
وقرارات
التقوى
وموقع
وكون
RGB
عملة
الكال
##صاح
بدءا
القطب
المفروضة
خالف
الابتعاد
##اضير
زلزال
##ليان
شفاء
ومشاهدة
Quote
الصخور
والتعبير
إنني
التحديثات
الطائر
لجمعية
استاد
ستيروين
لهيئة
online
Top
##نافسة
تلوث
##عوذ
جانبها
National
واكت
كليوباترا
منظر
للجدل
لفرض
وبريطانيا
ووتش
##باض
والتكنولوج
##´¯
بدمشق
Vo
مقياس
##دونيسي
اكيورا
كلياً
##ّوا
##زغ
والخبر
##صاحيصا
أوزب
سامية
Mal
الرطوبة
##BS
متنا
الحاسبات
##800
يُرجى
الانفصال
##ونين
تجميد
أناس
مولانا
والقدرة
##طباع
والفوتوشوب
##طلة
المكتبه
أصعب
أراض
##فتاءات
اليت
وبنات
اقتراب
لمحاربة
محليات
وفلسطين
رز
الصحافيين
##فقودة
##ولاية
للمؤتمر
الانقاذ
لــ
طوكيو
بأحدث
ونائب
المسئول
وصناعة
الانشطة
إِلَّا
وتيرة
بإدخال
والشروط
##cademy
1ث
بطبيعة
تدابير
مريح
اقيم
وتنزيل
أقبل
##2011
أنابيب
اللذي
مصممة
النمر
المستفيدين
الإكوادور
سيست
الأكراد
وقول
ثلاجة
##حظ
ومختلف
الفراش
عناء
##64
##َرَّ
تغليف
القولون
Mag
وهؤلاء
باق
الأضواء
##ضاها
فتم
والمعارف
الإلكترونيات
##وعد
##نسيا
متطور
النماذج
نَف
وتبلغ
عادةً
##rat
زهران
والحيوانات
ناجح
الائتمان
بانواعها
البطارية
سبر
لخلق
نوفوستي
تحط
الشهور
خَ
جنون
واستمرار
MMS
##لالية
بالتعليم
ولدينا
##ـــان
phot
مثالاً
##سُول
والمحبة
معارف
الخزان
##تمية
الإلهي
لإعلان
وإما
لوجه
متتالية
وبسبب
بروفيسور
تضرب
تشطيبات
النقابي
دافع
##ورصة
الموريتانية
العامين
الكوارث
وجديد
##طران
لولاية
العزم
كبيرًا
إقليمية
5000
التطبيع
للمدارس
مقومات
كرنفال
للموضوع
وشرك
إيلي
##oon
##aDy
المفيد
تتحقق
الكنوز
ترتكز
عزة
information
تقوله
ben
مناسك
اختراع
والهجين
المصريون
بجهاز
وأفادت
الجمركية
العود
بلسان
ايدي
باردة
##لقت
التكييفات
توزير
الارهابية
إيرانية
متق
التلميذ
والفي
إيرادات
الواسع
نانسي
##uz
يلقي
Chr
##وانية
ناسا
خلط
اذهب
يدافع
غزل
طلي
وبرامجه
اعتذار
##شيت
##داق
##وارق
المسلح
الوصفة
بالدولة
ضمنها
والآثار
ميخائيل
الطريفة
لرؤ
الأميركيين
الأذ
بْنُ
صدارة
##كورات
فتاوي
Serv
109
دكتوراه
الهوى
وعاء
تنفيذه
للرياضة
##1710
قــ
وتهدف
عبور
الاي
langu
لكنّ
للمواقع
علياء
الطرائق
افي
##ited
معامل
للكثير
الأوكر
##Finder
الوراثية
وتابعت
الرسمى
##افى
##ائكم
القوائم
يمد
الكولي
وبهذه
المراقبين
معانا
اخطار
165
##عنوان
تسريب
ادى
والمهنية
AP
والآراء
سيارته
عنق
وبالأ
النصارى
يكمل
تنافس
بحفظ
##ظافة
ind
ذالك
الإضافية
للمشروع
يشيد
الإعدادى
اللاب
مسيحي
قتيلا
بحثا
الصفة
الآخرون
يزعم
قنبلة
##رائهم
ولايات
حاص
##فري
##خوة
##كرز
مفوضية
تخيل
##ستخدام
كوني
الغار
المدعو
تنفيذي
وسه
الفتو
النكات
##ستنا
الفارسية
المسافرون
تاف
السامي
##عمرو
رخيصة
##اتور
الخلل
الصب
التفصيل
الدن
id
انتقد
##igma
حاجات
بالعيون
غامبيا
##يطانية
العليم
الحزبية
ساعه
جيرمان
التنازل
حربية
##وصف
السرد
التسل
بعضا
بقع
باستطاع
الناتو
الاكسسوارات
##اوا
1964
يسود
تهيئة
الاستد
##واتها
الوفيات
الطين
للأشتراك
يحملون
يصير
##ًّا
##منا
##غلة
##َنِي
##ستهم
منهن
cinema
الاقس
##view
##ثنى
العلميه
##اذب
يعي
114
##CE
المسئولين
لممارسة
المفكر
قافلة
وشهدت
الحمار
للاطلاع
الفكاهة
نفي
##sc
124
اضطرابات
الروماني
الابتكارات
المثقفين
جنين
للدين
والنشاط
##UV
وظهرت
اللوج
تسديد
##SA
الهروب
الإبل
مقبرة
ضمير
المقه
العمى
والارت
التحق
اصدقاء
وأرسل
##صدى
تات
##UE
Time
لدفع
أهلي
بصراحة
للموسم
اللوز
##عمق
مورين
والصنا
Flash
##نده
وجن
##سلات
##HO
الدوليين
الصبي
##يستيشن
##ونسكو
نتائجها
أدعية
أهلية
وَح
##▬▬▬▬▬▬▬▬▬▬▬▬▬▬▬▬
بقصد
بذور
##وريين
ومصالح
سيناريو
يعط
الخلفي
##سمان
##read
فيمكنك
الحلبي
##َيْهِ
عارضة
وافت
اليدين
رسالته
الحمي
الاحساء
français
مضاعفة
##وائها
ذراع
يدوي
ونشرت
##ّمت
بْنِ
فيجا
##مول
القيود
أجور
وآداب
strong
مـنـتـديـات
والجد
بجمع
##مكانية
مراسم
الكافية
ومنتجات
##آئ
منهجية
##جنيد
متفا
المعادي
##blems
حضرت
اعتقلت
المقامة
##ناوي
التصفح
##ِئ
إيرلندا
نتج
الماضيين
##دري
بجن
مخابرات
نطلب
ومعالجة
المغناط
التردد
ثبات
اليسرى
##ose
مقاوم
نهائية
المكتوب
المطروح
اعتقل
المعربة
##ــــــي
وقانون
المقاتلين
ah
جسدها
مكثفة
للتحالف
إراد
##يرس
الصعود
##ِز
الأورو
الجرح
##ِرُ
رأسهم
سعادته
الأسرار
اَل
وسبق
##وصة
البرق
الوردي
##غبات
ولابد
تعق
وسرعة
فالي
والإتصالات
للإصابة
##ِى
الأجهزه
##ـــــر
مساحتها
عائدات
Photo
والقضايا
قيادي
امريكي
بوتفليقة
الإنجيل
مثلث
المعرفي
آليا
نظره
بستان
الاحتفالات
ببناء
قاعات
الاهداف
لمنتخب
##ei
مطير
القبور
لتعلم
صعدة
العــربي
الأقدم
##فقت
##شيان
انتشر
ثمرة
المجاور
نيبال
المفتي
لكنني
وكبار
فيفا
متنوعه
والحوارات
ووضعه
الحقوقية
##ole
ونظر
الخلابة
المعماري
##خرون
##ــــا
الاتفاقيات
##َرْضِ
حزام
تزام
الرحيل
مرغوب
المعادلة
801710
الجراحية
المحلل
حضرة
الدان
والحوادث
119
##عقارات
##camd
وتسجيل
لقول
##لاحق
فَإِن
اقراص
أوزبكستان
##عق
مُحَم
مبدئية
لافروف
وهب
123
##زاد
Full
ملتقيات
النقدي
وأنك
##َاءِ
المرو
الالتحاق
##lean
##ـلـ
النعمة
##anon
أكان
ودعت
ويترك
الاصدار
التكتل
أَع
اقوال
الجلس
الايميل
بارزة
الغازية
وقيم
##ـــار
أحرز
التورنت
أنماط
الاشعة
للأجهزة
الانقل
ترض
للمقاولات
مُست
حسنى
1431
VB
السبل
الانتفاضة
البان
رابح
##كرت
دوماً
##ومنيوم
right
Leg
Group
وثائقي
##2013
خطيب
بالصحة
وصدق
تحتوى
باحثون
##شرا
للأعمال
وستكون
وسيت
ومهارات
الرواتب
أقراص
الحياتية
الخدمية
Oct
يبعد
وتسويق
الإسراء
وفوائد
ويستخدم
ووحدة
ومستلزماتها
IslamicFinder
##ياغ
الجدوى
7000
للإمام
##اندر
##كالية
معلوم
والواقع
الاصوات
بحب
المحتملة
##يرلند
##ِمَ
المروري
وآثار
ونست
عمه
سرايا
بالاعتماد
خارجيين
ذهن
ورث
دجلة
ائتلاف
##ورن
Linux
الّتي
للهيئة
تَق
##ولان
للذين
معقدة
حليف
##ادو
عمرة
لاستعادة
##شحين
فلوري
النقص
الاباحية
وبص
المغار
ويشير
الحكة
لإيران
تفكيك
التهنئة
لعالم
تورم
القماش
اقترح
تكفي
كوه
ولغ
To
التقاليد
وَإِن
لاستكمال
##لادش
للتسوق
##ِّق
الشمري
النشطة
متقدم
##طفات
الغابة
أولوية
الحكوم
وافلام
عيان
قرطاج
بمقتل
##التهم
لأحكام
##ـــك
صمود
امريك
اللياقة
مصرى
##ونتس
للمل
جرب
مسحوق
المجهر
بدوي
الشبكي
##ارسين
برودكاست
لوكس
التابعين
ذر
##لوك
At
##روها
وَفِي
ومهما
##اون
والمحافظة
أسأل
أوّل
00201
الفريدة
##وكمة
##رخاء
واضحاً
##ضون
##زله
الحسنى
لانطلاق
الآسيوي
المرسم
للميزات
##يروت
Port
فهرس
أبدى
الجرث
فيدي
Real
##خصية
رفضه
الصحراوية
##urs
يحتوى
الزمالة
الفلوجة
##طمئنان
AG
الكاميرات
أطر
مائدة
ادعاء
والكتاب
واكثر
Mont
التعاملات
##aut
الاذ
أسد
وكا
مشاركتها
نسمح
العون
الكردستاني
لساعات
زعماء
الحظر
##ورم
الانتحار
1437
والأفكار
منتخبنا
##urk
وحما
##ولندا
والمواطن
##التح
بدت
يغفر
قـــســم
راقي
ip
وتعرف
المصنوعة
تحض
Songs
بمنع
طموحات
بجهود
ينام
##وبان
أبنائه
cor
##جوا
الدمج
معاملات
هذي
رموش
المنق
155
وصورة
STC
زوجتي
دخوله
إيراني
sex
الفديو
وساعات
المؤمنون
##ْأ
الرهب
المفوض
للاجئين
##شاهدة
لمحمد
اللوني
للبالغين
عيب
Ali
الْب
##تويج
مفارش
افرا
لتك
##اوب
##ضبة
الغداء
##mer
الأوائل
المتبقية
مقبلات
##uring
بالمجلس
##igh
Fring
والرجل
##وُ
تعذيب
القف
##هشة
والتخلص
الاكس
وأوروبا
غرفتين
##ؤولية
##ING
المغلقة
1975
##itis
قدما
العاصفة
##ــــه
تضام
##iata
مايا
يحظى
لتلقي
يمكنني
١٠
حاضر
العشوائية
طرحها
طائفية
1965
للاس
لِي
السماوية
يسهم
مجاز
##اكستان
والغرب
##بيلات
وقسم
كُلِّ
غائم
الوضوء
والفلاش
##تجميل
##ities
##imes
##حوذ
حراك
قســــــــ
والرسل
##arly
الهبوط
والعائلة
مدافع
##اااااااااااااااا
بطانطان
التفوق
للرياض
الأصفر
وملابس
تيري
أراضيها
المحس
اليأس
وفريق
بولونيا
وملف
كرين
الأني
هنري
وشروحاته
##atar
##sch
وتحديدا
والجهات
الكتابات
والإعلان
تجمعات
والمشاركات
والمدينة
الدنمار
البوليساريو
رصدت
والمتابعة
بالنظام
والتعريف
##باش
##هضة
ابوع
الكمبي
أهلنا
استخدامك
مدنيين
##كينا
بأعلى
هشارون
Tag
مقل
انته
متلازمة
شعيب
الظل
والرجال
##وضه
المقاعد
##ــخ
الجسدية
المحترف
لموقعنا
ذوق
##ذكرة
Expedia
وعذب
باذن
##وائط
arabic
بالإسكندرية
admin
النزلاء
سوالف
وبق
شفط
##olink
يدع
شاف
الأسابيع
وتراجع
الفلكية
مراف
ريمون
والهند
تطلع
الينا
احتساب
مقدمتها
تحتل
وأفكار
فاتح
اوبن
جزي
##فك
أوضحت
وجدنا
pres
القادمين
للسيطرة
يعرفها
يهد
تحفيز
لحكومة
السعرات
بالبي
##نتهم
##ـبـ
واهتمام
مايف
المدبل
تحتضن
قدموا
الأمعاء
##رساء
ميف
والفرفشه
المرئي
راضي
تضيف
تطوان
أساسيات
للجمهور
الشاحنات
##قاظ
لهؤلاء
ضوابط
المستب
وبعضها
رصيف
العربيّة
قدّم
##احت
بتحميل
صربيا
الدخان
Sam
فاق
##اتة
الحقائب
الكَ
##قلل
صغي
الضابط
المقبولين
لإنجاز
عِن
pc
العلوية
##ندون
يوقف
بطريق
وللت
وبارك
دولارا
طمرة
وGiata
النبويه
أهلاً
##oint
يجعلك
يحرص
الطل
يتضح
VIP
مصداقية
وتتح
##ids
الاناقة
يقدمه
موريس
BL
بامكان
كائن
تخريج
الممتدة
##توير
الانح
##160
لنس
بالتدخل
##ـــد
كرملش
للمص
القمع
موسي
حجازي
##تقي
##مته
##ابرة
حكومات
أرت
المخلوقات
ببن
احترافية
عصرية
البنزين
##ْخ
تجربتك
يصب
المتغيرات
الجوهري
تحياتي
ويعتقد
##rol
##ating
##تيزون
للمحتاجين
والوز
##نتهي
فِيهِ
خاد
بفض
علّق
##نائها
مصارعة
كجزء
اضطراب
##فسنا
لذيذ
##العين
ID
أولي
خريجي
المحتر
بيير
المتحدةم
متهمين
usb
ضعي
البنود
الصباحية
العريش
عداد
وموضوع
##نتو
هطول
Echolink
الدواجن
وأولاده
وخارجها
##جج
##فالية
بانتظار
الافراح
ورلد
الآتية
مزدوجة
يقترب
##AV
واجتماعية
معًا
ومنظمات
الخادم
بريطانية
##افن
والنفسية
الصدارة
حلمت
وابحاث
كروز
تعط
##ارتكاب
متواصلة
تدوين
باحة
Saudi
##غلف
أعمل
تايج
خزانة
للقوانين
وعرف
المكاف
المبدئي
##osa
##صاً
تفصي
تلتقي
زحمة
قمع
معبد
قدس
##ips
بالإنجليزية
البيولوجي
##اؤل
نسبيا
1972
الإسلاميين
نواعم
##وست
##Max
والدقة
زاك
والتقاليد
##فوا
وراثي
المجموع
أحدكم
العريضة
الـف
450
العُ
المخالفين
##cription
العروبة
##وريد
العبيد
سودانية
الاحيان
ودراسة
الغش
مبينا
الليبيين
ماركات
##فولك
سنوية
وتجارة
##ْش
النموذجية
##uman
##té
مثلي
الرأسمالية
مستم
##همه
العدوى
الضرب
وبيان
شبرا
وامتحانات
الرقمى
التعايش
أدائها
كابيتال
الحصاحيصا
كلثوم
بوسط
الغالية
which
##IZ
أصلاً
حولي
ديلي
العقبات
أجـه
وطرح
##َبُ
جرحى
والخض
##َلِ
سفاري
فقرة
##غيث
الـعـرب
للمعلومات
فيد
اعتمدت
المظهر
وتضع
##والات
بقاعة
##الياه
المجهول
##ليكس
صناعي
ساق
##يكي
السورة
العائلي
بلديات
فازت
##ياطية
وزي
تخلف
الحالى
والغذاء
حينئذ
مطابقة
للبرنامج
احتجاز
البدع
هني
عبيدة
فيروز
##active
توازي
الكافر
قراءات
التكامل
هَذَا
وظهر
هوليوود
الشتوية
تعام
الاستايلات
جبس
الرئيسى
##ليزر
دخان
بالمخ
صادقة
##وائب
الراوي
قدير
والأمان
زد
ضبابية
##ــط
للحسون
غيب
الفهرسة
جاكسون
وأعرب
الأولوية
##جلسة
للبحوث
والنباتات
إبريل
##ابيث
التأش
وإنشاء
المظلات
غصن
اطلق
كرت
لشهادة
##زوجين
##way
معطيات
القبعات
##قلها
ظرف
تجاعيد
عجمان
تبذل
والمجلات
نظرًا
منتجاتها
##za
الضبط
يدها
للمواطن
فتن
رانيا
صداقة
وافضل
الاقصى
أتت
##illidae
##56
تشبع
Fringillidae
Estri
العشوائي
قفز
##مجية
ركـن
##يييييييي
##iser
والإدارية
ستلايت
##تعرف
ووعد
##زير
##قطيع
##دره
الريفية
الدواسر
التنس
##الها
##ورطين
الأمثلة
129
##حور
وأمريكا
أكاديمي
مبتكرة
##ART
الاحوال
Elect
ايجار
Estrild
##رامة
Estrildidae
التمسك
المزارعين
والمسرحيات
المتمثلة
كرمي
##ئيه
وهج
طلحة
##ابك
سياسياً
##بيتها
النية
##ضيه
والعص
البكاء
التدوين
##رشح
فايز
1963
أجه
والهم
وأبي
التعاطي
ولاسيما
وتستخدم
معلمي
وبأن
النداء
أنَّ
sch
دونها
##شابه
##bsp
ويمنع
لاحد
الاداء
ثمار
##ِظ
والمشاريع
##AI
##لايا
الفاعلة
##ُلُ
الشئون
بالرياض0557824327
دوريات
##طنه
أزمات
ظاه
الدمار
##وباً
التعاوني
يشاهد
التدريبي
مؤتمره
كَ
اجواء
##روقة
بتك
المعلنة
المعنوية
مرضية
##نن
الكارثة
الأذى
نراه
سهلا
العوالي
قتلت
التصرفات
بجازان
الخاطئة
جالكسي
وأص
المجانيه
##ومتر
التصوف
والرسائل
الحلو
ونوه
جميله
هرمون
مفاجئ
بتونس
الازدواجية
بالرصاص
احساس
وقته
كابول
المعروض
خضراء
الزائدة
مليكة
هيومن
مغلق
الأزمنة
الخشبية
##غداد
العـــام
فلسطينيين
لته
##غيان
ومناطق
مشاركتك
لزم
شابة
ملحوظة
الضعيف
وبقية
##مسا
الختامي
##شاري
مظل
حقيق
الخلية
الأحمدى
##earch
وقدمت
محجوب
##يادتها
حمض
طرحه
بؤ
##بلية
##اكين
شبابية
ادريس
أغلبية
سجلات
والدورات
##اغية
##راكمة
فتحة
الجاب
اعز
للعلاقات
لأطفال
الاهداءات
نعود
##كوب
##red
تأشيرات
سنان
##خدير
تلو
إمكانيات
فاعلية
تحذيرات
وبج
بيه
##خطوطات
طوبا
##َاءَ
ضياء
الاساتذة
##غلين
نجاة
##300
لوف
##تحف
##news
الموقعروسيا
مسد
المقبول
ولولا
للاشتراك
العالقة
مماثل
أوسن
##قيقتين
للهواتف
والكتابة
وهبي
888
الفلسطينيون
##M̲
##ήt
##βk
7̴
ĄĐ
7̴βk
##M̲ήt
ĄĐM̲ήt
فغ
##ovies
الانكسار
مصباح
صديقه
لاحظت
واللبن
الطازجة
انكماش
ببلدية
##قراطي
الحقل
##خاي
احلي
الحرائق
لاجهزه
رحلت
##طره
للاعلان
المسموح
برقية
خريج
المكالمات
لحق
##احمد
الأناضول
modern
الكندية
كنع
ماكدونالد
اكاديمي
##ؤى
##شارل
المشرفة
270
##وائق
والوس
المستنصرية
للأزمة
أجـهزة
يلاحظ
الوقوع
يته
بتعيين
الباز
تشريع
الفورية
العزة
أقرأ
ويشمل
ملحم
##رامـج
##iness
مِنْهُ
وعود
يفعله
الأذكار
بأكمله
التوك
سامر
فيرو
يخسر
موكب
رافعة
ولان
ياق
Trans
الضخم
القصيد
والعسكرية
المتنا
##ْتُمْ
##لقاب
4D
المعارضين
وتوفر
وجع
##ental
الأجور
والنح
pig
والعودة
يهودية
الاعض
الفول
يرغبون
##uh
تزيين
تجدد
يؤدى
تحقيقه
##يلاندا
##0096
الحبر
مظاهرات
الإحتياجات
الثلاثين
كوبر
بمرور
والمرئية
روحية
العاز
يتوافق
وشعراء
Ha
إجابات
ركب
##ّقة
فرانكفورت
و10
##خخ
العريقة
المسهل
هاتين
الاجسام
والطرق
النكاح
نادية
بإستخدام
الكارد
مضيق
اليسارية
استغفر
إجتماع
استقر
العطرة
رَ
بصرف
هواء
الإِس
المرغ
sat
والفكر
بمتابعة
ويقع
الآليات
تبث
واجعل
والفا
##ذِينَ
النصية
المستقيم
##شاور
##َّمَا
##هري
بالحي
نوضح
المصطلحات
مُع
سلبا
شيرين
والأحكام
##سترخاء
الكامات
يتفقد
استشارى
التشكيلة
إتقان
##ئهم
يهنئ
تتكلم
إجتما
Tab
تقسيط
وجدوا
وإعلام
حديثاً
ومسرح
لشبكة
الصمود
حققه
حراس
الوسوم
المقاطع
تجرى
##ev
النفقات
ترفيهي
وخر
Univers
طائ
مليشيا
الاحتياط
فاضل
problems
معظمهم
##ويلات
بالمنزل
أَل
حاجب
وتسليم
أنطونيو
دينيه
العقلي
باسمه
##ii
ثروة
يَوْم
Co
الحصص
وألا
مفقود
بحماية
##NB
##وديلات
القرون
الذكريات
تسهم
مستقرة
التعد
المستندات
يقوله
وتدريب
طوني
بالسر
##ومون
فرضت
عبرت
##َاهُ
2ع
للنهوض
المؤسس
العادل
وبلا
القرص
##ستامين
الصواب
الاشكال
00212624
بلك
ولهم
قضائي
الثغرات
فيو
الساحلية
الحى
الحزام
##ضرم
ليبية
السعدي
##عش
مسن
الثمانية
##غافورة
مدح
ذبح
##فارة
سؤ
By
وأحب
الشعري
أعماق
عنيف
##غانية
الليالي
تقليدي
Sud
غذائي
مضيفاً
الألعــاب
البروفيسور
عيادات
مضادات
سلمية
حصريات
محض
الفلتر
00212624699
ببطولة
##ناده
منفصلة
الحره
رهن
Class
لتفعيل
المسمى
دبلوماسية
بارتفاع
أدبي
للسيد
المقادير
تقليدية
exam
##fer
##ether
تزور
العالى
متد
ولعب
امتصاص
الاصابة
التعليمى
فرغ
##ياش
##سينما
عصري
ومه
الرباعي
والأق
التنظيمي
ورض
يتمنى
تموت
التاب
ALi
الاشهار
مبكرا
إندونيسي
الإحصاء
##ME
##وميا
أنشأ
ابوظبي
كورية
البحثية
تُس
ثماني
الطاعة
بالرد
فأكثر
سيراميك
##طلاعات
يطبق
والمخت
##53
##فقات
إجابة
يركز
الميادين
الإنجازات
معلن
650
يعبد
المجرم
المقترح
اعتصام
للألعاب
جزئي
وعادة
تاه
راق
ونعم
استقالته
والمرافق
هاتفية
والخص
كروي
##حاول
يردد
تغيب
والأمر
طاقات
بورنو
الاستوائية
##OCK
لاننا
اهتماما
حزينة
الغرام
هب
المسؤولون
الهندسي
حوش
يستضيف
##فيش
هروب
التواجد
##ويلي
مسارات
ربيعة
ذاكر
ناشطة
يكتشف
كاست
##وكم
النخ
دورتموند
عصف
##asy
مساع
أفك
وبرنامج
##خائر
تصد
تصرفات
المقررات
##َقَ
##رابط
المبيت
لناحية
ويحمل
سكرابز
والمُ
يطل
حاضرة
تلقائياً
فاسو
##انيف
للجامعات
##طرأ
مارشال
البلاغ
والهيئات
##XT
##ِش
الغسيل
الجوزاء
صـ
وبك
التجــديد
وبالتعاون
##راوات
التركيبات
##ئتها
صبغة
الموف
##نَّ
العطار
##ستردام
مثلها
أدي
اقترب
##تحام
جيه
##كنز
مستحقات
كثافة
زكاة
مصاحف
فود
مفعول
الالوان
والحقوق
الطبع
لمنتديات
بالصوت
##رنا
مساكن
Soc
إرت
إتحاد
العناوين
سيحدث
##5025
بائع
##ـيـن
ردة
ترات
الشق
للمؤسسات
##وازنة
الرفع
محمول
فتكون
المجتمعي
##aa
PH
##ـري
ترسيخ
اخباري
وادوات
تحتاجه
البلاستيكية
هدفين
##ْوَ
قويا
HSL
مافي
رؤى
انب
##كتيل
دمنهور
تتشكل
الإشتراك
بشروط
معلوماتك
مورينيو
فعليا
##ضرر
نواف
الفيروسي
والانا
مجربات
##سيليا
بالمص
واخر
حقها
مشاورات
الثقيل
دوبي
##طيها
القلبية
الحاس
شيخوخة
##جبني
حَو
العالمى
from
الجواد
يفسر
تجتمع
۩۞
أعلانات
السويدية
سمحت
الميداني
مجزرة
بلو
حمراء
وشروحاتها
تتج
##مارك
##كلت
الزهراني
##بيله
برح
مواضع
لوكا
الأمد
المساهمات
##الرياض
حالته
يستخدمون
والايبود
احتجاجية
عظام
ومجالس
ويكي
الرومي
مكن
##َدِيث
ركعتين
السطور
الكالسيوم
مجدى
العجمي
البرتقال
تنزل
أقوم
منشور
حواف
##كلون
##ope
بأر
الاعتراض
بطارية
اليماني
##البية
سرق
##واضعة
كويتي
للأستاذ
لإصلاح
إضراب
يحتل
وكندا
التواب
السوفي
المعتاد
الناب
لوائح
الرفض
براعم
سايت
جنايات
بيب
ونوع
##aL
sun
المرجو
وتوص
ويساعد
مدفوعة
فران
##اخر
الموية
الناشطة
##ــري
إهداء
نسبية
وضرب
ينكر
نقي
بديلة
طريف
الكاردينال
المواطنون
سندات
العتيبي
علمنا
والأستاذ
الثرى
وقطر
##طانية
7020
زوال
وروح
IT
بالمرحلة
ببيع
ونأمل
than
المطبوعات
##رجاء
المزاج
العرائس
التغلب
##رقابة
والحريات
##روفات
أسرته
##قطة
##ستري
فكما
الأكلات
وترت
الرمان
ألحان
ونظم
وتدعو
الشباك
فرنسام
يرحم
##َّم
والعيش
العريس
##قلان
وود
وقرر
##ؤؤ
المتس
ميدغلف
live
خاطئ
قوقل
المستوطنين
##سطية
لأد
معلقة
ألقت
##كتروني
يحبون
معقول
الأحجار
طفول
##ياتنا
عائلي
استيعاب
##منح
ضو
محاليل
##بتة
##اوم
حرمان
مُسجل
الغربة
يمشي
اندلعت
ويشارك
أرقى
نيران
والفق
نيمار
الساعه
وسياسة
##فلح
باني
##وقيف
والتغليف
وأكبر
الجابون
##اصم
الحوثية
##ربعون
##شعة
الأشقر
مضادة
بالصح
الخفية
المتحدةد
خليط
استونيا
يلفت
البتر
للفر
الاهالي
##واشنطن
قراره
كلميم
ألمانياه
وغيرهما
جثمانه
أباد
كوينز
إليز
بحور
بعدي
بجولة
##وبها
لجهود
القياسي
بالمولد
بوص
عائد
ريجنال
##كتاتورية
يحلم
صورته
وعقد
فالن
الحاد
اشد
وصلوا
مسجلاً
الاحترافية
##غفار
خصصت
d9
اعجاب
بالمقارنة
الدماغية
Vis
صابر
##ــنــي
المنار
الدوس
حبا
الصداع
##ماشى
##عادتها
##يمور
##اثان
الحضري
Do
غول
الفرعون
وتعديل
يعاقب
المخدرة
والرومانسية
أهدافها
منتخبات
آخرها
ألت
مسابح
اكتشفها
الشور
أورا
##مراني
Sal
توزيعها
##ih
إنساني
##وامع
السفيرة
قاعد
مبرر
Moham
إفطار
##فيون
أشجار
##شهار
إندونيسياب
##خطى
المرق
ليها
##ازم
فلاب
السوائل
يات
والفضاء
الإِ
والأبحاث
الشامي
لوكسمبورغ
للخارج
الممتلكات
حوامل
وانحراف
##ريته
متأكد
خر
فنجان
##ets
إبليس
والحركة
ومقر
المخاوف
##طعت
تلميذ
السيولة
##ّنا
برز
وممت
الفقير
##ذارات
زيتون
مهر
وترفيه
##gion
الفرض
BBC
والقلق
أشهى
الارتقاء
##َانِ
يعترض
ديالى
لاتحاد
هيئات
الموبيل
أسطنبول
##ateg
##ذهبية
للتد
أمكن
##كونات
إتفاقية
##سبورغ
##واقم
وممارسة
##وذة
##برتغال
##ميها
دعوته
175
العادلة
روج
تشهدها
##cel
حاولوا
##uck
سَب
استنادا
وحس
الظاه
اشرف
Arch
لباس
##زعات
الاوربية
##راهم
البطاطس
##وفات
للحرب
##اعى
كوز
والتوظيف
تفضيلات
المحدث
فاعلة
are
اطارات
##هتمين
##نتدي
اللى
##ــــل
وتريد
##حميا
AST
والحضارة
يتد
غلق
Dubai
1200
المطور
تحوي
وثقافية
Game
الزهري
##ــوم
بالطاقة
المسجلة
نلاحظ
mar
نضيف
أعياد
انقباض
زائدة
الميلادي
للمدرسة
وتبدأ
إستقبال
##عاشر
نبدأ
هيبة
اختارت
##مصطفى
وتتميز
يعب
منتهية
والنهي
يَح
السنه
خيالية
##مره
الاحصاءات
المتداول
##صريح
بيلاروسيا
انتصارات
مقرها
يحتاجها
مزيدا
وبش
المظاهرات
صبحي
السارية
عبوة
وصفت
بوي
الطالبة
رفيعة
الشرقيه
السمعية
إصابته
التذاكر
##صاء
الجماهيرية
وإزالة
عصابات
الحوامل
والمغتربين
إض
أَبِي
روبوت
القابلة
your
للتنظيف
##يدو
Skin
##ءٍ
مستودع
لبث
البرتغالية
شهور6
الأديب
لمق
ويلي
الــــــ
##ظاهرون
قبضة
بياناتك
برسالة
##ــــــــة
انتفاضة
الكاتبوقت
##اتِ
بالنيابة
المسائية
باطل
نعتقد
تشرف
والديب
وتعاون
وأثناء
تَح
بالشركة
عالمنا
النبطي
جميعًا
##منه
معتز
الفيجا
بنفسها
عبدالرحيم
مقيم
الراشدين
قماش
Department
##زعج
القطن
##زاوج
متوق
##ograph
كتّاب
##ral
الفقيرة
والقوة
##َتِ
##شئ
معص
مساهمات
قارب
الاوعية
احي
الاعداد
##حرص
تواض
أضعاف
##ani
حكما
رصيده
بحذف
المتصفحات
اليومين
تايجـر
خور
بقعة
prices
الافراد
##ّدت
نحاول
ألبانيا
البيطري
للفصل
تحديدا
ومحافظ
حى
التجزئة
fix
##right
قَب
موديعين
للترومان
أحت
العنب
حرائق
البيانية
##بلي
##DVB
الزنا
##سوف
سرف
##كاتف
مخزن
للحل
الموالية
اثيوبيا
بَيْن
شارون
تستطع
الناجحين
بالمنا
عبود
والرواية
ممتع
رشي
بنما
رقمية
الفرسان
يقتضي
البارز
التلاجات
ركلة
الترومان
وأخر
وحدهم
المناخية
يمنية
مسافر
نوعاً
الهرسك
الإضراب
كريس
والصحابة
بالموضوع
الإمتحانات
ويأمل
Di
1969
##يمياء
##inal
الصناديق
##ادين
وسبب
رومانسي
النمط
وكنا
##وون
ومساعد
##اتمة
ومض
السوم
سيؤدي
ووسط
والمنوعات
##آي
الصوتيه
##غنى
التايل
عقيد
تقديمه
الشائعات
جامعه
الأوساط
تمرير
المؤدية
بالأعشاب
الاعطال
اصلا
شعرها
##ائيا
##غلبية
##زها
الناعمة
وحوارات
منوع
انفي
الممثلين
##ــــن
وتمكن
صعد
##AJ
وإت
يتحدثون
ممدوح
بنِ
فداء
للثورة
فالف
تنشأ
##UD
والكويت
الجنائز
اسلوب
##ُط
يَد
إِلى
التحولات
قومية
المبتدئين
مُختفي
بلون
يتعدى
##لالي
##ندس
الأغراض
واستطاع
##ائلات
ثور
والاسرة
إقتراحات
سرور
مرحباً
##PL
مدب
##سكريين
##برس
والاغاني
وخير
##pens
فلوريدا
جُ
المهاجر
##ويحسب
الأطباقويحسب
##81
يهاجم
الأمثال
الكوب
التكييف
##إست
ليغ
##سيحيين
##ولم
##هلاكية
##رّض
الإعلاني
احتر
الأصغر
وإخراج
##يابان
الاجنبي
الـحــوار
##ذرة
منعت
سيبقى
سئل
ترقية
بابها
شرا
وانتشار
##انتوم
أزيد
مقبولة
الباري
عمود
##ومك
##ْبِي
الاصلى
السويسرية
وارتفع
الاسباب
تعترف
وبالطبع
يَك
مرخصة
احترافي
##منيوم
Fire
سلس
الانسجة
##احـة
127
وثم
وأنهم
##ـقـ
والاض
بالحصول
والأهم
ترج
أشرطة
وخاص
التمزق
الأوبرا
113
دوبيزل
##rib
يعلق
نشهد
والتغطيات
##وثق
الأسري
مـــن
الاستيراد
فإني
الصغر
مقربة
وإصلاح
الحواجز
الوعد
تركيبات
ألفاظ
طفلا
طاع
مؤقتة
غامضة
##املف
المؤثرة
prog
ترتدي
قح
##وقين
تتولى
بأكملها
##تكوين
رفح
المختبرات
##عاتها
Joker
رالف
مرّة
سهيل
اسنان
والجرائم
##ید
فخرج
ينتقد
كاج
فدخل
للنبي
دخ
لإعداد
زوجك
Math
والوقوف
ممار
فواتير
جلوس
بتوزيع
مستقبلا
تنوي
الختام
العامية
UV
تجسد
شخصياً
##ـبـار
بالقطاع
144
القوس
اطلاع
##رشد
عبق
اورام
##اضة
واللجان
خاصا
عواد
##علت
##ويلة
مقنع
الفضيلة
الماركسية
##UX
فدان
والزرقاء
وحز
والاجتماع
أمامك
ظلال
عكاشة
الكرك
حنيفة
تصديق
##شهر3
الفقهي
التعاونية
مركزية
لقيت
خبي
تحفة
ريادة
والفل
رت
اتجه
شهورسنة
يومها
تكرم
الفحوصات
الاختي
دامت
شهرياً
يخفى
جيج
للبنك
احتجاجاً
##969
يشعرون
مشددا
##ائلا
عبدالمجيد
##الثة
Playstation
ماتركس
انتقادات
وعين
لمرحلة
##eng
ومتى
والخارجية
للصحفيين
اسحاق
بتخصيص
احيانا
بتط
الاحمرار
المنصرم
للحكم
##2000
وإنتاج
وَلاَ
الاضطرابات
المرتفعة
موته
احتم
1974
Learn
##eh
خـ
##وزين
mbc
##عاق
لإس
مرافقة
مكناس
تستغرق
ويبدأ
المواضي
الكامله
نيوشن
قيمةيتم
الإبداعية
720p
السقف
إعفاء
##راجه
بجنوب
الإث
##ْمِ
Int
الجبير
وتقييم
مقاربة
##ogether
الأرجح
##ِنْ
سعى
ارتخاء
الإيجار
الأوس
H5
القصه
Enter
لوازم
الـريـ
##iks
مسبقاً
شقيقه
الفاطميات
المشاهدين
حقول
v2
##اصات
##صيرة
مدراء
لتقييم
التصميمات
Music
منهاج
تُش
ريو
التحسس
البلاط
اختصاصيين
وأط
صدمة
المشير
ابنتها
##uwa
تسلل
اسبابه
المعادى
آلت
عرعر
إحالة
المقبلين
الفارسي
##وبال
الأستاذة
للمنظمة
خروجه
ويطلب
داخلها
وسر
TAG
كليا
##وهام
##ORA
##جرت
Hel
الشركه
Law
##اتورك
السيناريو
استفاد
قَال
##َّي
أبنائها
التنافس
##ira
##ندر
العريق
نظرت
الاجتهاد
توع
##aire
كنعان
الغطاء
التمديد
أحرار
السوء
المعلن
التعطيل
وَقَالَ
دستورية
ومسلسلات
يغيب
أرتفاع
المسافةطالع
تدريجيا
بانها
وصد
فالع
##سوم
وقلة
القبلة
الرع
١٢
شاركوا
الجواز
بدبي
الصديقة
باولو
OP
الساحلي
##رواتيا
##اليزيا
تيوب
متوقعة
Rep
الأسبوعية
برئيس
الغدد
الاض
##غاري
CNN
##CH
لحام
هرب
وقطاع
##ألف
##ruiser
زوايا
ملاوي
تنق
##عمه
أرحم
##¸¸
التيارات
الاشتباكات
##سق
جوده
DL
النض
##ـاد
##ستك
اختتام
اكتشفت
##نآ
نوبل
الراح
145
نوافذ
الترابي
والتكن
تاثير
الأسئله
بلم
الموسيق
نتيف
اسبابها
إبراز
we
##لكترونيات
المتفق
##لاحة
والامتحانات
تنصيب
قياسية
غط
بومبي
لانك
الشيوعية
الجنسيات
المثقف
Inst
برهان
الكتائ
تحتفظ
أعل
ويسعى
التاج
ترحيل
##ليفزيون
الأفق
تأك
وحقق
رياضات
nbsp
##يوتي
العمري
##طرون
##ديز
الديار
##نّ
والنغمات
##صلب
عاصي
##ابور
8000
##ield
حكومته
للعل
تنسي
الفرنسيين
وعلومها
الرياض0557824327نقل
##لفيا
##ـــــــــــة
##صفه
خلقت
iPod
ومب
اعتباراً
إياها
osn
وتمكين
##عري
better
الغدير
##أسبوعأسبوع
ستبقى
القدماء
نفاع
مشوشة
##ذوق
##غطى
والضغط
التثبيت
الأعداد
قصارى
##وبر
إِذَا
زهور
السهولة
##رايس
موزمبيق
معتقد
##لاعبين
##82
لعبه
الإنكليزية
وتسعى
بقضايا
الحاضرين
واجتماع
الخطورة
الاوراق
did
اخوان
يحترم
والموسوعات
##بيته
والإرهاب
##alk
ايكو
الابر
تقريرا
##صله
القضيب
الثوب
العصابات
دراية
والور
مستعدة
##ُهُمْ
رداً
##وياً
الادارى
للإرهاب
تأسيسها
يُحظر
كتبها
RO
اللعنة
##ـهـ
معرفته
أغلى
المنوره
الطاقم
الخيمه
شجاعة
وبقي
الترددات
محظ
تسفي
He
العصائر
gl
إص
التفجير
مجهزة
##berry
##زيدية
والخليج
وقدرات
الناق
المعتقد
##ميين
البطاركة
اسطح
والمكان
الرمي
بإحدى
السقوط
تشويه
لجراحات
للفترة
منارة
استمع
وَه
بسورة
الاجتماعيه
للمتر
قاض
ههههههههه
##اطا
ايش
##ولود
يأمل
الثلاجة
الحاجات
خلع
اندونيسيا
والفضائيات
benef
ونصائح
أبابا
بالقصيم
وأسعار
الكواكب
الارقام
للتوظيف
ابد
النزول
فردية
والظ
الأيسر
##جنحة
محكم
والصوت
Pass
الفوت
بوركينا
edu
أتلتيكو
شجر
أفني
إستراتيجية
المتعاقد
خطابه
فبال
الأشبال
ينهي
الهيستامين
##ثون
العاطفي
صنعت
##امرأة
##مدي
تشغل
تتنا
##ناهم
يتنا
حبيش
##ст
##ena
##نازير
التعيين
النقود
جائز
الحف
بالسحر
لكثير
##ُوه
##ragon
أولها
##icy
اقر
##ايلاند
العيس
##TP
##ــدة
المتعلم
##rack
الفيدرالية
يحكي
##ّلة
يفرق
الإعلاميات
النجفي
الْخ
منسوب
المحررة
وأصدر
ووضعها
هاتفي
وإنه
##شيم
شيم
##سطح
حــ
الشيب
مرتفعات
ظهره
##ift
البوست
حذاء
بمدن
متزوج
التحضيري
الجامعه
وحدث
شحات
الذرة
##مك
غلب
##ُخ
التقي
الدُّ
##َيْت
##قبائل
##خرفة
حقوقه
بالتد
كيما
المنارة
جفون
بحوز
يرف
الصقور
قزح
البائع
1966
والكرامة
##ـون
##بيلي
متخ
يؤمنون
##ny
الزينه
روحه
نهى
يكلف
نسيج
تتأثر
الفائقة
more
وشي
الألبومات
بلبنان
بدوري
باختصار
##rex
كونان
##غدور
هندسية
البقر
اليوسف
والدليل
##صقات
انتبه
يرتكب
حلاوة
محقق
##Ar
##arab
كروشيه
تنمو
##عافات
بطوطة
تصحو
الكحول
##mad
##َيْد
عدّة
يسل
المحج
عري
أنظار
الفوتوغرافية
##لعب
المحال
serv
136
##وائه
إثراء
Surgery
الاحكام
front
يسع
##شترك
واعد
وعودة
العشائر
الرَّسُول
مسلمين
الجلسات
علاقتها
##ُرجى
##ئتين
أختي
ذن
استماع
افرايم
##ـــاء
الأقوى
معجزات
المعز
مردخاي
الحراسة
وجرحى
تحدب
للجهاز
##LB
أنجولا
بشرح
الترقية
أنتي
الاحترافي
اعطاء
رمي
##px
خاش
الكِ
يصر
##ّط
الانطلاق
المغني
اعلي
##gh
المختصين
السلا
اﻻ
##View
إليزابيث
بإت
والمز
والشهداء
بأمراض
للمادة
الأعياد
##ِوَاي
احتفلت
ولق
وفاع
للرأي
غيري
ولوازمها
قوته
##قتله
تعترض
يستعرض
النَّب
تخلص
بشارع
كأنها
خالي
##يانات
BB
جيران
##ody
جسور
إيداع
بألوان
خن
##فعالية
المحاضرة
اعط
قصي
جـ
بالفوتوشوب
للتغيير
240
الشيوع
اليهم
معني
الغلاف
##essenger
حفظها
##جتون
العديدة
##نكار
يعرفه
بالدار
للكهرباء
B2
##روسية
قبة
السيل
المزود
ناعم
الجبلية
والدولي
والسؤال
صوموا
##مائر
مشجعي
وديكور
عواقب
قادرا
##ذائف
clinic
##AF
##ياها
ورحلات
واعلم
قالها
يُؤ
لتخفيف
المستوردة
التبريد
بالكتاب
##بلومات
عادلة
والبحرين
ضا
##متنا
برق
ونف
ايك
تناوله
أمامنا
during
تركه
يخشى
التبر
المستوطنات
والوحدة
الابي
ماتت
سبحانك
قرارها
وتجهيز
طلبه
غلام
##نر
برأ
نرفض
بليس
مشاري
تتسم
961
الانكس
موسيقي
المدعومة
نقدمها
اقس
xnxx
الطماطم
تمثال
أيديهم
والفواكه
بالاتصال
لايع
pes
##صيون
ياك
للملك
System
سويس
التامة
المتنقلة
ترسم
يشاركون
وأثر
أوقفت
ايبي
الاوقات
الحدقة
والتعليمية
ترحي
##ـٍ
##جله
##uds
الرافدين
##ـــــس
جوردان
##احبه
استديو
##ِط
الطرا
والتعرف
ازدياد
النسبي
خدمه
يستدعي
الشهرة
للرا
المحرر
225
طالبا
##opia
no
بالشكر
أوربا
حدقة
للتنظيم
الشعارات
ونن
تتواصل
تتفق
التها
والوزير
##حضر
ونع
صاروخي
كردفان
##سكين
لئ
بأداء
والمجتمعات
حولى
##احنة
لتمويل
المعيشية
ويوفر
أرك
أموالهم
##ابلسي
والجمع
نموذجاً
الانتقالات
##فراج
##ican
##دمج
التفاعلي
المطاط
بالعلم
##كسسورات
##ـرات
color
##alla
##خابرات
تكفا
الرازي
الوهم
الشِ
دعمه
يهدي
حصوله
علاقته
مهارة
1ع
المصادقة
بتمويل
وصلاح
الـمـنـتـدى
إعدام
لتعديل
##ven
فرس
البولي
تمتع
للمقاومة
لبر
##now
وتشكيل
الموضوعة
للتسويق
التسمية
##700
قلبها
بطريرك
Fans
يوفق
مظلة
الحجارة
contract
الموتى
فلابد
##ورس
وعليك
يتراوح
Roy
لورانس
يتزوج
الناقل
##يطالية
نشعر
##فاخ
الجزائية
##زمين
بالأمن
الوضوح
بشرة
اترك
والتحكم
Blog
أنشط
ادعية
##رافت
التأخير
مفاجئة
بقطع
types
استمارة
المستحقة
سطيف
للطي
الرياض0557824327دينا
شفرات
القاضى
الوافدين
فيينا
لكونه
تشيلي
والتطرف
الاستشارية
##تري
##The
قصات
##وكب
##سفة
##أوا
تميل
وبداية
الوادى
ودين
لقطع
شط
انطلاقة
الحداد
وصرح
الاعياد
Ly
مايتعلق
126
ونج
الريان
الشفاه
وفهم
عتصيون
##ضيح
التبرع
not
Keys
الساحر
##شغال
Mot
طلاق
##فجار
الياء
فز
الإفتاء
وراءه
المـــ
إخفاء
والول
nhe
روجيه
المليشيات
الأنعام
ويستمر
سابا
¤ّ
مهندسين
وقتا
##والت
وثلاثين
للمسابقات
dis
##كوا
##usiness
قارة
إبلاغ
المستهلكين
ايلتس
الكسولة
##زاوي
احاديث
يوميًا
الحلي
والخوف
du
بالدين
والإقليمية
الحمر
##009677
ويهدف
قوارب
وهيئة
##جبين
##UF
وَكَ
تحاضير
لَمْ
##رائي
آخره
##الوني
##ضبان
والغربية
##خدع
أَبو
والصد
منتدا
الخواتم
لنفسك
##زاله
كالح
الإعمار
الطاهرة
LINE
والتسامح
بكأس
وشف
ويدعو
##باهه
والحرص
بجوال
يشرح
حسنا
وتجنب
How
هديل
الدوار
اضحك
معاهد
الأستش
تخطط
##خخة
نعلن
المكلفة
##ثقيف
موجات
##ثث
عرضا
متفاوتة
يحيي
##لادلفيا
##َمِي
شاذ
آمَن
##atient
خلطات
بالانترنت
##فاقيات
والتقارير
الرَّح
وأين
994
اهت
الاعاقة
##سمية
وأر
امه
أمامها
##ـائ
تلبي
وينبغي
##قلام
سرك
early
##ْرٍ
انستقرام
المبذولة
♥♥
مراهم
إنتها
السرو
والتغذية
##وسين
الرشيدة
مؤخرًا
ميج
بنتائج
he
وَن
1430
##ِث
واللاسل
##RY
kh
خشبية
انتق
للجمهورية
الخبيثة
العمق
والإسلامي
البيضا
ومساعدة
الياسمين
لكلية
اشتهر
اليق
الساحرة
قه
لكشف
للروم
##ألب
وتسهيل
متأك
Back
يمس
الاستضافة
الباسط
##سبين
##ظير
Phil
الضيقة
##حالة
واللا
##برم
فمثلا
Post
SKY
والتنفيذ
بالنت
لانتخابات
##20618
العَرَب
الاعتداءات
لحن
المراسلة
يدشن
##طرد
وعمليات
الجرثومي
ارطغرل
تروي
بتعليم
اعتاد
ابتداءً
##ريهات
واثق
##فيكس
محتوي
احتمالات
سويت
##عازي
rated
تقطع
131
الميلاني
##reak
والعدل
متعلق
نخب
بالحضور
كوري
الطبيه
وأست
عنت
##تهاكات
مستقيم
عبدالق
##مأنينة
فيكو
مسعدة
لفترات
الحكايات
تجعلك
##أنا
187
benefits
hap
¯°
ممّا
والبنات
بالحسد
والثيمات
يتب
قولهم
والأمنية
##da
تقريرها
شعره
عقارية
ومعظم
##يدونيا
المتميزين
تشن
شماغ
##بادجي
فسم
المواشي
ويتميز
together
##جيلا
تبكي
متقد
اجزاء
##كنت
أحباب
اجتماعه
الفيض
ملحمة
النائبة
بالذكرى
الاقليمي
للبنين
المخروطي
لعمليات
##كيون
##سـ
الدفاعية
طَ
ماف
المعلمة
بالعد
الإسعاف
بدعوى
التجريبي
##فريقيا
بأسرع
إرسالها
الفقيد
مبنية
الاوردة
لار
فيا
لانحراف
##ظومة
أمسية
الإيرادات
البشريه
تفريغ
والأصدقاء
##الجات
صفحتها
الشعبى
خفية
كيميائية
إيمانويل
الإمكانيات
ويريد
الَّ
ماير
ابوعم
##ليّة
##apest
تحديداً
الإهداءات
مشددة
بالنقر
##رائيل
ساكن
خافضة
##alas
نثر
مداخلة
خلطة
الاقتباس
والمحذوفة
اضل
فروة
##وزيل
الاسيوية
refr
الاقليمية
وسياسات
بنزين
يكرم
التدقيق
رجوع
الوضعية
Dec
بحمد
موكيت
أَص
لديهن
تحضر
بسحب
والجزائر
أَنَّ
حكا
مفرق
اللبنانيون
Aut
الحصر
##لقون
والتل
العباسي
سوار
رَبِّ
Corn
##راكية
بالترتيب
المتاجرة
قدوم
التذكاري
الساخر
##فايا
بالدور
مفروشات
المركب
الأنوار
نورا
##كركم
حصن
وندوز
وقود
##زلياً
CP
ادوميم
جيوب
ريل
تتك
نملك
مفروشة
الجبار
##مُ
عقاب
##مائه
التخفيف
الفعال
يتمت
الأزواج
بدين
SAM
فأي
بومبيو
اشراف
الفروانيه
##ميد
##خه
المتوسطية
##400
توماس
##BCI
الاستايل
نوري
للبرميل
الفيكو
##nea
لفهم
كارلوس
لطفي
الفلاحين
°¨¨
##ـرون
##erm
outp
المقاوم
حيفر
الفضيل
##لج
box
##اردن
الصرح
##رضة
الموضوعية
انجازات
المني
##ئًا
عريضة
الراحمين
وموسيقى
شادية
بالولايات
تغيرت
الإقبال
##واميس
الأقوال
لتست
الكروت
##ترن
بأج
المضمون
جرس
##طلون
تحققت
العباسية
##نفذ
centers
Jun
1506
والتدبير
التطوعي
سيريلانكا
تزوير
الكونية
سبيس
غزوة
انقاذ
عقي
مخطوطات
الْك
الديجيتال
والشبكية
الجوكر
##كتئاب
##ِض
عندئذ
تختص
##عرّ
لليمن
اللوائح
اللاتي
مارتين
يفنه
والموضوع
الاغطية
كُت
المدرس
الفولا
##سيدة
الإنجليز
وأشاد
للعناية
ultras
يتق
إكمال
واللاسلكية
جولز
زغ
##ُؤْمِن
##thalm
والخلي
مساعي
التجهيزات
حزبه
الانكسارية
##يتامين
اسأل
##شارد
قتادة
##ighted
شوال
يستخدمها
مصادرة
للشيرنج
عيل
متعد
##ublic
##ُّوا
##نتان
##ـــو
ولقاءات
دولاراً
الّذي
عقاري
ونقد
الاخري
##ِكُمْ
وعز
deals
الأزهرية
القمامة
مباركة
Silk
والسعادة
بلاط
بيون
الفتى
الغموض
بثقة
##هلها
أوا
ماين
باليرمو
البلاي
عتبة
invol
سراج
يؤخذ
معدنية
إمر
ههههه
##خصصات
##EE
نزاع
الزيبرا
تصاعدياً
داس
##phthalm
##حلل
##برياء
بمدرسة
##فسور
للاخت
البارزة
بالشرقيه
نتو
convent
الفقري
معاك
التلا
توسع
##ترفت
550
بأب
الحقول
##ency
لتوزيع
والإنتاج
##ازيا
Emus
faq
رغبته
##النظر
المتكرر
حفتر
##ِبَ
##شيز
بحقه
الترف
اللهجة
كارفور
##كسسوار
##ُود
بته
أستلم
الموسوي
تفتتح
فذكر
اجد
عسكريا
##خذة
##باز
والنز
الساحات
موظفين
الكنب
##بيلية
مؤهل
فقم
Alq
المقيم
ستوكر
الروماتزمية
شكره
STOCK
غل
بشرتك
##ــــــدى
##ler
##84
##خاف
اساسي
سميت
##هامبتون
المحفو
النسوية
لمنا
##داخلة
لتبادل
تتل
وجامعة
##ters
الالترا
fixing
الكاظم
هديه
On
مستقر
ظفرة
تطبق
ومراقبة
##initis
الملحق
كتراكت
surgeon
FIF
لعبت
##002010
وإطلاق
نشرتها
بالقضاء
ومعنى
سيأتي
ويرجع
مشاوير
آيار
بينا
Cataract
حراجة
##83
عملاً
نعد
باختلاف
انسدال
كيرفز
ألقاها
الكفاية
وجلب
بالنظارات
سنتيم
لبلاد
المعدلة
وانهيار
##reen
Dig
الثانويه
والحج
معاينة
الأردنيين
القافلة
Anis
وحياة
المبتكر
زغللة
##هنسي
##باقة
صبايا
##سبون
##بروا
الجماع
محتملة
الاستغناء
والعالميه
##ؤرية
##فاقم
مناز
البهنسي
مراق
ورعاية
ضرائب
بالقواعد
retina
##واصلات
##لاطين
الثروات
الحافلات
involved
تدر
أنكم
البيرو
ops
surgical
نيتسان
ومشروع
حائط
الفندقية
زلنا
procedures
والحن
##تف
##phthalmology
غرامة
التحديد
الانتقام
الجوالة
Ein
¢¤
¤¢
132
للاستقلال
للاهتمام
باقات
فتوى
وتوسي
info
مهلة
الإص
ultrasound
العيوب
عشاء
هاري
cure
ّ¤
الكرملين
الإِسْلا
خياطة
لَ
وبها
اوردة
إصرار
محرر
الاهلية
رعدية
##lauc
happens
الدعوي
النباتية
فالله
بصل
دمعية
والخدمة
ابتسامة
##زلج
عاليا
بقل
مستق
تجعله
fars
للمحكمة
إنجليزية
مشاهدات
vue
المتقاعدين
##206185025
أشر
##رعرة
##laucoma
شكلها
يال
##geries
00201206185025
المحمية
صبح
يخلو
اللاسلكي
الوصلات
##ارتهم
##ATION
الواتس
باتخاذ
تعارض
والتطريز
استطيع
مغاربة
أصناف
ذنوب
بحى
للقصص
كثيرين
##utsch
##رودي
وتغذية
ستست
pigment
الجافة
واز
##الصوم
مخروطيه
وبيت
اسعاف
مهامه
والتوجيه
دومين
الأنابيب
cheapest
Pter
جلوكوما
بجمال
مايفقد
يقدمون
مارون
شفر
conventional
##ideos
موال
##ويلية
ON
##´°
داخله
كلاهما
glaucoma
ميري
presby
الشكوى
شنت
##ائما
للمؤسسة
##فيجن
السكانية
##احبات
##ـيـف
##لونزا
والرياضيين
المحاورة
إكسب
الشموع
الدَّ
ألغاز
اليدويه
لايسترد
متناول
تمتاز
الإشارات
outpatient
ophthalmology
##صحك
اكون
التدميع
motia
retinitis
##واحد
الجرائد
الأونروا
مسلحين
تعطل
##الليز
جونن
كرتيزون
ودولة
لليزك
الأكرم
الكسوله
refractive
pigmentosa
افاستين
bac
cornea
##رائض
PKP
أمية
لابؤرية
##القرنية
إخطار
Pteryg
بقليل
presbyopia
surgeries
حسابي
الأخري
##ightedness
##توسكند
الفلترUV
##alasik
جحوض
الأستشاريون
##okonia
Anisokonia
##rygion
##térygion
لينكنج
إلعين
Pterygium
افاستن
فيمتوسكند
farsightedness
LKP
Ptérygion
##الليزك
lasar
ultralasik
STOCKERS
العينتجميل
العينالنظر
العينلونزا
catrex
ليسونتس
عيونالليز
##كالليزر
القنواتالعين
بالعينs
المسؤوليةية
lazic
laziks
التدخينالابصار
النباتاتيعية
ضعيفةالقرنية
النظريُرجى
اصابةصال
ضمورالابصار
ابوعمهيب
Anisokoniaالليزك
عيونالليزكالليزر
TECH
عائلية
العداء
المسنين
دماغ
##ماسك
تستعرض
الإحتفال
للبشرة
وليبيا
اكتمال
بالمناسبة
Alquds
النواحي
المنامة
صحيحه
وشرق
##لهي
حو
##وازية
استغل
##۩۩
حلّ
وموقف
والرجيم
لسانه
والمدير
والمهارات
##شيح
حقهم
التاجر
مبتد
مسبقة
##روبوليت
قديما
جنبا
المركزى
ستين
BOX
والموظفين
المدعى
إنكار
للمركز
##غادرة
لحوم
تاني
هيكلة
تقترب
##سطوانات
XP
##سائر
تعدي
يحتفظ
##ضاي
Copy
تحف
يحتاجون
تنموية
الاكواد
وثلاثة
الإمارة
للسير
##EV
اخترنا
##دراجات
مجانيه
##قوبات
فأصبح
##aLaDy
##LBaLaDy
وبالإضافة
رتبة
بصفته
بالحديث
وظهور
الحضارية
يوليوز
°¨°
اقام
بعلبك
للاجهزه
##حواذ
متأخر
تقاطع
بهدوء
وراح
التوجهات
ثمان
نائبا
عقله
عبدالل
الشجاعة
##اجات
دينهم
ــــ
والأنظمة
آند
بإقامة
##انيوم
أغانى
لاني
المعص
Fore
##َاو
التنافسية
التساؤلات
تتصل
##هادي
بحفر
البير
باراكليبس
الإمبراطورية
قدمتها
اختطاف
Cond
##ولاته
مؤكدًا
يشكّل
أمناء
المغامرة
##خدميه
للفن
والسلوك
Opt
بإعداد
230
المئوية
عُم
فيرج
التمه
والبحر
ومنح
سخنين
دغ
هوامير
يعطيك
المجاهد
##ريكات
نقف
الاشارة
برمود
شنو
النسبية
سنا
MSN
##pe
Mos
وتواصل
موبايلات
أسطورة
ووثائق
##ايم
روعه
المستهدفة
وخفض
عينة
##UH
##atre
الفنيه
المسالك
186
زانوسي
فأت
##ــث
عنب
قنات
الرزاز
تصميمها
تطلعات
حرمة
##شئة
##فساتين
مباحثات
لقراءة
الاز
##عدوا
##ثماري
وهمية
##°°
يوفرها
الوصية
##لاله
واقف
نفق
والدينية
Inter
##نياء
##ثرا
ويأ
علوي
جهودها
العقم
وزم
sub
موضحة
##ئول
لكتاب
##التين
##ماي
والسيطرة
أسمع
##زمون
الانفلات
الإسراع
##IL
الخارجة
بندر
كلاً
بسجن
##لايين
الصفرات
PAND
##ومبيلات
مستحيل
##كتوراة
حافة
لتمكين
##لفه
قران
يسعون
خاطر
قيامة
والجرحى
وتبقى
ويدخل
عقلية
شوية
والأكثر
الليبرالية
الماستر
اثبت
##تنازلياً
تصاعدياًتنازلياً
التوثيق
لدورة
مُحَمَّد
استقدام
سديه
هاج
##مئ
توضي
تواضروس
##ha
والفرق
مناش
##ُهم
##اريح
PANDORA
وثيمات
4000
##وشي
الحسيمة
##َرَاء
عدالة
التيجاني
139
##قُول
##ansat
استق
خشبة
يتصدر
ستحصل
EU
ملائمة
ميفو
الغردقة
مستقبلية
الفاير
لتدريب
المتطلبات
افغانستان
تتعرف
للاعبين
اندست
تمي
##وسان
النوافذ
العقائد
يتن
شين
cccam
##89
ملونة
حملها
إدانة
رياح
المستخدمون
ريكو
والإم
الشرفاء
وتسبب
مأكولات
الناقد
والهدف
أمرهم
صغ
والبلا
تشغيلها
##AE
##ابعات
الملونة
اوريون
والإسلام
سبايدر
القسام
سيعقد
##لهة
##هجير
توفرها
يراها
بالتم
ويحتاج
##فاً
حَتَّى
يجعلنا
الملل
حَس
##ّعة
والهندسة
واستغلال
إستشارات
الدكالي
الإسلاميه
Ka
ذكرته
الألمان
وسعر
اسمع
إسل
لنيل
##ense
إِلاَّ
الغزالي
يلحق
تبيع
شخصيته
تغيرات
ارو
دعاة
للمساحة
بفرض
تحمله
خزان
بديع
وسلوك
##ــآ
يكثر
##رجوا
الإنكليزي
الدجال
عبدالقادر
والإيمان
##ضيء
للمعلمين
للارت
سميرة
##هدائات
منافس
فخورون
جزئياً
وقط
Fran
يزن
جالاكسي
أنقذ
وتجاوز
Pe
وتض
والمجتم
ضربت
وكلا
النشيد
لقمة
محلة
والحريري
انخفضت
عينيك
المعلمات
والاعتماد
طياته
الآمن
الإدمان
شيبة
والسياسات
039
للهاتف
وبعدين
الكروم
للصد
عشائر
##عتاد
##AP
الفيروس
باليمن
FIFA
ورؤية
##علاء
الجبن
Mach
الاسلاميات
##كلي
##ontent
صفي
##شياء
##ضحايا
##شوط
كتيبة
##empl
والمملكة
معجزة
لضبط
أجنحة
ونقدم
##عكاس
نتعلم
ملكي
الجداول
اوقات
ريض
سبونج
رياضه
زاكورة
Love
البرب
وتواب
الأنسجة
الاميرات
التكفير
##اطين
النُّ
نتشرف
وطالبة
ثرو
افر
للمسرح
بالقوانين
ترويج
الدير
بقدرة
eng
##خرجة
بالتج
المنهجية
ايف
ياش
##ona
##كوس
والجودة
الاقليم
لذكر
لكنك
وأسواق
لال
نسمات
##udio
الجامعى
عارية
التطريز
##راش
والإنسانية
الفضة
اقلام
تسكن
فيجي
نوال
eg
تتحكم
##يبولا
تفس
النعمان
والتزام
##ـلـب
مشرفة
##وّة
والمعا
المنهاج
لهجوم
يقودها
جنيهات
الاعتمادات
جئت
معناها
الحجوزات
عزام
ولمدة
تحريرها
##عبان
حصاد
الجنايات
ابر
بدرجات
##دّ
نظرنا
##ied
ونجح
وتدخل
يقط
مشهورة
ومنظمة
التلاعب
الراتب
##َرِيم
مظاهرة
الحسكة
##لسي
الفستان
ستقام