[PAD]
[UNK]
[CLS]
[SEP]
[MASK]
!
"
#
$
%
&
'
(
)
*
+
,
-
.
/
0
1
2
3
4
5
6
7
8
9
:
;
<
=
>
?
@
[
\
]
^
_
`
a
b
c
d
e
f
g
h
i
j
k
l
m
n
o
p
q
r
s
t
u
v
w
x
y
z
{
|
}
~
¡
¢
£
¤
¥
¦
§
¨
©
ª
«
¬
®
¯
°
±
²
³
´
µ
¶
·
¸
¹
º
»
¼
½
¾
¿
×
ß
æ
ð
÷
ø
đ
ı
ł
œ
ƒ
ə
ɪ
ʶ
ʼ
ʾ
ʿ
ˆ
˙
˚
˜
˝
α
β
γ
δ
ε
ζ
η
θ
ι
κ
λ
μ
ν
ξ
ο
π
ρ
ς
σ
τ
υ
φ
χ
ψ
ω
а
б
в
г
д
е
ж
з
и
к
л
м
н
о
п
р
с
т
у
ф
х
ц
ч
ш
щ
ъ
ы
ь
э
ю
я
ђ
є
ѕ
і
҉
қ
ҳ
ա
ն
א
ב
ג
ד
ה
ו
ז
ח
ט
י
ך
כ
ל
ם
מ
ן
נ
ס
ע
ף
פ
ץ
צ
ק
ר
ש
ת
װ
״
،
؛
؟
ء
ا
ب
ة
ت
ث
ج
ح
خ
د
ذ
ر
ز
س
ش
ص
ض
ط
ظ
ع
غ
ـ
ف
ق
ك
ل
م
ن
ه
و
ى
ي
٠
١
٢
٣
٤
٥
٦
٧
٨
٩
٪
٫
٬
٭
ٱ
ٲ
ٳ
ٶ
ٹ
ٺ
پ
چ
ڈ
ڑ
ژ
ڛ
ڠ
ڤ
ڨ
ک
ڪ
ڬ
ڭ
گ
ڳ
ڵ
ڶ
ڷ
ڸ
ڹ
ں
ڼ
ڽ
ھ
ہ
ۃ
ۅ
ۆ
ۈ
ۉ
ۋ
ی
ێ
ۑ
ے
۔
ە
۞
۩
۰
۱
۲
۳
۴
۵
۶
۷
۸
۹
ܐ
ܔ
ܕ
ܘ
ܝ
ܠ
ܡ
ܢ
ܪ
ܬ
क
न
र
ल
स
ा
ि
ी
া
ஐ
ஜ
த
ி
ೂ
ೕ
ก
ค
ง
ช
ด
ต
ท
น
บ
ป
ม
ย
ร
ล
ว
ส
ห
อ
ะ
า
฿
เ
แ
โ
ไ
๑
༄
ღ
ჲ
჻
ᄀ
ᄂ
ᄃ
ᄅ
ᄆ
ᄇ
ᄉ
ᄋ
ᄌ
ᄎ
ᄐ
ᄒ
ᅡ
ᅢ
ᅥ
ᅦ
ᅧ
ᅩ
ᅮ
ᅳ
ᅵ
ᆨ
ᆫ
ᆯ
ᆷ
ᆼ
ᴍ
ᵜ
ᵤ
‑
–
—
‗
‘
’
‚
“
”
„
†
‡
•
…
‰
′
″
‹
›
₩
₪
₫
€
₹
℃
ℓ
™
←
↑
→
↓
↙
↵
−
∙
√
∫
≈
≡
⊰
⊱
⋘
⌐
│
┈
═
╔
╗
╠
╣
▂
▆
█
▌
░
▒
▓
■
▣
▪
▫
▬
▲
▶
▸
►
▼
◀
◂
◄
◆
◊
○
●
◕
◢
◣
◦
☀
★
☆
☎
☏
☜
☞
☰
☺
☻
☼
♔
♕
♛
♠
♡
♣
♥
♦
♨
♩
♪
♫
♬
♭
⚐
⚑
⚛
⚜
⚠
⚡
⚫
⚽
✅
✋
✌
✍
✎
✒
✓
✔
✦
✨
✲
✽
✿
❀
❊
❌
❖
❝
❤
❥
➖
➞
⟰
⠀
⦁
⬅
⭐
ⴰ
ⴳ
ⴷ
ⴼ
ⴽ
ⵉ
ⵍ
ⵎ
ⵏ
ⵓ
ⵔ
ⵖ
ⵙ
ⵜ
ⵡ
ⵣ
、
。
《
》
「
」
【
】
あ
い
う
お
か
き
く
け
こ
さ
し
す
そ
た
ち
っ
つ
て
と
な
に
の
は
ま
み
め
も
や
よ
ら
り
る
れ
を
ん
ア
ィ
イ
ウ
ェ
エ
オ
カ
キ
ク
ケ
コ
サ
シ
ス
ソ
タ
チ
ッ
ツ
テ
ト
ナ
ニ
ハ
ヒ
フ
ヘ
ホ
マ
ミ
ム
メ
ャ
ラ
リ
ル
レ
ロ
ン
・
ー
ㅤ
一
万
三
上
下
不
世
业
个
中
为
主
乂
乐
九
了
事
二
亚
京
人
代
以
优
会
体
作
保
信
元
入
全
公
内
册
冠
出
分
利
到
前
力
加
动
化
区
十
华
博
发
取
可
台
司
合
名
和
品
国
在
地
场
址
城
备
多
大
天
太
女
好
娱
子
学
安
官
定
宝
家
宾
富
小
山
川
州
工
市
平
年
开
彩
律
得
心
情
成
我
户
所
手
技
投
文
斯
新
方
日
时
明
星
是
時
最
月
有
本
机
来
比
水
永
沙
法
注
洲
海
澳
牌
物
玩
现
球
理
生
用
田
电
百
的
皇
盈
真
石
社
神
福
立
站
级
线
络
网
美
者
育
胜
能
自
菲
行
西
要
誉
語
评
豪
赌
道
部
都
野
金
钱
门
阳
际
香
马
高
龙
ﭑ
ﭬ
ﮐ
ﮔ
ﮧ
ﮪ
ﮯ
ﯛ
ﯾ
ﯿ
﴾
﴿
ﷲ
ﷺ
ﹰ
ﺀ
ﺂ
ﺃ
ﺄ
ﺆ
ﺇ
ﺋ
ﺌ
ﺍ
ﺎ
ﺏ
ﺐ
ﺑ
ﺒ
ﺓ
ﺔ
ﺕ
ﺖ
ﺗ
ﺘ
ﺛ
ﺜ
ﺝ
ﺟ
ﺠ
ﺣ
ﺤ
ﺧ
ﺨ
ﺩ
ﺪ
ﺫ
ﺬ
ﺭ
ﺮ
ﺯ
ﺰ
ﺱ
ﺲ
ﺳ
ﺴ
ﺷ
ﺸ
ﺹ
ﺺ
ﺻ
ﺼ
ﺽ
ﺿ
ﻀ
ﻁ
ﻃ
ﻄ
ﻈ
ﻉ
ﻊ
ﻋ
ﻌ
ﻏ
ﻐ
ﻒ
ﻓ
ﻔ
ﻕ
ﻖ
ﻗ
ﻘ
ﻙ
ﻚ
ﻛ
ﻜ
ﻝ
ﻞ
ﻟ
ﻠ
ﻡ
ﻢ
ﻣ
ﻤ
ﻥ
ﻦ
ﻧ
ﻨ
ﻩ
ﻪ
ﻫ
ﻬ
ﻭ
ﻮ
ﻰ
ﻱ
ﻲ
ﻳ
ﻴ
ﻵ
ﻷ
ﻸ
ﻹ
ﻻ
ﻼ
！
（
）
，
：
＠
￼
🇦
🇧
🇪
🇭
🇮
🇲
🇴
🇶
🇸
🇾
🌟
🌷
🌸
🌹
🌻
🍃
🏻
🏼
👇
👈
👌
👍
👏
💐
💔
💕
💖
💗
💙
💚
💜
💥
💫
💯
📌
📱
🔥
🔴
🔹
🕔
😀
😂
😄
😅
😉
😊
😍
😎
😘
😭
😱
🙁
🙂
🙏
🤣
🤩
##س
##ا
##ح
##ل
##و
##م
##ض
##ة
##ت
##ك
##ر
##ي
##ن
##ع
##ب
##ف
##ق
##ط
##ه
##5
##ء
##۰
##ص
##غ
##ы
##с
##а
##д
##к
##0
##3
##1
##4
##8
##9
##6
##خ
##ش
##ز
##ـ
##د
##ث
##ى
##e
##i
##m
##n
##g
##u
##ج
##گ
##a
##l
##y
##t
##o
##h
##ذ
##v
##r
##s
##2
##7
##k
##f
##ظ
##b
##ک
##c
##d
##z
##б
##з
##о
##р
##е
##л
##і
##т
##ﻟ
##ﻔ
##ﺴ
##ﺎ
##ﺩ
##w
##ﻻ
##ﺗ
##ﺠ
##ﻩ
##p
##q
##٣
##٠
##ь
##♥
##ܔ
##и
##я
##α
##τ
##σ
##η
##μ
##ο
##ς
##ی
##в
##ᅵ
##ᄀ
##ᅥ
##ᄂ
##ᅡ
##x
##j
##💖
##フ
##ィ
##リ
##ร
##ะ
##เ
##ท
##ป
##น
##ı
##™
##°
##ג
##ﻤ
##ﻮ
##ﺳ
##ﻴ
##ﻘ
##ﻲ
##ﺧ
##ﺿ
##ﻌ
##پ
##٩
##٧
##ч
##シ
##ス
##や
##ト
##レ
##ー
##を
##し
##て
##ら
##め
##き
##ク
##イ
##ڠ
##п
##х
##چ
##❤
##コ
##ヒ
##た
##テ
##キ
##ヘ
##る
##ە
##と
##っ
##も
##क
##स
##ल
##ि
##н
##ﺤ
##ﺭ
##ﺓ
##ﻋ
##ﻷ
##ᅮ
##у
##ھ
##®
##✋
##ж
##ф
##は
##り
##ﻄ
##⠀
##ﺔ
##ﺣ
##٦
##٢
##ڪ
##ﻭ
##ﺟ
##ﻪ
##г
##ﻐ
##ﻠ
##ﺐ
##ア
##ҳ
##ッ
##ש
##✓
##ﻣ
##ﺘ
##ﺮ
##ﻛ
##٥
##٤
##м
##ﻳ
##ﺕ
##に
##ロ
##٨
##ю
##ﺒ
##ﺻ
##µ
##¯
##±
##۱
##۸
##צ
##ר
##ת
##ﺸ
##ﻦ
##★
##¤
##ٹ
##£
##ں
##マ
##☼
##◄
##۩
##🇸
##ﺑ
##ﻗ
##र
##ェ
##ᅩ
##ᆨ
##ᄆ
##ᆯ
##ᄌ
##ᅦ
##۳
##۹
##ٳ
##ۋ
##ン
##￼
##ڤ
##ﻵ
##の
##よ
##う
##¦
##♠
##ν
##ι
##κ
##ε
##ᅳ
##ᆼ
##ᄉ
##ᆷ
##₪
##١
##ﻡ
##ﺇ
##ﻥ
##ﺌ
##ﻞ
##い
##ˆ
##ﮧ
##ﮪ
##ﻹ
##ⴰ
##ﻨ
##ﻬ
##ﻢ
##🌸
##²
##ﺨ
##ﺼ
##ﯿ
##³
##ﻓ
##ц
##×
##💫
##ᄋ
##´
##な
##✔
##タ
##●
##😄
##ﻜ
##ۆ
##ﺰ
##ð
##ڽ
##ו
##מ
##י
##ם
##ி
##ﺪ
##ย
##ด
##ม
##ρ
##ے
##ω
##ஐ
##˚
##¨
##נ
##ע
##█
##▓
##▒
##░
##ﻁ
##ה
##こ
##ۃ
##ん
##😘
##🌹
##🤣
##😂
##อ
##ต
##ว
##า
##ค
##บ
##ᄎ
##ڈ
##ﺲ
##カ
##ﺯ
##ก
##ﺍ
##ﺏ
##ง
##ล
##ﻃ
##ہ
##ш
##れ
##ﻝ
##โ
##ช
##ﮯ
##ܢ
##ﻫ
##エ
##👇
##ٱ
##۞
##๑
##ﺖ
##ﻉ
##א
##ק
##ﹰ
##ル
##ミ
##つ
##ﻼ
##ﻀ
##ﻊ
##−
##ﺱ
##¸
##❝
##ז
##🏻
##💔
##ﻧ
##θ
##ø
##۷
##ᄇ
##ᄅ
##λ
##ﺋ
##ט
##ژ
##ﺄ
##ﺬ
##👍
##€
##¬
##👌
##😍
##ラ
##ª
##º
##ﻰ
##щ
##β
##۴
##۲
##🔥
##ส
##ב
##ח
##ζ
##ٺ
##ﻒ
##ל
##ち
##🇪
##ᄐ
##ᆫ
##ﭬ
##ℓ
##ﻈ
##ᅢ
##ᅧ
##ᄒ
##❌
##ڭ
##φ
##γ
##ڬ
##ム
##サ
##す
##✌
##ł
##¾
##¹
##か
##π
##💕
##ə
##ⵏ
##ⵎ
##ס
##♡
##ڷ
##ۈ
##☺
##¥
##œ
##ա
##ն
##ャ
##◆
##◣
##υ
##δ
##✨
##そ
##み
##お
##チ
##ד
##ۑ
##ﻕ
##ケ
##ま
##э
##ღ
##🏼
##ᄃ
##ﯾ
##ナ
##ﺷ
##ﺺ
##オ
##ٲ
##❀
##˝
##¼
##ן
##ⵜ
##ڵ
##さ
##あ
##ڳ
##ウ
##ڨ
##ܬ
##ܕ
##☞
##đ
##є
##ƒ
##æ
##ٶ
##ﻖ
##ܪ
##ܐ
##ξ
##🇧
##🇭
##כ
##ハ
##😀
##ﻏ
##ﻚ
##ﺃ
##ﻙ
##ף
##۶
##ा
##ܡ
##ܠ
##ܝ
##メ
##ニ
##ी
##ψ
##け
##ホ
##ㅤ
##😭
##😱
##÷
##ڑ
##ێ
##💙
##🇦
##☆
##ソ
##ไ
##ß
##ъ
##■
##◦
##ห
##แ
##く
##ﻸ
##ѕ
##া
##פ
##😊
##©
##►
##🔴
##ﻱ
##🌷
##🍃
##ﺀ
##न
##👈
##💜
##ﺝ
##ܘ
##ⵙ
##ⵍ
##ⴷ
##👏
##χ
##۵
##ڼ
##ツ
##❥
##ﺹ
##⬅
##⭐
##▆
##▂
##▶
##ﺜ
##💐
##🌻
##🇲
##ʿ
##💚
##ﮔ
##ɪ
##қ
##ﷺ
##℃
##ʼ
##¢
##ﭑ
##♩
##ﯛ
##ﺫ
##│
##ﺆ
##ђ
##🇾
##½
##ⵔ
##☜
##🙂
##ۉ
##ﺽ
##◊
##→
##ﺂ
##😅
##ஜ
##ڛ
##ڹ
##🌟
##˜
##த
##↑
##҉
##✅
##₩
##💗
##ﮐ
##♪
##♨
##┈
##ץ
##♫
##🙏
##💯
##ﺛ
##▌
##○
##←
##ⵓ
##🤩
##😉
##😎
##ⵖ
##♛
##ⵉ
##▫
##▬
##🇴
##🇶
##ڶ
##ۅ
##📱
##↓
##❊
##✿
##♭
##▲
##∫
##▪
##♣
##≈
##⚫
##♔
##╔
##☻
##♦
##❖
##╗
##═
##♕
##ೕ
##☎
##ﷲ
##💥
##ⵣ
##ᴍ
##ڸ
##✍
##🇮
##◀
##ך
##⚡
##≡
##√
##ೂ
##⚽
##ⴼ
##🙁
##ⴳ
##◕
##☀
##∙
##↙
##✦
##ⵡ
##🔹
##✲
##ʾ
##⚠
##╠
##╣
##▣
##✒
##◢
##ᵤ
##♬
##ⴽ
##📌
##➖
##✎
##☰
##฿
##▼
##ʶ
ال
##ال
##ية
##ات
الم
##ان
##ار
الا
##ين
في
من
##ام
وال
##ول
##ير
##ها
ان
##ون
الع
##را
عل
##ري
الت
##اي
##اب
##ما
##ست
##اد
##ور
##اء
لل
على
##لي
##دي
##نا
##وا
##بي
الس
##لا
الح
##يا
بال
##وم
##هم
عن
الق
##يل
الش
الج
##مل
##ــ
الن
الل
##دة
الب
##اع
الد
##اف
الى
##ذا
مع
الف
##رب
##رو
##رك
##لك
##يم
لا
الك
##لم
##يد
وا
##وق
##سم
##بر
الخ
##عة
او
##عد
##قة
الص
##رة
##يه
##من
##ود
##يس
بن
وت
##قد
##يف
##عل
اخ
الله
ما
20
##حم
##تم
اب
##دى
##بة
##اس
##وس
##كن
##يع
##مة
##رف
##يت
##سل
##نت
##حة
الذ
الان
##دا
##لة
##كت
ام
##اص
التي
##حت
اي
##اني
لم
##رج
201
الط
كان
##كر
##وف
##كل
##يات
##بل
تع
##ارة
##با
##حد
##ذه
##وت
اس
##er
##جم
است
##ني
##اه
##قي
المت
وم
##جل
الو
الام
##سي
والم
هذا
##اض
##جه
##وب
الث
##يز
##كم
##قت
الر
##في
##وع
##الم
وه
##نة
##دم
كل
منت
##اج
##وي
##صر
##حي
##شر
##بد
##صل
مت
##بار
##قل
العين
##حمد
الي
##لف
##سب
##يرة
مش
##كون
##رض
اع
##ته
بعد
##عي
##وج
##لال
قال
##اري
هذه
##ارات
والت
بين
##ورة
الذي
##راء
##رن
##قال
##رت
علي
اف
##سة
##اح
مط
وس
##ليز
##وات
##انية
##رق
الري
##ادة
تح
##يب
##فس
##لب
##هر
مح
##خص
##وض
##عم
##ظر
مس
##اط
##وك
عليه
اخر
هو
عمل
##ــــ
وب
الاخ
##خل
الار
##هد
##كة
##دين
الاس
##در
##امة
وان
قسم
يت
##كان
##ركة
الز
منتدى
لت
##ربية
##اق
##وقع
المن
##وز
جم
تم
اك
يع
بم
بع
تق
ذلك
##ولة
##ند
له
عم
عند
##الي
الغ
##طة
##ديد
##وى
عبد
##وية
المع
الاست
ول
وع
##وري
##الة
بل
المنت
##وان
##ثر
المس
اله
المش
تص
##ليم
وي
##عية
##كية
##لام
ولا
##فر
##نية
##خت
##از
##عب
##افة
اد
انه
##ايل
للم
##يون
يم
##رح
##ur
##ريق
بت
##ضاء
كما
مست
##ذلك
##امج
محمد
##عا
به
##فت
##at
##جد
مطار
غير
##بت
تن
##حدة
##رار
##ضل
قد
ري
با
##الية
##طف
##رد
خلال
اليوم
اص
تت
الاول
##ثل
اح
فى
البي
##as
اذا
سي
لان
##on
عملية
##سلام
المست
##بع
##ar
##تى
المح
##اش
يق
##يث
##تي
اج
##كس
##زة
ون
العالم
مج
##رات
قبل
##فة
##قط
اش
التع
عام
يوم
النظر
##راف
##تها
##قات
مد
فان
لي
##بن
##00
العام
ومن
الال
هي
##وال
##رم
كت
ثم
##صال
ات
##فع
وق
##كي
##ادي
بش
تش
##سية
ابن
##وة
##اصة
##بات
حتى
##واق
بد
##جلس
##رون
اق
الليز
##ger
sur
الاج
بح
##لى
عد
##يان
##طل
##اك
بان
##بية
الجم
##قا
##تما
##صف
2018
وز
الرا
وج
##ابة
##له
للت
وح
##ثير
الاد
surger
##لت
يمكن
انت
##بح
اض
السع
الدول
surgery
##يك
بعض
حيث
##قدم
وهو
##ربي
المج
##ومة
##وار
##طن
##به
##ديث
##امل
وك
##اخ
بالم
##اير
اول
العربية
تس
مص
حل
##ضا
ست
##دينة
حول
وف
19
هنا
الاسلام
##رى
las
##in
ابو
##حيح
##سن
المص
تج
##سات
الشب
##طفال
النا
مو
##or
##ورية
##طر
الض
المو
##مال
يج
##عر
كانت
##اريخ
رييس
المنتدى
جميع
##حن
##عت
##صول
##اة
##ريد
##غير
##هل
احد
بر
فيه
##ينا
##سط
##خد
##زل
##ديدة
##ياه
##جة
##خدم
##ايية
وفي
ين
##شار
السيا
##بير
##ايات
العمل
اث
المتحدة
شي
##صة
الات
##an
##ركز
##راي
الرييس
##ac
رس
##سان
##شف
يكون
يح
مق
##es
##وعة
فت
شركة
والع
##لاح
##انون
وقد
المد
##en
الرياض
##غة
##يو
##لاث
تط
الموا
##رين
##وله
##شي
بها
البح
صلى
##ودية
##ارية
##ديات
##راق
الانت
اكثر
##قى
التح
حد
##عات
##يلة
افضل
##ليل
الشي
##طقة
وقال
سن
اعل
##عف
##ارج
##ماء
##رس
ابي
فيها
##وه
##يني
##كات
والا
##انات
##وضوع
ولك
##وح
الاطفال
##يش
الليزك
موقع
##ودة
##ويت
مصر
##رية
الاش
##ظام
##ران
المخ
##واء
10
وكان
بق
##عيون
فل
ey
##اعة
##قم
##al
##ختلف
##ريم
##فل
##كا
##هما
##زي
##ديم
وسلم
نفس
##وص
##جيل
لك
##ومات
الكت
##واقع
مجلس
##راج
الول
لكن
##ايق
مثل
للعيون
جن
##مان
الماء
##افظ
ايضا
##رام
##ريف
بالت
##راض
تحت
##رير
##ظيف
اغ
وش
##خدام
الحك
بك
ولكن
11
دول
عدد
##سين
يد
##ودي
##ظم
##رش
##سبة
نق
يست
الجن
##وير
الاعل
##الى
مم
تد
##ضع
الخاصة
##طي
##حات
##طية
eye
المق
##فا
العم
##عار
لع
الرو
لن
شب
اط
المنا
##عين
##يج
احمد
الاح
لو
##جهزة
##نى
موا
يش
حق
الوط
##قتص
والح
##اخل
الاف
دون
خط
##لاق
يتم
السعودية
ضعف
الصح
co
البل
يس
المياه
##ـــ
المغ
##ايي
##اث
##ارس
##ايد
لها
##جمع
اخت
##بط
##قيق
تف
اخبار
##ضيع
بط
##حدث
فقط
##st
##قاء
اذ
يا
##اعد
##خول
اما
لح
نت
##زيد
سب
##واب
الاق
الدين
السل
مكت
##زم
عبر
##اما
الصف
ود
القرن
##راه
العامة
فه
##فاع
الاع
الذين
اعت
صور
التن
##ساب
##راة
12
##ركات
##امعة
##رفة
##ضي
##كتور
##وث
اخرى
موس
##ياة
الشيخ
بشكل
حلقة
تست
##كري
200
##رنامج
##ذكر
##رع
تكون
مل
##وسط
سم
##ايا
انها
##act
##ينة
بي
ليس
##جر
عليها
الموقع
##ناء
##لات
سل
وما
14
منه
##اذ
وهي
##حو
##وول
##فق
##ليات
laser
منها
##الث
##كترون
##ايف
هناك
##يمة
الناس
##ادية
##الات
##ايب
الشبكية
##صد
##روض
##غي
الجز
##انا
##مر
ترك
المه
##بيض
##سا
##ed
##بيع
وخ
##مار
الاجتما
##الب
بالليز
##لق
##انيا
##سبب
##راد
والن
الوق
العلم
التج
السي
والس
نوف
الولايات
عنه
التق
cat
##سجيل
##ic
اهم
##ادر
##ارت
##نين
##ديو
دي
الرس
الابيض
البيضاء
##روع
##وما
##اضي
وص
##دية
الالكترون
ولي
##اهد
شخص
انف
##ion
منذ
وذلك
رم
##نان
##ضر
##لاج
تعالى
##مت
##am
وقت
##ملكة
الاولى
##جموعة
اكت
##عمل
hd
رسول
##يام
##تمع
العل
##is
ملف
واع
##aract
##يفة
cataract
##سلسل
تصحيح
تلك
لبن
قط
جز
##زب
مخ
##جز
والش
امام
سنة
15
##وط
##عيد
اليه
ذكر
##ضة
##it
للح
العيون
العربي
الثاني
##ره
التعليم
بالليزر
##راك
##حراف
تب
##ظيم
ملي
التص
اه
الوز
عب
بس
فقال
##ريب
##اقة
##واصل
راي
##حاد
##الت
الاث
مه
##شرة
زي
##ابات
##اول
##em
##كو
سيا
السلام
##زيز
فقد
صح
##نوات
##ذي
كم
كتب
والد
الرج
##يران
##ik
رقم
##باح
العد
##غم
##يرا
وط
##حميل
بما
##سام
##يين
##حاب
احت
صف
##ad
##ورات
##غط
الملك
##ارك
مال
تخ
##لية
##اتي
##قب
##لمة
##وريا
نقل
بيت
##ميم
القرنية
ولم
##ويل
لما
##روف
واب
كتاب
باب
انا
عبدال
الساب
##مبر
الموضوع
مما
مدينة
الحكومة
يقول
الحل
وعل
##ايم
عيون
قوله
##ــــــــ
عالم
والص
اسب
هل
##مس
##قه
برامج
اسم
الحديث
الثالث
##اته
حدث
فلا
مشار
يجب
اليم
##طب
الامري
العاب
داخل
##وقف
وجه
##ضو
##صار
كيف
##ro
واست
اجل
بج
الفل
2017
##واج
اللغة
##وش
##ساء
الانسان
##ريقة
##وبة
برنامج
طريق
##ونة
كنت
##ورو
##ديل
13
الامن
وهذا
##دمات
نوفمبر
##دمة
##بيرة
فيما
الخط
جدا
##الف
مك
الاقتص
##يق
حم
استخدام
السنة
##ضم
جديدة
##بيب
##لاة
لج
##صي
##قبل
##ايج
واحد
مركز
##فاق
اهل
البر
##هور
##رنت
الفت
والتي
علم
ثلاث
##احة
لهم
##يزة
##قيقة
##منت
تاريخ
##انت
##جات
الاسب
ار
##ينية
##حق
واض
##لاف
##اية
مختلف
##انب
##جي
##شد
الاحت
عمر
##قول
lasik
##ظهر
##راييل
الاز
##است
الشر
ماي
الاسلامية
فال
از
للس
لبنان
الدولة
##رياض
حال
الامر
##بيق
شهر
##فظ
البحث
##ربة
اضرار
##صور
النبي
##ec
التش
ارت
##نع
18
الوقت
منتديات
انفصال
وغير
كبير
الدم
##داد
##حية
##الد
##صرية
العق
الاص
##قايق
عرض
حديث
والج
دولار
المعل
بيان
بالن
رج
تك
والق
الليزر
##عمال
##امي
##طان
ادارة
الخارج
##هاب
##روس
عندما
مب
##وتر
##وبية
الشعب
والف
##ظمة
16
##بلغ
طلب
##يانة
##هي
طب
##افية
لدي
يص
##شة
عدم
جديد
##اهرة
كثير
##ve
##واد
نس
##اكل
##بيل
الـ
2016
والخ
##هدف
القران
##افظة
##ent
واخ
##واع
نج
انحراف
تو
خاصة
##اتب
##وجد
ملفات
فن
##ارب
عق
للع
باس
مكتبة
العراق
منطقة
الارض
##تك
يون
##et
مسلسل
##وبر
الطب
##ri
##ملة
قانون
فع
الرح
مبار
رب
حك
شيء
مجموعة
##اهدة
سوق
##ابل
للش
الوطني
يف
بدا
المشار
##يلي
وزارة
المملكة
وعلى
اجهزة
واس
##لاب
##re
##بيا
الكويت
الامير
##ده
##ابعة
الفرن
المراة
التد
قام
الاب
الفلسط
القانون
الدرا
##تبر
##فض
##يار
وزير
##جميع
عشر
نص
الكريم
##مية
17
##طال
الموس
##ماية
خاص
نحن
تل
الخاص
الثلاث
##راهيم
##وء
فر
المواضيع
الاك
##هاز
##وفر
##غل
بص
حين
##هورية
##جن
تحميل
الصفحة
اللبن
##ابع
الحق
##قر
##مو
الشخص
##املة
##طار
##دات
يخ
##لمين
السود
##كرة
الدكتور
نف
بسبب
اعمال
##الح
لق
المخرو
##انة
##طق
المال
دقايق
الاخبار
وجود
##ناة
##ادات
ور
الثانية
##ترا
##مي
جاء
المركز
##ضية
الجديد
لس
##حل
مث
##ماع
##le
ضد
الوا
ذات
تقدم
فا
##باط
فرن
جه
##رجة
لد
ومع
##ولوج
ند
مف
##احب
##برا
##دت
##عى
in
قل
##افي
##ورا
##طيع
باست
بير
##طات
المنطقة
الحياة
##اتف
##تح
الثق
دين
المدينة
##يدا
##علق
##اعدة
شبكية
##اعات
مدير
مكان
الكثير
##بيوتر
##طلب
##هب
قص
##ريط
التط
مجال
##تين
##دن
اللي
مبا
##كار
بالق
مرة
نظام
الظ
##ايه
الجديدة
25
##وني
الرييسية
##رر
##رحلة
الحد
عمليات
حالة
##هرب
الوطنية
القط
##ايمة
كبيرة
ضمن
لش
تقوم
وتع
بكل
لدى
رد
نحو
##يادة
##داث
##جا
ابراهيم
العرب
بار
##oo
المعلومات
##همة
##لتقى
##صوص
الشعر
ايام
المب
اكبر
امن
يب
##جليز
سوف
التاريخ
دولة
الامارات
##ادل
نفسه
وث
##el
##ولي
ينا
##ont
##ضان
وتح
لقد
الطبي
ليز
هم
نشر
يحت
##قق
com
الدولي
ريال
المخروطية
القد
##طلق
وام
جامعة
التف
قت
الحم
21
التى
مشبات
##ومي
##هار
##ليا
##ing
بو
سلم
تر
##اصيل
##ويات
##تمر
##خب
بالرياض
##عه
مض
الهند
##جهة
##كتب
اللا
##فال
وضع
2015
30
موضوع
دور
لانه
لكل
الماضي
ارب
##ظة
سير
##ai
حسن
نها
##ومية
روس
##سكر
حساب
##ظايف
##ot
24
المجتمع
##بحث
الاعلام
th
##راب
للن
الشرق
جل
مر
الامام
يمكنك
##هن
##تد
##عاون
##فيذ
##حا
الانترنت
##ضمن
خارج
الاتحاد
2014
##ou
##شاء
##شاركة
التس
كن
الجزاير
بخ
محت
مواقع
##امين
##رجم
الالكتروني
الاط
المصري
##خصص
##تهم
العديد
النظام
الاخرى
##ادرة
##جاج
##امات
of
##كال
فريق
انك
لكم
an
راس
نظ
الرسم
واحدة
والان
الاعضاء
خلف
ريا
العالمية
عين
اسراييل
الشع
النق
##بول
لاع
شر
الصور
مسوول
##شات
وات
for
امر
الجيش
البصر
الاربع
##جب
دع
كافة
درا
اجتما
##اعر
انواع
القسم
فهو
##عرض
معل
##ذب
وعد
##ياس
##درسة
اصحاب
##صب
منهم
حقوق
##باب
##اضافة
تجمع
##om
st
تنا
السيد
حسب
لاب
سع
مليون
##ub
الاسلامي
لـ
##ورد
سنوات
المجلس
##عداد
قدم
الكتاب
رمضان
ارش
المغرب
##غيير
الاخيرة
##شن
##باء
##ra
اون
##نف
للد
2013
##نيا
التربية
اكتوبر
مستوى
بيع
الخارجية
الشركة
##اند
##خة
خدمة
لنا
##ation
السياسية
##يية
مز
روا
الشم
البن
الاعمال
##غب
الامريكية
الحول
##اا
الترك
والث
##ستان
بول
ويت
كون
تز
وليس
عز
##تنا
الاتصال
مار
فعل
فيديو
##كلفة
##وكد
##وتي
##ابت
عاي
المم
##وضع
##شفى
##انه
حزب
##اسية
##ol
النف
##قالات
المنتديات
مغ
##راءة
مشروع
22
الخم
بدون
المل
عليهم
##روحات
مشاهدة
##ذر
##ويا
وكل
##بارات
##رعة
100
للق
##طاء
الفي
شع
التواصل
سيد
##جاز
اضافة
دم
والاست
pm
بالع
##صري
##بيه
الرسايل
نوع
باع
##قية
بناء
##فسير
الرب
الكم
المحت
بات
بالح
##امن
واد
صد
##لمات
الدولية
##فش
واح
امس
يول
سوريا
##id
##ناه
al
سليم
قول
##وون
تعليم
يكن
ملتقى
المر
الجمعة
##واجد
القص
المسي
كال
مرت
القنوات
المف
الجل
الاغ
وكذلك
##اده
واك
##قتل
تطبيق
عنها
##خابات
اللج
الاه
##عام
##ov
صلاح
باي
الحي
يعني
##امر
فض
##تمد
وار
مي
الحلقة
الدولار
فلسط
##ياب
##راح
دار
رحم
##يري
am
##تيجة
لله
محم
واف
##عاية
يقوم
مول
##ريك
##فاء
الدخول
انس
العب
صباح
بور
الصلاة
##20
هول
##ضور
بلا
التسجيل
##ولات
##زا
والاس
واي
سواء
تغ
لمن
##ثم
##دينا
زوج
الانجليز
للبيع
##غيرة
##رقاء
نع
##رص
بنفس
وعلا
بالد
السعودي
الداخل
صحيح
##اله
##كيل
خدمات
الخام
##ذهب
23
والذي
واق
##شرين
##ثة
##وسف
الخلي
##خر
##زن
بف
##ter
##روط
##اجة
حدثنا
لاي
نش
المواقع
وض
##ريل
يك
##ارع
السوري
دا
الجه
العلا
هد
الحصول
##كام
##وين
عليك
عروض
##انوي
والاع
الفن
لذلك
تنظيف
نظر
wa
##واي
البرامج
وبعد
##خاص
##عاب
عاما
01
##اسب
الشباب
##راحة
##سك
##um
صاحب
حي
توف
##ادق
الاربعاء
2012
داي
النج
##ملك
المز
ني
ليست
بغ
الدي
المط
عدة
بري
وين
##اهر
العلوم
الادارة
##روج
بـ
تقديم
##ناعة
رضي
##os
##قرا
بالاضافة
باسم
##هداف
كث
ساب
ارض
سعيد
المسلمين
اصد
##يته
##اغ
المزيد
والتع
ويع
اسعار
المالية
المسوول
الجام
##خي
الاجتماعي
##حب
السن
السياسي
المواطن
re
##غيل
مساء
##ويد
##خذ
بني
الثالثة
##وبي
المستخدم
صوت
##جاب
كلمة
is
##شق
##كلة
السابق
المصرية
ارشيف
وصل
السيارات
##فات
##كنولوج
الرجل
##بس
##برة
##ماعة
بلغ
الساعة
الوطن
##بعة
##راث
سعد
تطوير
ته
المشت
##ادم
##وجه
##ياء
اند
اليمن
##رجمة
##ريقيا
المتم
يل
##رييس
الصحة
فيلم
جد
##24
حيات
##راع
للمنت
##كمة
##عض
##هير
اثناء
الكمبيوتر
افلام
بهذا
##راعة
الرحمن
يسم
التم
البلاد
##طا
wave
تتم
الاعت
##وجود
رجل
##راءات
قرار
واضاف
قض
##يي
ولو
##سكرية
صيانة
والك
بالك
##ضح
##يرات
كذلك
##55
تصميم
##ايدة
##fr
الاثنين
تكلفة
لص
##ow
##فار
##سر
##ليق
الثلاثاء
##الك
الدع
##انى
الاجتماعية
جعل
الموسم
الزرقاء
##صالح
رشد
الاشترا
##وغ
تا
الحرب
##فية
الالكترونية
مشاركة
the
توا
2011
مواضيع
الراي
##il
واذا
لوحة
اسبوع
ht
##شل
الانس
مارس
pro
##اسة
عقد
يريد
كانوا
المبار
##هلا
##فن
كاس
احدث
معه
المنزل
##us
ويم
فانه
يوجد
##ولا
##اصمة
##زه
##شرات
##لن
ماء
##ونس
##تمبر
وسط
العضو
طريقة
الصورة
##شا
##اتها
اليها
اختي
##كور
والله
فتح
النس
وبين
##قدمة
والب
المشاركة
رفع
اقت
امري
وجد
##افحة
تركيا
##اليات
للاست
وعلاجه
النب
بداية
يز
للج
اشهر
معا
دكتور
##ذة
##جية
محافظة
##وها
##32
28
افريقيا
الاحد
##مرار
rem
بالس
الخميس
ملك
اعادة
26
سبتمبر
امراض
الصوت
فوق
##ريات
##جار
وتن
##جاه
وعن
##per
السم
سورية
البيت
تحقيق
##فتح
##ag
صالح
الحسن
ينت
اساس
الخدمات
يه
جانب
البط
خالد
خير
القاهرة
رح
يوسف
را
فاذا
سعر
ثلاثة
##يط
بكر
##وعات
اسلام
##زين
##هاد
##خدمات
امير
لجنة
يعمل
مرا
الحب
جزر
الحكم
فلسطين
##خصصة
وكانت
##يمان
خل
نادي
##ارض
بالعين
جري
لاست
##حمل
انهم
##راتيج
##رفع
##صح
انما
حكم
##امية
27
الجامعة
##فاظ
اية
ليزك
جنوب
امت
##ويس
لتص
##front
##هادة
تعمل
wavefront
##دد
الابت
ثق
بذلك
المختلف
ترت
لغ
حب
##لاع
##جرة
##عو
صورة
##تمام
##الج
الحر
القدم
وتش
رغ
وصف
المث
##روب
يعرف
شك
سكس
##ch
##هه
السبت
وتم
والام
دايما
السوق
الوزراء
الاخر
مفت
اللجنة
##نب
ايران
وغ
قدر
جي
عبدالله
##im
لتح
بالنسبة
##ونا
طبي
النساء
الاسبوع
بالش
##داول
وحد
##78
نتيجة
##اقات
##ريري
##راييلي
الست
##ab
199
##لين
المواد
دعم
الجمهورية
مشاكل
##سون
##ليه
جنيه
مباراة
الاستاذ
##tp
معلومات
ديك
الفلسطيني
##ريح
شه
علاج
##يتي
متوسط
فح
هاتف
شكل
##ريض
يونيو
##الا
##ورت
اولا
يناير
والط
d8
sp
وتق
##ثمان
شركات
تحكم
لاين
##فير
##فو
pr
##ليقات
اعضاء
كام
واله
الالم
لاح
اقل
##تع
لهذا
##يتها
بالج
الساد
البشر
05
روسيا
##اسم
##ريس
##ابه
##والي
الاير
تعديل
##يزات
##ومن
نور
الفريق
قتل
الصين
##اكد
##علن
##سلحة
ابر
مترجم
قطر
##يفات
وير
برو
مادة
لقاء
مستشفى
واما
قناة
00
29
شرك
نز
يعد
##تر
##rip
##زيون
سيكون
##فين
يوليو
الاقتصادية
عفش
كامل
##ig
##ريع
##سكري
الديم
واص
كثيرا
داع
سليمان
المك
cost
الفض
مقابل
يمن
نتايج
##اكم
اللبنانية
##راز
للسنة
الكهرب
الدفاع
##وام
الداخلية
قري
جهاز
##رز
##طرة
##قييم
##un
الرد
##واس
العالمي
##كنولوجيا
يرج
##ابي
اللهم
بام
ثانوي
واج
الانجليزية
اطفال
مرض
##ثمار
الشه
##ديا
##وو
تسم
وهم
##تا
تفسير
رسالة
رسم
نهاية
سين
##نبية
بنات
الماض
رغم
غزة
والاخ
سيارات
##اره
موسسة
وظايف
##جميل
كاتب
الور
الشخصية
ظل
##عبة
اخذ
عنوان
للمنتدى
##رال
الكبير
عما
السودان
الازرق
مطل
اثاث
تعرف
تعريف
الشركات
الفيديو
الامريكي
العزيز
فمن
##ارق
العلاج
والل
##حر
##رجان
البلد
المفت
الزوج
الحبيب
##جمات
حركة
دينار
هولاء
##بال
دخول
ابريل
للاع
والمع
المختلفة
اكد
##ايع
عضو
##داء
##خف
##واعد
##حه
##ساد
remov
النها
الاردن
لات
دورة
بينهم
كلام
##ia
##ليف
##براير
الحوار
##اديم
الذى
##بدو
اني
2010
الاجهزة
##ـة
حسين
المرحلة
##سلة
ممكن
##ابط
الفنان
مايو
07
09
الدوري
الطريق
بث
قس
شرح
تمثل
محمود
عليكم
##ir
فبراير
##زام
##vis
##ay
الاشتراكات
الارت
وانت
البرنامج
##بين
جو
تنظيم
بيانات
##وحة
دخل
العلمية
طل
النار
##سطس
عالية
يو
الفلسطينية
ساعة
الكن
##خلص
تعد
وغيرها
مات
السورية
##op
بينما
##اخذ
يغ
##كين
كفر
الطفل
فترة
##سمبر
عنا
المنش
جمع
القوات
الامور
##قدر
لهذه
مشت
اتفاق
قالت
وانما
حكومة
50
شبكة
طي
اغسطس
##وانين
بمن
واخت
##اهم
##ريعة
الجميع
ديسمبر
الياب
بانه
الفترة
اثر
للف
##ـم
النفس
الرم
يط
##عون
الخدمة
##واة
##راس
31
تعرض
طرف
##صى
لذا
التجارية
##ندق
اثار
##ايلة
افت
النص
العن
كلية
تعلم
##واتف
عباس
قر
المتواجد
شهد
##عيش
اللبناني
التعريف
مدى
##est
مخت
##رفيه
##راقي
##رايب
02
http
##دل
##ابر
لف
##وسي
المناطق
شييا
القدس
##طوير
فق
قطاع
التخ
الامم
بالف
زيادة
حما
الاور
##ماعيل
والغ
واش
##رامب
##▬▬
##رافي
##برى
قوات
##ذية
شعب
المحلية
صحيفة
نقص
مختلفة
##ـي
هيية
اورو
##وكس
الفرنسية
and
يتعلق
الحج
مباشر
##وبات
الدنيا
##وجيه
اخبر
مباشرة
##هج
الحسين
قلت
المكت
والاج
000
##بيقات
الملف
القي
يقدم
##غال
صحة
##حين
الطبية
##قاومة
##لاك
##ولية
##حتى
القب
سه
يزيد
سبيل
وانا
جزء
##نه
الكتب
##حمر
اصل
احي
الماضية
الاحتلال
##يرية
يوما
الاسراييلي
المناسب
##كذا
##جاد
الها
عص
قلب
##ايها
##ناسبة
##وانات
##ثلة
##طفى
##ايت
##صفح
##اميم
القلب
مسلم
تض
يحي
##oc
المستوى
سبح
##ذج
نسبة
المتواجدون
تريد
البحر
##رفين
خم
##برامج
##ادت
##طور
##نج
خلق
فما
كيفية
موسى
الفني
##داية
الكترون
08
عمان
معرض
##اسي
##ox
ارد
06
لسنة
##زمة
##قوق
الخبر
باستخدام
اصبح
البريط
لانها
يعتبر
##يارات
قم
تنت
احدى
اور
حصل
در
40
##ويه
الباب
المجال
##وزيع
عامة
الفر
اشت
##سد
##ضافة
##يح
بنا
عش
##يال
الشريف
##صاص
##99
##نوعة
الصنا
عمرو
بشان
درجة
الالعاب
كشف
الطلاب
##ارد
##رسوم
##وشوب
للاس
الشاعر
سورة
صفحة
الاورو
بالب
محد
التر
المول
##جع
دبي
سك
اطار
03
ترم
قب
##وضح
الاخت
اللقاء
محتوى
هند
لمدة
الفق
وحتى
معظم
##قلال
ارتفاع
##ريا
##اعي
عربي
اير
##10
الشهر
الاسرة
##يسي
شعر
##وتوشوب
عربية
حس
##كوين
##فى
المطل
باك
فك
دفع
##ونه
عرف
البد
ورو
يذكر
ترامب
##فسارات
المشاهد
الخل
اننا
تسجيل
فهي
اهلا
ضر
##لفزيون
استش
##ندس
ورد
حمل
04
الاقسام
##وعية
الوس
خص
##يلات
اى
trip
وبالت
d9
##ويق
للتسجيل
##راجع
##ناك
حياة
عيد
وسي
قنوات
بيروت
##۞۩
طلبات
قايمة
سنويا
##ديق
##ايح
##اوي
بنفسك
##ارا
ومت
##خدمة
الانتخابات
بحث
##نيين
اكس
نعم
اعلان
ونحن
السكري
##visor
##اولة
تستخدم
##ظيفة
##حف
2009
##قص
##advisor
مكافحة
tripadvisor
الهيية
المتميزة
##حمة
##طيب
45
تكن
شمال
الحريري
##باق
##ارير
لعبة
العسكرية
##ذف
##كير
روح
##ايزة
مالك
الديمقرا
السياحة
عثمان
الرياضية
العليا
اهمية
##ارف
وعلاج
تمت
##يفا
##افع
بمع
بنت
اين
سام
وست
198
ولد
ad
##وخ
اعلن
لدينا
ch
الجوال
التعاون
الاقتصاد
شراء
البحرين
مكتب
##فعيل
التفاصيل
##ويلة
بالل
اقتص
##055
والاد
السب
ابناء
المقبل
زيارة
اطلاق
التخص
البعض
اعتلال
##ناية
والمح
اسباب
مظ
وسايل
##ينيا
تمكن
يجوز
لام
فلما
طالب
##327
حرب
الوصول
##قرار
##ابية
##قطع
بلد
##ايرة
الشمس
يعلم
للاط
##قلة
##سيق
cu
##واز
جهة
يصل
2019
اختيار
on
##ديه
##ديمة
##ah
كثيرة
##7824
removal
##7824327
وفق
القض
الاوروبي
بالخ
سود
المخت
##احث
##وبا
##راكز
##وره
##بعض
تجد
تغيير
جمهورية
طال
##og
الواقع
##منى
دروس
القطاع
دليل
##اسبة
النواب
مان
الصحية
##ستر
جمال
يجعل
تقرير
##0557824327
الرقم
للغ
فرنسا
مصادر
العلاقات
مناط
المواطنين
الاوسط
##بيت
##بيد
بالط
علينا
ويمكن
##ادث
خصوص
الرسمي
رو
فس
##تحانات
en
الادارية
##قبال
بالصور
سبب
لب
وبال
الرياضة
حاليا
##وجودة
الاثاث
الشمالية
والمن
قرية
الاحداث
لتصحيح
##ياز
رحمه
معنا
السلع
التو
المستقبل
فهم
الشعبية
dub
##يسة
الرابعة
##شطة
##وتيوب
العلماء
##زياء
التخصصي
##نس
اعلانات
ويب
وعند
##ew
المذ
الشرطة
التصميم
##نيف
العمر
للك
36
ير
##كلف
##واف
##ذين
بشر
تنفيذ
الغذ
##وارات
##ومنين
كي
##اكيد
##ـــــ
اراد
المرت
الرسول
##قوم
##يمي
قوة
wh
الجمعية
وكالة
نيك
بحي
نايب
##eb
البخ
زراعة
##ريبة
للحصول
##يره
##ليب
مناطق
وعدم
قضية
ممن
الخليج
وتت
فكان
تقول
##ced
سر
فلم
##عود
تحمل
pl
الامة
مواد
الدست
الحمل
السر
بالله
الارها
ph
جع
اوروبا
الابتد
##ذن
للا
الفصل
الموتمر
الدعم
الاية
ليبيا
35
المقد
وهذه
خلي
196
##وجب
الجهاز
وجل
##غات
##بغي
الحالي
sh
##ندي
##ابس
بتع
##اطر
الادب
الارهاب
امل
شرق
الجنوبية
بطولة
تونس
dubai
خرج
ثنا
محام
##ونت
cataracts
ترد
##ومان
##افا
##خم
الفنية
الوسط
الجما
برج
##وسع
تماما
اعلى
توق
ومش
النايب
الاتفاق
اجراء
##روح
اعد
##افات
السفر
وتس
البرلم
##لالة
قرن
##ونات
المادة
الايام
##عوك
انته
النظ
رجال
الوف
##هـ
محطة
##انوية
العاصمة
##عاد
جمعية
##ضرورة
الذات
##جوم
المكان
ركن
كرو
القت
شيخ
السلطة
المرض
الاسعار
العلمي
##لان
الاعلان
##راحات
##ـب
##رفض
##رويد
نب
سما
والمت
العملية
##ment
المشاهدات
مدة
اعلنت
الجسم
الارد
الحركة
التقنية
علوم
شروط
ارس
صغيرة
##كاتب
ظهر
الكلام
فم
##قلت
انشاء
الاض
مقالات
التالية
وله
وصول
ومس
جام
##ــــــ
وفقا
زاير
##اربة
ستار
الحزب
##فاف
بيز
القناة
سات
لكي
القر
##افر
رك
للام
دراسة
انط
المبا
نصر
كاملة
بهم
الاعلانات
الطعام
قطع
بهذه
##زوج
##غر
الرابع
القرار
تحديد
الحقوق
متم
لاف
سوال
وعلاجها
##ut
الكاتب
ip
##لبية
##كلات
##يلم
ابا
السف
الاصل
##حيط
قصة
الدورة
لمعا
لغة
##ورى
الشرقية
والمش
والار
مدرسة
اقسام
تناول
واشار
##خصوص
وذكر
قيمة
وو
##اعم
##وهات
##ناس
اسماء
رواه
تقييم
ارسل
رغبت
##شاط
##واقف
ياتي
ندعوك
والمس
اسماعيل
بواس
##كرم
البريد
الاقليم
##وذ
##اهل
الحس
الطي
##عددة
ارج
الطاقة
الارتباط
تاج
شان
##ناق
مليار
بسي
الاقتصادي
اعداد
تشكيل
##ul
الليل
##الجة
فات
الدمعية
حماية
قاي
##درية
مسي
لديك
فاع
انتاج
##تماد
صلاة
كول
عشرة
تاثير
##تراك
##خيص
##رويج
وجهة
##يزم
المسلم
يقال
##صلحة
##ريمة
قصص
حفظ
الاخير
الاميركية
لين
##الغ
الشرعية
##ويتر
بالض
الخامس
صار
فور
##تاح
شاء
تصل
قيام
الفكر
سلمان
نست
القول
للان
بمناسبة
اليون
##11
يعت
التعليقات
##ضى
لمعاينة
الفرنسي
داعش
اولى
كار
فصل
نح
##اصر
الابد
##ورك
##يوما
لتن
مكة
للعين
تعتبر
الغربية
##وايد
كرة
شباب
انتها
##الق
##ندا
##بور
##ديدا
تفاصيل
##خرج
بواسطة
والتعليم
موك
مصدر
##زاب
لمع
منا
مطب
##يسى
بدات
اخرج
قلي
مسلسلات
##ers
ميل
الكون
##زاء
##اشق
لط
الاتصالات
ادم
##هام
##صلة
شهادة
##اتهم
##ضير
محل
المجاني
نصف
تعبر
الاسد
موقف
انفس
سجل
oper
صباحا
غيره
والانت
زيد
والتن
ex
الروح
##لاين
مثلا
ديكورات
صناعة
##وارد
بزي
##ليس
##ثق
##ندوق
##ياج
##قته
الضغط
##ولى
لجميع
الثقافة
##نيات
##طح
اعلم
رش
رفض
##اشات
وانه
نقطة
##راتيجية
سوى
##زال
##حيب
شاهد
وحدة
الطرق
خبر
المانيا
ضرورة
المبلغ
##نون
##لبة
##ناول
جميعا
تستطيع
يحمل
امريكا
##جان
الصحي
##دير
كس
##ure
البق
العراقي
للص
وابن
محافظ
المنتخب
المعد
نمو
يحيى
الجزء
الموت
برا
##حاء
اجتماع
اقرا
##جين
##ob
دمشق
الاكثر
##يمن
##ضب
##اخر
بيزو
ضم
operation
الاعلى
الافلام
الفساد
##ce
##ريت
الايط
اهداف
تشرين
للخ
المشروع
فرض
المرج
##ap
##جماتيزم
التعليمية
ويس
الاستجماتيزم
موتمر
ماليز
الدينية
ديوان
##اشة
الاخرين
الرابط
يحدث
##ـن
رواية
للو
##زق
البداية
##حاق
##ess
##اطي
جلب
بحسب
##دون
##شاف
القضاء
المدير
اللاعب
النقل
##بيلة
##ليك
##لمي
##شنطن
قامت
فج
##روة
لعمل
حجم
الامنية
##مم
##اطع
قالوا
هدف
##ـت
##قس
بحيث
التنمية
نفسها
وبا
##عيم
الحض
منزل
سياسة
تويتر
المصدر
المركزي
الوضع
البيانات
الخير
المدرسة
##بهة
المحد
۩۞۩
وقع
الانسانية
سيارة
معها
قي
##ابقات
##اوز
##شارك
السابقة
القيام
##اليف
طرق
32
وسهلا
الحديثة
بوت
الطلب
to
مصطفى
ومح
غرف
33
##يوماكس
ليت
60
ومل
وراء
الدراسات
##ax
##ادمة
الرجال
##ذاب
الحدود
cent
##ارضة
وقالت
وتص
سف
دوري
احسن
جان
ويست
البخاري
الجنة
يض
##علم
جاه
مجم
##سه
الاساسية
فرصة
التعامل
والخدمات
المنتجات
فروض
##ماك
ربما
الاسم
##كانية
الشعبي
يحتاج
والاح
##ech
المحلي
##ريدة
##ثبت
##كب
لماذا
عس
المومنين
الوح
تحدث
اليس
##وست
المسجد
##رايم
والات
##نقل
بلاد
مجاني
##فادة
والز
بهدف
##يله
197
منظمة
##فيف
البشرية
للاطفال
الموسسات
##علقة
احب
ترغب
عزيز
##يده
بتاريخ
##امه
عبارة
##if
##ist
##ظار
الكبرى
تحتوي
75
##جهزه
الاهلي
اجمل
معرفة
##ذل
مشكلة
##هرت
##وقات
##واجه
المدني
نه
يشرف
يرجى
كلا
الرك
العسكري
فرع
##ازي
المعرفة
سنت
##اديث
مقد
##داع
المسوولية
##خاذ
الاجنبية
##قدير
##ابلة
##ect
##فاوض
مجلة
شم
المري
de
مرحلة
##ايين
##ind
كش
اصب
يستطيع
نا
اربعة
##ادى
النوع
كله
##اينا
امين
سيتم
علاقة
رمز
##ودا
سياسية
##رجات
الاحمر
##نايية
سبحانه
حفل
امراة
الصحيح
ارسال
##هاج
##اصل
الاسباب
ولن
##براء
ابدا
الته
##قديم
يودي
طويلة
##طاليا
استط
##ابقة
##ربات
النفط
##قيقي
##box
ليزر
المنشورة
الدراسة
##بنى
##عمة
##واية
حوالي
##طيط
##طلع
متابعة
##ولد
##وافق
بدء
الجميل
##وته
مجانا
عض
ابتد
مشاريع
صلاحية
حجر
##عاء
##غرب
المض
سمع
الحقيقة
مهمة
##out
ايل
سا
لاحد
التجارة
tr
العملات
##ظمات
143
كلمات
روية
السياسة
ورب
الايمان
##قاد
كر
فار
لخ
لاد
حص
كلها
مهرجان
تاس
مساعد
##وده
##ريحات
بلدية
المعت
##ظل
واكد
##شت
للط
##اتل
المغربي
الباحث
ar
##ارنة
معنى
التاس
بنسبة
نجاح
##عن
صنع
طبيب
قيم
عهد
الاجتماع
ضع
##وقت
ليلة
##جمالي
##رمين
وبالتالي
##ناد
نيوز
نظم
لكرة
الاشخاص
وقف
العرض
غرفة
العهد
##ريه
الارش
وقيل
اختر
برم
موري
##واه
بب
بطريقة
شخصية
##وزارة
خصوصا
الامراض
تحتاج
##ازة
##اديمية
يوتيوب
الوزير
الرسمية
##فيد
##خرا
السير
منع
كف
جور
والتح
الكات
السادس
##لاحظ
##خال
بغداد
لدخول
ساعات
##قيقية
السلطات
##000
الحكومية
بتح
مراج
##ريبا
ارق
الوج
##اين
الطبيعية
34
##يقة
الاقل
##صالحة
##كندرية
##ندية
الاحي
تجربة
قيادة
جما
الفقه
النت
السيارة
غال
##جاوز
##ونية
##شى
##ue
بالمشاركة
التب
اقامة
سلسلة
الاذ
الذه
الاوروبية
الذكر
بالاع
وكيف
##طنة
تحويل
القانونية
والسيا
cust
##كره
الازمة
زمن
##وفا
كفار
طبر
ميد
custom
##لول
عون
الكبيرة
يبحث
##يوم
هام
حلول
##ook
غرب
شقق
العص
بدر
والمست
##عزيز
المنورة
والعالم
##pl
الامين
والر
##50
##ثيل
توفر
الدور
be
##لامي
بتسجيل
القديمة
مملكة
عج
اصبحت
##قطاع
التطبيق
##وضة
ابرز
##راقبة
لض
##قالة
الصغيرة
حن
احداث
المطب
##غان
بالص
بتن
الفرق
##ومه
الوجه
##انيات
##ــة
حقيقة
الاقت
##راضي
##فقة
سق
##صيل
اعلام
##اطة
المدر
يبدو
تقل
معين
cl
الاو
الحال
الثورة
##اور
##af
ww
اذن
المجموعة
حاول
##ياجات
##gle
بعضهم
الزواج
مسوولية
ايها
الهاتف
##صفات
حملة
طلاب
الموسسة
ممت
الرياضيات
الصيف
مستعمل
ماذا
للعمل
##سى
اليد
##شيخ
المحكمة
ترتيب
جماعة
السين
وعم
##جارة
دقيقة
باط
قراءة
مسب
داود
##صرف
goo
يستخدم
المباراة
الاميركي
العروض
العقل
##زاز
##th
سمعت
عرب
بوك
##غو
##اخلي
##ish
star
منز
ومست
واشنطن
الزمن
بالاس
باسماء
center
##od
##انيين
منك
السماء
##قتها
##برن
بمح
##ملف
##راسة
قيل
الفور
##30
##يفرات
##طى
الرياضي
المقاومة
##وفي
##اون
الاسراييل
##ربين
العظيم
ويح
##اشقجي
التالي
الجانب
الاستقلال
توفير
كبيرا
الشحن
##reat
قضايا
طول
وشروحات
2008
الترا
##بلس
الردود
##تون
كنا
الرغم
##ream
درهم
للب
##صرة
جيد
##اجر
ابح
بقي
##قيم
يشرفنا
استمرار
يدخل
التون
##كيه
التك
la
يعود
حض
الدار
بالان
##ريبية
تاي
المدارس
تعلن
طبرجل
الذهب
الجوية
اداء
فضلا
منتجات
وهناك
لكنه
##قام
سوداني
##حقق
ينبغي
وبد
توقع
تحرير
مقتل
سكان
##ناسب
يظهر
محاولة
##لاص
القضية
الجودة
زايرنا
##زع
سبق
حدود
جبل
##ايهم
يرى
كوم
38
الاستش
والمج
التغ
##صالات
الانتاج
يرت
عاد
##ine
طرا
تقنية
بكم
الديمقراطية
ابل
bl
ايجاد
ضغط
##14
الخصوص
##ip
السابع
نط
المهم
القوى
##ثال
يوميا
التابعة
يجد
##عادة
##بلة
الوزارة
##زمات
البنك
فعاليات
تدخل
قايلا
والاب
##فعة
الياس
بعدما
##درات
##ايز
تظهر
النهار
خلفيات
العدد
النو
##12
##ذيب
الضرايب
##راليا
عناصر
##اااا
##ستاني
اتحاد
ولما
##اتم
الحالة
بقلم
معت
##ack
##لاء
عايلة
الخامسة
الاعد
مقت
المتعلقة
المحم
كيل
طف
##tr
الحوث
نم
اظ
وترك
##بطة
احكام
##شية
العلاقة
قرب
مهم
##ice
##برنامج
مرات
##باع
خمسة
التجميل
تي
سلام
##ex
ولاية
التسوق
الصيد
توظيف
##غراف
مواجهة
الصد
مجالات
##دخل
مباريات
خاشقجي
مهما
##شرق
37
تشغيل
##ايلات
##ديقة
##بياء
محفو
الاسراييلية
افراد
##ud
فهذا
##ديان
خال
##iv
##وليفات
البيع
تنز
الابصار
500
حرف
المجم
مدريد
##شام
المشرو
##ياد
حاج
##كتاب
جيدا
##قوب
##صم
موظ
اماكن
الرجاء
المكر
اصدار
السبب
##ندسين
مجرد
##ايير
##عله
المحافظة
باد
الوث
تقم
ابطال
فكرة
والى
الادبية
البيية
سالم
##رافق
بحق
##هداء
مطبخ
البناء
صل
وايضا
تجاه
الموجودة
هن
والمنت
نشاط
الكشف
للمس
وبح
جودة
عقارات
لعد
اخبرنا
##غا
##علوم
##هيون
للاش
##one
معهم
مجد
##ونها
والتق
##نوان
##مرة
للتع
العراقية
غس
التعب
ورش
نسخة
النادي
نزل
ظهور
لاعب
##ربوية
الجنوب
التنظيم
التحالف
عيسى
ستي
نسب
##واطر
ضبط
خلالها
والسلام
ففي
مناف
فضل
##صاب
الساح
##هى
الشام
حر
##رتيب
فوز
رايعة
##ريج
يحب
ايجاب
يعيش
الخض
القصص
ويل
الاما
مشيرا
صدر
المدنية
القيادة
##ياط
سان
ابت
##كه
يمثل
www
راى
##ناع
مرو
الترفيه
سفر
ويد
القديم
##ورين
##مارسة
##سوارات
##يمات
https
الصحفي
البريطانية
مير
##وسسات
بريط
التشغيل
##رييات
الرق
التدريب
التجمع
راب
انحاء
اللواء
قايد
الطريقة
تحاول
الاستثمار
تركيب
يوكد
google
الباط
سيل
تملك
##تبار
##صدق
روى
سانت
التركي
روبية
ومنها
اطباء
عبيد
التركية
الجو
ازمة
##الس
كوريا
والاف
تطبيقات
ثابت
الهندسة
ويقول
يخرج
اسحاق
موعد
المار
المباشر
لمس
خمس
شوون
سيتي
##امت
طيور
جون
##يقى
رعاية
الكرة
البيان
جعفر
السويس
##طط
##وامل
fr
مدار
الرياض0557824327
والعمل
##اجل
عنهم
تعليق
##ith
واحت
48
تجاوز
##فيض
##يفون
يحصل
##فه
يهم
الاسود
الجزيرة
##40
النشر
اليمني
##مع
العالي
بمدينة
العودة
الكل
مشاركات
الملفات
اصلاح
نقدم
el
المدن
هار
خز
##ويم
ونت
##كسر
المسلسل
##and
##بيين
الجاري
الواحد
البرلمان
يومين
عت
عنده
##حقات
مطعم
##لوب
طبية
##وحيد
المتوسط
##ايرات
ذكره
محاض
الحيوانات
باق
النز
زرع
نجد
صاح
ايدي
زين
تبدا
##اوى
##وهم
ميزات
اضغط
البش
انق
treat
##شلونة
##ـــــــ
الصناعية
هكذا
الجمع
اليك
##واح
بالدخول
##طيل
المنزلية
80
##حدد
البرت
##شياء
فيت
نقوم
##قيب
treatment
مقا
رسايل
كور
حصول
وابو
كهرب
##ok
قرنية
الكر
يقع
##فرات
واث
انسان
هـ
الصوتيات
كريم
بانها
المستخدمين
علما
##يقية
القاضي
اصحابها
المسلحة
يرد
##حرك
##وفة
تجارة
التراث
حز
النمو
##جرد
فين
##ندن
انسداد
2007
مقر
اقرب
الثانوية
الاداري
يقت
التقلي
proced
العصر
ورييس
الرسالة
القمر
هر
للغاية
خلاف
اذار
الشبكيه
##18
الصحافة
العناية
##ثور
##ايك
##ونيا
##اجي
المقت
المشترك
بريد
الهدف
كلم
صع
فندق
معينة
##كاوي
السويد
بينها
forum
الحمد
لاس
تقارير
السما
ياس
##الله
ذهب
##ort
وطن
متعددة
بعنوان
##ازل
اربع
للسل
by
للوصول
##شين
##ايجار
ويتم
ويش
رام
الايراني
حاجة
##ولين
##شاب
توص
شارك
الاصد
شارع
##كومة
##احية
بينهما
قلوب
النبات
يعقوب
فخ
المتب
ترى
طرح
الروسية
الروسي
##سفة
##17
صغير
التوليفات
اموال
قوية
##رفي
الطبيعي
ثالث
اجتماعية
بزيارة
الاكبر
مجانية
خس
##انع
##وسطة
##ربع
##كى
الانف
المغربية
مين
##ارى
##وفير
العبد
تداول
بالضغط
الكاتـب
##تو
تتعلق
استغ
##ونيس
بعدها
وكيل
الكرام
لاحظ
##حول
مسالة
للتن
لفت
الجنس
تعزيز
واسعة
##tv
وفر
ممار
يقل
المسيح
توزيع
##الفة
##نام
اري
جدة
##19
القايمة
السوال
قواعد
ملابس
بنك
السعر
الجامعات
ميت
تساعد
##olog
الراس
باح
الفيلم
70
منتدي
منصور
والثق
##باحث
##وعه
قاعدة
بوابة
مياه
فهل
39
سيت
ماليزيا
شحن
شار
واوضح
عادل
واختبارات
##طنبول
مقدمة
اسيا
##كلم
بدلا
قصر
تقريبا
حواء
مواطن
نار
الكهربايية
ولل
التحرير
##متع
##وند
الاراضي
قريبا
##رفية
ايطاليا
##ضيف
ترا
الحشرات
القادم
تغير
##جهات
اللح
متر
##سلوب
وقوله
##ارته
بصورة
وخاصة
##خفاض
فرق
الجهات
##df
التحكم
نفسك
كذا
شاب
الوحيد
شروحات
يساعد
##حته
كيوماكس
##خلق
الملا
انجاز
اسلامية
##درس
والاجتما
الخطاب
سيما
##قاط
eng
دعوة
فب
المشكلة
الثقافية
منتخب
السلطان
البلا
بالمدينة
سيف
الكلية
الالمانية
ارقام
سعود
##صا
وجاء
المحافظ
عاش
الحساب
##▬▬▬▬
وتب
المشاكل
##نتين
عودة
42
##قين
فاس
##وادث
##لبين
ab
مدونة
new
المكتب
##نم
اختبار
##قاذ
ضرب
##ies
لحقوق
##ــــــــــــــــ
يلت
نظرا
بالغ
الافت
بعمل
امكانية
##بيان
##ديلات
ولذلك
وذ
##ثرة
##رتها
تقع
##ريقي
توجد
##ht
عقب
الفوتوشوب
المتخصصة
الحاجة
يحتوي
بض
##ياتي
موخرا
##نبي
للات
الفع
##ـات
النقد
##60
حديثه
اشكال
الزرا
عادة
##ريحة
##وارع
##اثير
##ينه
##فذ
الكهرباء
الغرب
الترحيب
##رشح
شن
ادوات
قبيلة
43
النور
بالدم
حف
البار
العلامة
##ــم
يبلغ
تصف
ذوي
جيدة
خطة
عال
ورس
الدستور
المرا
الوظايف
44
##كمال
كوك
اقليم
وبعض
مالية
##برم
علماء
الشمال
##راما
زر
##sd
لعام
ها
##قيدة
with
##ناصر
المهندس
يمنع
##باك
حالات
الحرارة
الاند
العمال
النشاط
مقال
الاراء
##دار
لمش
المشاريع
فني
مجه
ايق
##فيذي
شركاينا
##جمال
القدرة
ليف
الدعوة
الغذايية
الموافق
رايت
والاش
999
tech
الاشياء
الكلمات
سياسي
##رقية
كاف
الافضل
لديه
القوة
غدا
خطر
اسمه
##نات
رابط
الاجراءات
الانحراف
##راسات
باف
op
ذو
الاموال
الممت
##ايفة
الخلف
بالعمل
لاول
موج
##ويض
استراليا
الطقس
الرمض
قانونية
الكترونية
مرح
كافية
اعتبار
##اولات
بحضور
السكن
##بان
##هاء
##بري
##سمة
السنوات
##طلبات
بذ
الحفاظ
رياض
الغاز
مكون
ابيه
ابى
بسرعة
وتد
النوم
للمست
##لاقة
المناسبة
اعراض
حمد
الطايف
ذي
الاي
افتتاح
##عيدة
تشطيب
##جاح
اشخاص
فرنك
##تان
الغرفة
##جح
بوسع
العمومية
المكتبة
##يريا
##فيل
##ليزك
مناق
دعا
اليابان
اسبوعين
مجتمع
##فرد
قرا
##طع
procedure
السيرة
##ial
الفعل
##كاء
الاحزاب
والرو
##بلوما
المقبلة
بطاقة
46
النجاح
يخت
##ينات
##اعية
##ارث
الخز
##برت
المعجم
##ايط
قاد
نفسي
استضافة
الفرنك
##لندا
##حص
حضور
شبه
##هولة
##وزير
جهد
ادارية
بالضرورة
##قلب
باص
الاستخدام
الجنيه
بغير
ورج
اراء
لديها
##روت
##فيديو
الفرد
##حك
##خلي
جاءت
تمن
##علومات
الاسنان
ادى
موقعنا
تايل
بعيد
اسواق
طارق
ملا
وفاة
مرس
##روق
المعارضة
##كرا
استعمال
اجراءات
اقول
فاط
##ريقية
اللازمة
##ولت
##وتا
التلفزيون
##يكا
الصينية
تخرج
##ak
ازالة
حصري
##ail
##داخل
##اجد
##لفت
جميل
السج
جريدة
الصوم
التنفيذ
يزال
##بيعات
جورج
ارها
##رالي
الانتها
بعيدا
معد
يفت
ap
متنوعة
دير
صرف
الدرجة
وكذا
الاقامة
تحضير
المهدي
مبارك
السلف
ستكون
ادناه
الاعلامية
##ارين
متن
القيامة
##رط
تواصل
برشلونة
العنف
##ضاع
الروية
حوار
نقاط
الدراسي
نن
##سيم
what
علا
##rab
##فعات
##ورها
الاخضر
عايشة
تلا
العدل
يسمح
##باه
نيس
سري
الانبياء
##ge
الثقافي
السكر
##سيس
دايرة
كمال
47
##زية
اطل
قوم
ادخل
الاخوان
##غار
الترم
للعام
هشام
##محمد
##طفل
##ليت
كاتبها
الزي
بالام
احيانا
هاي
##96
الفيز
ليل
##15
المعروف
الشاف
يدل
##واري
لعب
كندا
##ss
تحديث
برياسة
المالي
الهواء
##ie
هى
احدا
اللغات
الطيران
خيارات
امتحانات
العدو
والتص
القادمة
الالت
المنظمة
نجم
لاص
##ماس
محكمة
##اءة
الجنسية
##سمع
المنتج
اليهود
انش
الواق
##امنة
جسم
الميل
عديدة
##طرية
متخصصة
اقتصاد
الطالب
الملكية
##انيه
##ساتين
الذكية
##طلاب
##طلاق
والاق
##ملت
وتط
النتايج
مقارنة
منح
انظر
تتحمل
عبدالعزيز
الاسهم
والسل
مون
طرابلس
وتج
روز
الاطراف
الحاج
تصوير
الرف
متميز
##وضاع
كتابة
##ايى
ايمان
شف
الزيت
ايس
##شفيات
لتحقيق
##افرين
##اهيل
وهل
techn
##lish
الاله
##all
بالمن
وجدت
باريس
الصباح
والرسوم
اسيلة
##فور
تاتي
جيش
انني
##اوية
واحدا
وتست
عبدالرح
كري
##هههه
وبر
الموظ
سيدي
العايلة
حظ
الايج
##واطن
الحديد
##iz
للايجار
حج
عي
عصر
بيد
مشرو
سكن
باقي
الاعلامي
##are
التصوير
غياب
le
ولكنه
##عامل
الاصلاح
فرص
ناس
arab
تلق
التكنولوجيا
##قف
##فيان
##بارك
##ساس
##ظاه
الرحيم
باعتبار
الواس
##صير
بعضها
##هران
استخدم
اللاج
##13
ساحة
الشارع
اعرف
اللون
محفوظة
طن
اخي
الحجز
جايزة
##ارقة
##كرر
##دوز
امه
شهرين
المفتوح
وصح
الفلبين
خطوة
انتخابات
ليب
مسرح
انفسهم
الاسكندرية
الضوء
التغيير
dream
هريرة
اعط
الموضوعات
الرييسي
##وابط
لتش
صن
ثقافة
اليونان
التحقيق
وفى
الحقيقي
علامة
باسيل
ربي
مراكز
ساح
تشكل
التقدم
##واني
تشحن
عايل
الصالح
البرم
ضمان
مرك
كبار
##ريطة
##يزان
ورا
الاسواق
العمليات
الوزن
اصابة
التعليق
##لاه
حياته
وحده
##هوم
حلم
واكثر
رف
وغيره
اتخاذ
##وظ
العقد
##ology
وصلت
ازياء
##تمعات
المشاركات
ac
اسرة
ذاك
يدعو
القاسم
##مين
القراءة
##وسات
للجميع
الوحدة
الاحوال
الطبيب
##باحة
اولاد
الممكن
ايا
سبت
##ادلة
mp
se
ارا
اسطنبول
##طورة
##كتابة
ملعب
##22
موكدا
كتابه
القصة
الصحف
المسرح
المثال
المرة
بمعنى
ممثل
باش
والانترنت
ميك
انظمة
##لل
ناف
##اييات
الهلال
تصريح
حذف
الهي
الفضايية
sk
ده
اتباع
الشوون
##اءات
المجالات
سكري
المستعمل
##او
تواجه
الادنى
الحالية
##خصة
الطيور
##يص
الغير
احياء
فكر
بحر
منظ
الفلا
الوسطى
انتهى
وتف
موت
يسمى
المشتركة
يشت
وفد
باج
هاش
##واجهة
المريض
##art
قسـم
اغلب
##بك
##16
ويف
وهكذا
لتع
بريطانيا
##خفض
##طه
اريد
##ربت
ابواب
تسجل
##ايكة
عددا
فالم
لندن
للبن
تشت
جزيرة
مرور
عدسات
اللعبة
ــ
##ارتك
متصفح
الصحابة
##كاة
السياحية
##افه
لديهم
المصورة
جراء
الحاكم
تصاميم
مصالح
فول
مذ
الثلاثة
##ـر
والاقتص
هواتف
اليومية
يمت
الاشتراك
##اكمة
##ضمام
المبارك
تبحث
الشاب
معتمد
مستقبل
والليزك
نون
##ver
اخص
الشيطان
عط
الرواية
مدن
الحرية
وربما
الخصوصية
زم
الحالات
لوك
بالليزك
##وطة
الداخلي
نسخ
وعدد
اغاني
ملايين
الاجمالي
لاج
##صرى
سال
المعنى
الده
##روفة
بالفعل
##يرو
55
وبم
سماحة
فاي
موجود
تور
لمح
المهندسين
فص
الكنيسة
##ابيع
##حتاج
القضايا
مميز
منس
مساحة
##ماد
المطبخ
اخرجه
حرم
واعت
##اليب
مناسبة
الجزايري
ياخذ
وطنية
التنظيف
للز
الربيع
تحسين
يقبل
بالر
ذا
يبدا
الترجمة
اصول
##سيارات
الاساسي
واضح
سابق
سيدات
cn
##طباء
لكنها
غيرها
سبع
خادم
تعود
##يها
معالجة
##nd
الطيب
تعت
زايد
##نيك
حماس
الشريعة
رواد
##مالك
##ذار
##ماغ
وجعل
الشهيد
##ـا
زيت
195
هون
مميزة
مني
استقبل
ذكرى
العض
##ودرات
ستة
##حونة
البحرية
الــ
الدقيقة
ايار
##ـل
##همية
السوداني
وطلب
اندونيس
الايطالية
جيب
##خين
اونلاين
##سيا
متخصص
تجعل
النهاية
اتصل
فرا
##نيع
نوم
سابقا
معهد
خطا
وظ
الني
للمن
su
##المشاركة
الغام
التقرير
وعندما
الملكي
##فون
جميلة
اقوى
الشروحات
الكاملة
رحلة
الهد
النبوي
اليهم
المنشات
تصريحات
مزيد
##هري
##شب
سطح
or
الشيء
منكم
عامل
يشكل
بوسعك
المهمة
العذ
بالقرب
والض
صندوق
تيم
##ويش
##فاءة
التاريخية
متى
ثورة
والبرامج
الجماعة
##لكم
قاعة
##ومين
البقرة
##وطن
عيادة
##واريخ
##جلة
##وعا
الارشيف
بالدمام
##ond
حدوث
##بره
##80
وادي
الانتخ
##املات
طه
لابد
اغلاق
منهما
التجاري
##ردد
بالكامل
سلطان
##وقيت
المتحدث
لحظة
الفلسطينيين
الالماني
اسبانيا
fem
english
المصالحة
شكرا
##نايي
كاب
النيل
##وحات
افكار
معدات
الفايدة
كشفت
وبه
##ادته
##عاة
ثاني
##نوب
ul
##هادات
##رجع
الظروف
لموقع
##ادرات
اطلق
قليل
موض
##اردة
##ايص
باللغة
التنفيذي
بمس
ويج
يصبح
99
فران
56
وتعالى
لعملية
sy
ناصر
49
دل
نو
والصيانة
تذكر
الملتقى
##ياهو
##لاط
مدارس
رحمة
انتهاء
##وقعة
المهنية
الاستفادة
الاساس
الغربي
عسير
المسابقات
##مد
##قوا
يلي
##رياضة
فيهم
ضح
ايم
البريطاني
الظهر
العيد
مصلحة
الخيمة
توجيه
جوجل
يبقى
جاز
الاداء
##ستير
جابر
ديس
##غاف
وشراء
الصهيون
##تمال
سهولة
تخص
البول
##hd
فشل
التخطيط
جب
قليلا
اوكر
اختصاص
وتطوير
الثانى
الارهابية
الهواتف
النبوية
بالمع
سلامة
بلغت
اتفاقية
اضاف
##هاجم
عسكرية
بجميع
##قلاب
##ربه
##راجات
مالي
حلب
اللاجيين
جهود
المركزية
رايع
##واضيع
الفا
المسوولين
مفتوح
مستع
الدفع
حرة
##ماذج
الانتقال
تشمل
عاص
النم
مواقف
فوايد
بلدة
##of
59
العملاء
الحماية
##روات
اكل
واقع
لعرض
##ركي
##ـتـ
مظلات
بالتعاون
للانت
##حويل
الدكت
قاله
##ard
##فاوضات
الخروج
الاهتمام
بعده
منازل
مراجعة
تسبب
ترجمة
##رونة
سفيان
انقر
السفير
جوال
2006
##لاس
##تمكن
ثانية
##age
بالمية
انج
غان
بالا
##فاعل
##sl
##سمى
##وفى
تجارية
##ويلا
ولهذا
تدريب
الايرانية
ذاته
المطلوب
الكامل
##اصرة
صحي
يفعل
##tor
##قيام
النصر
جلسة
ابحث
حام
يطلق
كلما
قريب
امور
شعار
##ديس
تضم
فلي
##هلك
راج
الاقصى
القايم
##الون
خليفة
الديني
النه
فلن
##عبد
الجيل
احدهما
##عدد
##يفي
##شرح
وعمل
فيل
##lc
العاملة
الغاء
بز
ايد
بالاست
##غت
صي
بخصوص
تخت
84
بامكان
##ien
والذ
58
والدي
##ادثة
وسوف
روي
الاستفسارات
##رقم
##فرة
فهد
##يازات
##tl
52
فد
الطلبة
ذه
طويل
الابداع
عبدالرحمن
##منة
يدي
القوم
استعداد
##واجب
طبيع
المومن
##ظبي
الاسيلة
جس
بحاجة
الاثار
##يفر
##وايية
##تمي
doc
مقدم
شخصا
فانت
##شيات
ليرة
المعم
الافكار
##وبايل
ابيض
الاصلي
الموارد
##فيدة
البطولة
الاشكال
##عث
##صدر
المحتوى
وتحميل
العقوبات
الاكاديمية
غز
استطاع
##ويورك
##جيع
الهجرة
مريم
المشارك
الاسباني
جول
##yd
اصاب
##لون
الريال
##جلات
اتش
الفوز
بجامعة
المناسبات
الموجود
وحي
الاهل
الجولة
الجد
##عرف
الجمال
منهج
والمل
طوال
##قولة
57
##وكوما
القيم
##ديوهات
53
استث
شقة
البديل
لشركة
خيار
زوجها
جذ
دب
شات
المقال
توجه
بالكويت
الاماكن
مند
زاد
##سيط
رجلا
الخلاف
ونقل
يجري
##وقة
الوك
##ناح
توكد
البور
وارت
الاخبارية
المسيحي
فاج
##راكة
لاجهزة
##قدام
القوانين
مسا
em
تصنيف
90
مور
##طوط
موضع
الميد
كرم
روم
بطل
عربة
ويكون
عندي
##لث
مصري
شرطة
اوراق
ماك
لنفس
##انس
علاقات
الروم
##حام
العاملين
منش
اقدم
لبعض
اقام
الملاب
لانت
##اريا
ماز
خيرا
##حتها
eyes
54
والمرييات
بعدم
واضحة
نساء
المطلوبة
##عاقد
##عوا
##شه
عشرات
2000
##العاب
وكن
اشد
العدوان
اراضي
##روي
##يلية
عامر
##anc
الابتدايية
خطوات
تون
رق
##غرافيا
رويت
##لو
المور
اندرويد
السيدة
مجالس
##كورة
##ــي
برس
طفل
الهم
الليلة
رياضة
لاغ
##غبة
يتحدث
cont
اختبارات
والاط
المكلف
راش
##فز
femt
اللغ
شلن
باخت
ابوظبي
عدسة
##طم
الصغير
السوريين
الكام
##ass
الحرمين
القبض
المساعدة
##جير
الاستثم
سوء
##ارسال
راف
##نز
عالمية
الديكور
##شكل
ثقة
بقوله
##يفه
##رحب
تحقق
وسل
القاري
بسم
توقيع
المصادر
وفيه
السيسي
التض
التونسي
اوت
ضوء
تركية
تشير
الاختي
السنوية
توس
الطبيعة
اخرين
خليل
المسالة
وجميع
##جال
الفيس
مستويات
تخصص
##اضر
انتشار
توقف
##ارها
##قتك
الفنادق
الفوركس
wor
##كيم
تفعيل
تحليل
##صبح
الطبخ
نقول
الذكرى
بفضل
الجاه
##يتين
قوانين
اهتمام
المساعد
قرر
فيصل
الملابس
##ube
توك
##ليون
##تاء
الاصابة
sm
##قها
رييسية
غذ
##sp
يحاول
##ياف
ذكرت
يات
ماكس
نهر
اتصال
المحيط
مسل
##وفت
تاريخية
##طيور
التفكير
توث
الاغاني
المراد
تسمح
الفندق
التيار
##صورة
فانها
خلا
وتشمل
ووف
الرعاية
صديق
##ـــة
ومحمد
الكتابة
حقا
##ارن
الحافظ
طيب
فش
الارج
اعتقد
الامطار
اشار
القومي
المسا
مناسب
تزال
##اليه
يعتقد
يجمع
##اييا
الجمهور
الكلمة
tw
sc
الاردنية
المرضى
المعلم
تجميل
انع
التفعيل
الصراع
ايه
##دريب
مسعود
الاسي
منبر
us
##يما
##شط
##واتر
مشترك
الاسلحة
علمية
عسكري
الحصرية
##بعاد
التشري
درجات
##انج
##ــت
حضر
دراسات
خطوط
الكس
عطر
تث
حسابات
##هرة
##فان
ممارسة
fac
تابع
غينيا
يطلب
##زر
##يجا
نطاق
النسخة
##اكا
ظاهرة
الموقف
##بعث
##طرير
gm
موسسات
حديد
التاكد
واه
الجلد
التسويق
لمت
ملاح
ناحية
والاث
وهى
سهل
الشاي
pdf
فساتين
##يرون
الازهر
الاحاديث
ندعم
حدثني
اسوان
الموكد
فاطمة
ولقد
##سبوك
الاستراتيجية
طيبة
ارتفع
ووضع
##25
85
سقط
تلفزيون
الاطباء
مونت
ادخال
##our
الاصول
dreambox
والاص
تعيين
فعلا
مستعرض
##غوط
##صص
شمس
تردد
##طيه
##ركم
حرص
سمير
فاست
الاتجاه
فرد
مراسل
##ight
##بو
معروف
البلدية
خبراء
وعبد
ديم
##ستي
صيد
يضع
نيسان
العدسات
##كافحة
سكريبت
توافق
حبي
الفات
##صيدة
##كاس
##يدر
غريب
الاحلام
يونس
يعتمد
الواسعة
لعدم
استخدامها
دورات
فوتوشوب
سقوط
بقوة
اجد
اكدت
الثقة
اخصايي
شرط
لعلاج
اوس
والاعلام
قرارات
##ينو
العدالة
الالي
لسان
##زز
كانون
##بورغ
قبول
عمله
##ياع
شرف
الحمام
ربيع
فرح
الفضل
الوحي
##زلة
yout
٢٠
تصدر
نجوم
الاحكام
##66
المقدس
سامسون
حبيب
يوفر
مهندس
الزراعة
عقل
##ظى
لغات
هاشم
تعيش
##كرون
والبح
الرمضانية
التعبير
##اخرة
للمح
##ياته
##اسوب
##ebook
##ديين
اغس
##شم
مستخدم
التامين
نخ
مستقلة
##وعي
##افلة
pk
##ابا
الشافعي
وعلي
والعم
التداول
حادث
قوي
##ناسبات
ورشة
##قلين
ومد
الحرة
العثور
باذن
الجزايرية
الممارسة
تنمية
استقبال
المقدمة
##باس
##قيقات
الشكل
##كاوى
##ows
##وفية
التنا
doctor
ادا
يعلن
لاحظنا
ديكور
##بناء
##يء
بعث
تذ
لز
العش
جرى
##امبيا
وصفات
مرحبا
يكتب
##ندات
##الع
الوكالة
نقابة
##وندي
##ويسرا
غالبا
القيمة
wind
يخص
عزل
اطراف
وليد
بوكس
لون
##وغان
##هدد
##iy
السلم
##se
250
الترتيب
##وووو
شخصيات
زوجته
##رافيكس
نعمل
##تس
ليكون
##عيين
مسابقة
صفحات
الراحل
الملت
سوم
التوظيف
وغيرهم
تراجع
البراز
##ابق
بمنطقة
##عاف
2005
نموذج
الصحراء
##la
المميزة
سج
تكت
السحر
شديد
الحاسب
194
##رجل
الزجاج
اقيم
وقبل
فحص
المصرى
السيطرة
عيش
المرك
والصحة
والتم
مديرية
المرور
الاطعمة
##عوة
41
اثبت
بقية
الجبل
موريت
الفجر
dv
الجهود
كاز
##صات
تبقى
العمالة
السكان
##خام
اعظم
باتجاه
الابتدايي
مجمع
للسلع
الريس
##سته
الافريقية
ناش
لصالح
واول
تول
النقاش
net
##شستر
الفرصة
المستعرض
نونبر
خي
البلدان
تشهد
دوما
يدفع
الطبقة
مسجد
الفنانة
لتطوير
##لقى
الماس
الدينار
نهاي
المجانية
السريع
بجدة
نير
للتح
المنازل
درس
##هرات
قن
الاحيان
زال
##زلي
##روك
الطف
استاذ
الانجليزي
قمة
##صين
جريمة
غاية
جراحة
السبع
فري
##ive
ينظر
الثامنة
ثبت
##ايمان
##uc
##اتيح
اختلاف
##هو
بطلب
الوظيفة
اليمنية
ايت
الشير
قياس
هواة
##ثى
تتضمن
القم
موسم
الامل
##شيح
##تام
##ينغ
تبين
بجودة
##نته
##ظاهر
خالية
how
يملك
ويجب
احتجاج
احترام
مستعرضا
الشبكات
ببعض
##اتذة
##بغ
##ولو
تمتلك
حتي
الادبي
مدخل
##ازم
خض
السلاح
##ate
قضاء
يومي
اكتشاف
تربية
النووي
انخفاض
القرية
حذ
##شيا
جراح
اتجاه
فيقول
سيرفر
القن
الاوضاع
price
شريك
وتابع
مترجمة
مناس
توفي
صفوف
##van
دوا
النات
##ity
المذكور
لصاحب
لابن
تفت
عظ
العالية
متجر
##وفيق
يسهل
##افيه
تاسيس
##roid
##ركه
الشروط
المقالات
الولادة
الجدد
اجزاء
ندوة
اسرار
والمه
المرش
##اهير
بدي
##تمدة
خف
قليلة
قوى
كمبيوتر
المرح
النياب
جديدا
الحدث
المتهم
امتيازات
##زنة
وسب
##شرت
##عها
مرسوم
الصوتية
يتضمن
المستعرضات
##وانب
تاليف
بالرياض0557824327
تعتمد
##لزمات
مرف
جزءا
##ناها
الجلوكوما
انتم
استراتيجية
الصيانة
الذاتية
الصادق
سابقة
##خمة
##ang
بلاده
##لاقات
حقيقية
انباء
بقسم
اعلامية
##ry
القاعدة
الاشارة
a7
un
مارك
فية
عمران
بيوت
مفهوم
طبيعية
windows
مطلوب
facebook
الشبكة
للشحن
tim
رسميا
كوا
رون
فكيف
##ادن
خاض
منصة
الاردني
سكر
##يدات
معركة
الاطلاق
قاسم
النجم
##ذاكرة
الصرف
##زو
##ذاك
##sat
وهنا
عايدا
الرش
رياسة
مقاول
mp3
##صية
وبن
النيابة
##فرقة
اجنبية
جملة
##اقم
للمشاركة
اسفل
لفظ
##دمير
عملا
المنتدي
السودانية
##ide
الثابت
والعالمية
##امرة
الاسماء
hot
65
هندسة
للصف
الخلق
ag
قدمت
يده
##اريو
مصنع
##وقرا
##ast
##ربط
للمت
الساحة
دام
تقبل
qu
##عال
##ash
عددال
خروج
##لاميذ
ماد
هما
الشخصي
الفضاء
best
تكنولوجيا
##ارم
اللاعبين
تكوين
بدل
##حدات
الجنوبي
هيل
النجوم
can
يلزم
مدين
الصديق
الانص
دولية
##كنة
فقدان
الاعم
المستشفى
مساعدة
فكل
##ودى
وسم
##bc
##مدينة
للاسف
ملت
واللودرات
مبلغ
البلدين
الجميلة
ولكنها
سلطة
الانمي
حرية
الكتايب
##وقوف
الخلايا
واغ
prk
تحصل
احلى
بتعديل
ميش
##ابرات
بالاح
ورق
والته
قررت
الافريقي
تسعى
بمت
ربه
زواج
والذين
فقلت
المستشار
النهايي
##ـه
##تحان
ماية
ادلب
الكويتية
اغنية
##رطوم
قدرة
موز
تعاون
سعودي
مربع
والمنا
الاندرويد
فنادق
##تيال
دونالد
عاجل
نبي
##ef
والمف
النرويج
ينتظر
كمية
300
تقد
##بون
المسيحية
تصرف
توب
##ستور
اتخذ
حصلت
جدول
يقولون
الحقيقية
وظيفة
اهالي
##ابين
##جليزية
##lo
مسار
الجلسة
وبرامج
منتصف
##ركان
الثامن
##ضمنة
الفار
يورو
تطور
البصري
مفر
##ريبي
##احات
تودي
لتقديم
مشاهد
مدرب
ظهرت
الهر
صدق
##ابعين
##لاقا
لزي
الفكرية
حصريا
الاقليمي
##نها
تسليم
زوار
محلية
##عدل
android
حديثة
اشارة
النهايية
ويندوز
##یة
الافراد
بانت
وبل
ويق
تبادل
51
##صيد
خاط
تحول
شرب
اسلوب
كولوم
اصدر
شهدت
لدعم
خلفية
واخذ
بسهولة
الزوجية
بارك
##ite
##ديف
##وكل
تبلغ
القرض
حميد
##رجال
النفسية
فارس
منصب
##بيعة
الهجوم
فلان
##هوة
الزاير
ورحمة
لطب
##end
صدي
الميت
الشهداء
واخر
محاضرات
معاوية
الايطالي
المسافرين
الزمالك
الموظفين
بجد
حمام
سيع
الذهاب
تمر
ودعم
يثبت
##ادور
مشاركت
المتقدمة
##27
##قاب
الخيارات
الاحتفال
للمرة
اوليك
انطلاق
فاز
التخصص
بوجود
بتقديم
##88
##لايت
##روري
##ium
المصريين
الاخلاق
وادارة
عوض
لمزيد
150
قيد
المشورة
ليلا
##روه
نصايح
بالاش
ومص
الفنون
محدودة
لحم
##مه
بدعم
الدعاء
الفرا
##كييف
##اهيم
ناج
الازياء
فنحن
##ردود
خارجية
ابتدايي
##ذات
##ولاء
تكر
الجريمة
##عتبر
وقعت
مستعملة
##man
تتميز
##اعه
##وتو
##ile
##فيق
مسابقات
مبادرة
فيس
تكشف
##ولايات
##اطعة
الاحص
سعادة
##شرون
##يمياء
ثمن
رض
##ركاته
سرعة
الشعوب
وكما
المكون
##بز
يعرض
لمعرفة
البو
##جهيز
البشرة
تزيد
get
والو
##واخر
##حركة
الدراسية
شعبة
ظروف
##sh
والمقالات
##ove
علامات
##زيمة
تهدف
اسامة
المذكورة
##شرطة
##وكي
تصبح
##وسى
سامسونج
اهتم
ارم
مهارات
عمال
##زون
لمست
والارض
معلم
واخرج
جيل
خطاب
وعلم
##وايز
advan
خدم
قاتل
mot
راسه
##وتك
متك
هجوم
للمع
##يبة
المطار
صحفي
##ريان
نيج
وتك
السعادة
اثنين
عظيم
##ach
المحددة
طعام
جزي
اسس
لانهم
##ادا
للاخ
##وانا
af
زمان
وتقديم
السادسة
technology
ليع
حلقات
الكوك
##ib
##aw
يصح
تبر
تقلي
التفسير
الاشراف
جوز
الكث
تقت
لتس
my
وتخ
الاديان
فليس
الزم
نشرت
##ian
##اشيد
قصيرة
الالتزام
مدر
الشهادة
كوب
محلات
##بى
الثنايية
خلاله
##ابد
الجواب
الطلبات
##حسن
موسكو
##ستون
الحن
##ـس
كو
الزراعية
advanced
جاك
نك
وزراء
الكويتي
##70
استع
##فسة
##داولة
##جهود
يكت
##ــدى
##ـــم
per
دينا
الذهبي
تخفيض
تختلف
فبر
انزل
كات
سيناء
##صاد
بقيمة
تتبع
والتنمية
لقب
المدرسية
المتنوعة
اكسسوارات
المية
##جلب
بيل
الخرطوم
##عدات
##هوري
المتبقي
عزيزي
التدخل
المكرمة
القلوب
جواب
الاختيار
المقرر
دخلت
##ذير
الشراء
##ll
##على
طبيعة
واحة
البابا
الاحياء
لاجل
سلاح
##لط
وثق
##يتك
مواعيد
سيدنا
روزن
عاصمة
الحجر
الكتروني
##عارف
ومج
رضا
##ايته
الوثايق
ازهر
##ـــات
العا
##رتون
الزمان
جرايم
لاك
تسي
اللعب
ed
##ادير
تضمن
##قان
المالكي
##ابون
ايفون
##بيدات
ولان
الاخرة
الشيف
##وفرة
هج
##سابقات
ودي
واصل
##وقية
يشهد
فورا
##وقيع
يعبر
الرقمية
php
الطيبة
الاخوة
المعالج
عدا
الحملة
##انغ
اقتصادية
##اضل
الطايرة
الالوان
الخبرة
استد
نيويورك
##يمون
جفعات
الادوية
موجودة
الاثر
العميل
قمت
##فاهم
معدل
العفش
كرا
##يدة
##35
العثم
النخ
باز
طبخ
مارت
86
حروف
صفة
يضم
##عودية
##نياهو
يسعى
اعتبر
##ix
العج
العاص
الصناعة
##ايس
الشرقي
الادوات
يقف
##ترط
##كمبيوتر
يكشف
رياضية
بمست
##اعداد
##لاغ
القس
youtube
تضع
المطر
فلاشات
عاط
نقد
##بوك
صحية
مقاطع
ايلول
وثلاث
واز
con
التاسع
مستشار
سبحان
قطعة
سبعة
تام
##قتراحات
التوفر
دورا
حينما
الاسبانية
بنظام
روزنامة
##مبي
بقيادة
الثانوي
##itter
##غانستان
##راوي
ابتداء
احم
العالمين
ميديا
متف
##وازن
العباس
الملايكة
لغير
وجهه
مراحل
عنهما
بالتع
الفير
طبعا
البرازيل
بوليف
المنظمات
زياد
الديمقراطي
ومم
اعتماد
الفية
الضر
##ويف
المعنية
الشورى
الاحتياجات
##اورة
##هيية
واجب
الشيع
باخ
نعرف
متضمنة
راح
المستمر
##رحات
الاعتراف
الحارث
المخدرات
بخلاف
شهور
شاه
##ونلاين
مـ
فيسبوك
والعلم
التميز
وسيلة
لنت
eg
المتن
ورسوله
##io
اتى
##ld
ماج
مسجل
وقدم
سويسرا
دايم
لضمان
بيية
##av
شكر
والمد
انتخ
المسلمون
مبت
##ليلة
المتوقع
dm
##بدا
##ph
##رور
ميات
المعا
معي
البوس
عقود
الاهداف
اسرع
المبت
كسل
موسيقى
لتكون
حجز
الحجم
التصاميم
والخبرة
المحافظات
##dr
العاط
تقدير
المثل
يسبب
الربع
الواقعة
ابيب
للدولة
مخالف
سد
بالتسجيل
##ـــام
##تة
المشاركين
##هاجرين
ترجم
اضافية
العشرين
الشمالي
معالج
اردوغان
فرج
##يتهم
بسيطة
طاير
امرا
سيب
الموج
يرجع
وقل
الكف
سلوك
صرح
##ربوي
القايد
والده
بمكة
##بدال
رصد
##ريبات
##فلات
##44
الوردية
##وتين
حافظ
احلام
##حى
سوا
لمواجهة
كير
مري
##سيك
طبع
تنزيل
##اتك
مسيرة
رحلات
##تهما
لعم
##لندية
والتى
الاعداد
##رضى
وعليه
للامم
##سس
الهج
ورغم
البالغ
حلف
الحديدة
شا
السوداء
قيمتها
يصدر
الانشطة
ابنه
الدروس
ايط
##az
نض
الفلك
ويقال
امنوا
فانك
##بيس
الخص
الصدر
الاستقبال
المحتلة
بنفسه
وخصوص
##غد
وحلول
##كاية
بفتح
روابط
زح
المجالس
##طريرك
اسود
اقرار
الكرد
السرطان
التقليدية
##hone
كلي
الحرام
قصد
يشارك
##tion
لاخ
الزيتون
الخطا
القدر
واسع
##ثمرين
الاستقرار
المهني
##36
امنية
تاخذ
الالب
الطلاق
صم
llc
##علة
فتاة
مستعارة
محددة
حاتم
يعاني
الصل
بوضع
رابطة
تعبير
##يلان
##لاجات
واهم
التخلص
##اشي
فواد
##حوا
تمام
يوف
والاجتماعية
gu
##غيرات
##eg
الضم
اوكرانيا
مبيعات
اثيو
التوحيد
هادي
صدور
بورت
للمش
مستح
الاجواء
الاسر
للاج
##ـد
ملاحظة
##زاونلاين
اللبنانيين
##هنة
laz
##سال
ليون
الجهة
الحلول
استم
الاداب
الطرفين
بمشاركة
اشرف
السجن
سودانيزاونلاين
يمر
##برات
الاقليمية
المنبر
سخ
الينا
التطبيقات
استرالي
gr
##صلي
القرارات
التحت
سهلة
mu
كرونة
والبحث
فنان
والنق
##حكم
قصايد
اشعار
لاق
مصرية
بمحافظة
الخطوط
الشرك
محرك
ساير
حشرات
وبناء
يشعر
الرياض0557824327نقل
##ant
ومنا
موق
الصحيفة
المراه
ومنهم
ومق
وعرض
للاعضاء
نماذج
يتحمل
##ربول
الة
الواردة
ريف
##ضلات
iptv
رسمية
الاجهزه
مجموع
بقدر
##تمرات
والمجتمع
لادارة
الوقاية
اصدق
للناس
والمخ
امة
العناصر
الية
##طبق
##دران
تعني
راشد
لخدمة
قادرة
حقي
عمره
الشمسية
سايق
##نيه
مفتاح
##هلاك
اشياء
الفلبينمدينة
الخطيب
اهله
المتداولة
##ly
الشان
النصف
نهايي
التجربة
المخاطر
والسنة
تاب
يستحق
الشخصيات
##77
twitter
##ong
والبي
الكور
خبرة
المفتوحة
ابد
الروبل
عكس
الوفد
المجموعات
تاش
مجددا
يواجه
والمنتجات
##oft
##طبيق
احتفال
كا
##لاحظات
ناق
الكيمي
الزيارة
##الن
الشديد
التل
فنية
ايات
بكثير
##زان
جنب
جبهة
كونه
للكبار
سحب
اعلاه
المويه
تامين
نرى
مكياج
سلمة
المعهد
يتطلب
المقر
صوتيات
الاربعة
##روسيا
بتس
##رجي
وضعت
كواشا
##الته
كروت
السلوك
بمث
هندية
الشامل
مقات
##جابة
وتغ
بيري
##زت
2004
استفسارات
##جنب
##طلح
##afe
##اجلة
المولد
صب
##فضل
يشمل
واضافت
اضط
##ظات
سريع
يطالب
اكلات
تلت
موشر
##رافيك
حري
سنغاف
بتش
لحل
احتف
الحوثي
واعادة
ساهم
شو
##ery
##ايش
ونا
التهاب
الامتحانات
سبا
حفظه
شاملة
وهما
بانور
ثانيا
##وبه
وسن
سياحية
امريكي
السابعة
العامه
الاستمرار
##ثلا
نريد
والاخت
اردت
البقاء
طبيعيا
##ريفة
لاش
##الص
ونق
مراد
الماية
##اناة
الطرف
##لفظ
للكاتب
دفاع
##صارى
الزوار
المعارض
الاكت
جين
وتاريخ
الاصدقاء
##ill
الفلسفة
##xx
الانساني
تصفح
بعم
غسل
التطوير
والشع
زامبيا
البنوك
الموسيقى
##شاريع
##اضة
عود
الدماغ
تنظم
##وديوهات
القراء
الانباء
شت
الجماهير
##26
مطال
الصعيد
التعلم
بيعه
##ىء
اصيب
جير
سامي
التربوية
الاكل
بالفيديو
تجار
معك
الصيام
والتس
القادر
الشهير
البصرة
تسربات
يحقق
نيوزيل
##واليد
محطات
فاق
الجول
##رافية
وقوع
##امرات
لبرنامج
##pr
##جزاير
توقعات
tv
ادراج
جواز
نتنياهو
##ظن
منوعة
اصلا
kh
اسهم
بشار
مرش
يتبع
iphone
ورفع
تاكيد
##باين
##for
64
وها
ult
##بوت
وتكون
اوضح
بلج
مطالب
التدريس
اقصى
انب
##ركية
المبادرة
هاتفك
طبيعي
التغذية
يختلف
نفذ
##كسسوارات
محافظات
صيدا
الانتهاء
##ضايا
واذ
كريات
##شير
##90
كتبت
اليابانية
للصح
طهران
فلو
متاح
يشير
التحتية
وكم
للاد
حياتك
الخواطر
التاسعة
الوليد
بموجب
تات
##med
مجموعات
عطاء
الوجود
الدايم
مخالفة
بجانب
النتيجة
قريش
وسواء
الشف
تايلاند
##ربون
حديقة
فاخ
والموسسات
##اعل
##ولوجيا
يترك
##وصات
بالرغم
جلال
المبكر
القومية
وخصوصا
مناقشة
mar
الجامعي
##ليغ
العضوية
83
##وضيح
الدمام
يتعرض
الفرقة
تري
شاشة
##جو
spec
ميز
الاهلية
مثله
يوثر
##يمين
التركيز
الصهيوني
فلاش
الرياسة
الستلايت
الخاصه
الخارجي
يكفي
حفر
العيش
##جتمع
##نتي
##عيب
مثال
الوان
الاستشارات
top
cf
اخيرا
##وصل
##ارتها
مماثلة
gam
الاجابة
العصب
تهم
قبر
الحكومي
زان
##اخير
##جمعية
الوسايل
##اقه
قادة
بمثابة
الابح
غد
صفقة
لذ
##صن
الشريفين
الشيعة
الفم
شاي
روساء
##وسة
##جزية
وكتب
##وسايل
القتل
الابراج
فريد
اقصر
مونتاج
مراقبة
صوم
استثم
التزام
تراث
ديف
مروان
##ey
##gn
##كريا
المقا
بالذكر
سوري
ربط
ايجابية
سودانيز
قلبه
##قراطية
ايوب
وول
ارى
خش
تميز
والموقع
مشرف
الصحيحة
المعرض
##طنا
غض
الفيت
##نيها
يعطي
اوب
##شاد
بمش
اثبات
هات
الرياض0557824327دينا
منف
وسيا
لمجلس
شير
التعليمي
##بطولة
خزانات
##ذاهب
##رقة
واط
كهرباء
المشحونة
play
توصل
الايات
##ome
فاص
##سلية
القتال
٢٠١
تغطية
الفتح
##up
الخيار
كرد
##ata
##ناز
اعتقال
البرمجة
##افل
الاسماك
يقرا
مـن
التوجه
وبلغ
##ost
##كيك
المقص
بارسال
inter
الراف
##زاق
##حون
المقدسة
##ma
الاستع
الشك
ابداع
واحمد
واصحاب
موافقة
all
الاستعم
المتط
عميد
ولعل
##تش
والتج
النحو
معارض
اته
المدرب
الزكاة
لست
المولف
حقق
لرو
استغلال
الدوا
والحياة
##راعات
ادنى
التحليل
زيارتك
لعل
رييسا
طايرة
وجوه
##ردشة
##اقط
بالات
##اثر
اجهزه
##وضى
ورقة
وحسب
عذاب
##بته
والعلوم
##هات
الجليل
##اشرة
الشيرنج
اجر
القاب
##بيات
القواعد
بصي
الملي
موسوعة
برعاية
الخطوة
##بها
##ظلم
عجز
##els
والثاني
حمزة
مدبل
منص
استخ
وبي
اوضاع
##راط
تدعو
البرو
اليكم
##cess
ورم
الويب
##اليم
##لالات
تشعر
news
##23
باله
##خاء
جمعة
الزبير
كوست
##مني
ربنا
عالميا
الساحل
##يراد
ساخ
كيلو
السفارة
السياق
انتهت
للاب
السكنية
البيض
##خفيف
احتياجات
امره
ونشر
تمثيل
الاعتبار
والطفل
بيس
ظاهر
arabic
برف
الحجة
الجامعية
##شون
للار
##هان
الصيني
الدستورية
##يفو
النصوص
العقارية
##اريون
الخوف
تشارك
كثرة
##هلة
ويعتبر
##وسسة
عباد
بالتح
##نك
sa
تموز
##بلوماسية
لتق
##ليمة
النك
كنتم
بالانت
##رجو
##يوخ
لفترة
##جدات
رغبة
الحكيم
##طالبة
##ماج
الابعاد
الميك
منط
الاعتداء
لتم
تتمكن
المتعددة
مضم
تعاني
روايات
الرحم
الفاي
للمراة
يتمكن
يساوي
سلطنة
##رونج
##ber
ويا
لحماية
التابع
المعدات
فيكون
des
الجوي
حجة
##زيلي
فاش
التنفيذية
صاحبة
السك
##وكول
كنيسة
##وايم
##حاث
الجهاد
وتقدم
##وريت
مخيم
سح
##bd
ولت
##وسيا
الدورات
المحمول
##واطنين
الانتخابية
المتع
الجمعيات
دوليا
مذه
التشطيب
العظم
fin
تواجد
نصيب
العقود
عدن
العنوان
ومنت
يستقبل
احاديث
##سباب
ويحت
تجديد
دعاء
جبر
فعلى
سدي
الشعراء
##يفور
##lam
الدموية
تبدو
اجم
بالقاهرة
الباطن
الترمذي
النفسي
رواي
رجب
شعبية
عمار
واجه
جعجع
شراي
لاخت
باعمال
##لمان
##عان
تمويل
ستايل
الضوي
مغل
استعادة
العينين
القبايل
الخضراء
النح
##جت
العسل
88
روب
بالمغرب
خام
بشير
##مش
##ساحة
web
ترق
##ايفي
البري
منوعات
احدهم
العقيدة
المسلسلات
تعليقات
نتمنى
يرغب
الاعتماد
الخد
استراتيج
##own
التوجيه
لكون
التحديات
عندنا
سحر
##28
سار
ادت
مغربي
الشهيرة
##افيا
يهتم
rec
##حياء
الاتح
##راوح
مبنى
الانصاري
الند
احمر
زالت
المبوبة
##اجه
##كانيات
اخراج
والاجهزة
الخس
يضمن
تحالف
الالهية
بالتن
##ous
يقتل
وانها
يهدف
وليست
مفتوحة
ياسر
الفكرة
وصولا
الريسيفرات
يتمتع
والي
استراحة
##ign
المحدودة
المجتمعات
ويز
والمط
لاحقا
اسابيع
النقابة
قرارا
##طبة
##يوط
##جيب
ملحقات
حوادث
الساخ
شبكات
الواجب
##yg
sd
والاحت
مضاع
##ــــة
مصير
اطلب
اعطاء
##دها
ومثل
##ml
علاء
فروع
البوسنة
القبول
الشكر
واعمال
تسمى
سيرة
المتوقعة
التاثير
بتص
ومنه
الهادي
prem
##ذوف
لبل
تعليمية
جنس
وحدات
تربوية
المدنيين
ايطالي
##ارو
##عارض
##واض
سفير
##21
تخل
##اهتمام
السلامة
##رابات
الموصل
الرايعة
##ock
##اهة
##واك
تجارب
بيك
تدور
الحمراء
##اكو
open
##بدل
باستمرار
اجواء
##ug
الصادر
الابواب
ونظ
التصرف
انتقل
جولة
تاكد
نيت
موظفي
نواب
vu
لهما
##فيا
##وجة
القضايية
لمنت
ونصف
مفاج
##فتاح
والبل
الصناعي
et
##حمي
الارث
##فيه
##طلقت
ضعيف
##جمهورية
##غني
im
بالز
توكيل
شديدة
##يدس
اجعل
الدراما
ربك
##ــات
لاعادة
الشاملة
حلا
العادية
للتنمية
sam
حسابك
الوعي
الغد
اثارة
##ناقشة
##pt
مشتركة
يلتقي
التطور
انمي
الطويل
##تكم
##الحة
الشوارع
بينه
القصر
##وماكس
البرتغ
##تياز
سوبر
##مص
المتواج
المحي
##ماش
##يسية
الروايات
ويك
كب
##بدء
الاقتراحات
يلعب
##وخة
الحصار
##اريكات
المتخصص
المعركة
جمهور
قلبي
اخري
بمصر
special
الثدي
للحد
اكتشف
##برية
الاوراق
يذهب
اسر
للموقع
##جيات
الروابط
ليك
طلبة
القرى
##ضيق
مستمر
السينم
##يتا
##متاع
يقدر
غاز
المعلمين
##ana
نكون
بطن
مايك
نوك
##يتش
الميلاد
وفع
##غفر
##يانه
بالمح
العقاري
ميدان
اليمين
الطايرات
##75
فرقة
يحل
شوق
وكيفية
واستخدام
المرف
والتش
##ابير
اذربي
حلويات
at
فاننا
كريست
##رحى
المميز
الابحاث
##ضاة
المساجد
روت
##وهرات
التدريبية
مكاتب
مطلقا
##جمة
مطلع
صنعاء
عملاء
بصفة
للاتحاد
extr
لنقل
بعين
استقرار
المنزلي
فلل
وبركاته
حظر
يرفع
##يناف
تيار
اصدقاء
##سامح
fil
التربوي
ومدى
مرتين
ناي
مخاطر
##دف
##اسيس
##دينه
الشرعي
400
حزيران
مذهب
التدخين
تفعل
والاخبار
رونالد
يريدون
العميد
الحرم
للشعب
الاستخ
ناد
##حاولة
##سيما
السمو
##▬▬▬▬▬▬▬▬
##ـع
66
المنهج
برون
الفرص
الشاشة
ياب
لمنع
##لامية
باحث
الانظمة
مندوب
ربع
الراعي
قديم
واعتبر
طيران
##جى
السنوي
##29
سياق
اللفظ
المقابل
فعله
##ريكا
واهل
الضمان
vis
ضمانات
##ace
وحم
اسلم
اللحظة
واتاحة
المان
العاشر
اسلاميه
كتلة
البحوث
دان
حامد
بوتين
الغامدي
##اديق
##راكش
##ارعة
يرفض
وباقل
هامة
##زيل
الذهبية
يديه
النسخ
شعراء
سرا
جرت
عندهم
سريعة
فانا
تجري
وقام
الخيرية
الدهون
كبرى
يتميز
العاشرة
التونسية
med
##ons
ultra
فهذه
الجبهة
وتر
عماد
##ــن
اقوال
نصية
##ستها
تاسست
خرجت
تكلف
##كلية
##قدة
للبل
اعمار
##قون
نهاييا
شهداء
الاصلية
##ae
app
المعروفة
غضب
##موح
المشهد
عليا
##سخ
مراجعات
##45
##ومانسية
الثمن
افاد
##int
انتقال
تسويق
الكلي
حديثا
معجم
الود
معناه
تابعة
اسط
الوحدات
##ere
الحكمة
السجاد
صلة
ادرك
الاطباق
للشباب
سيم
##اها
بنى
دخ
##جام
##صت
وشر
مزاد
مضيفا
بيته
عضوا
##ياتها
بسيط
والاقتراحات
المتاحة
كالم
الليبية
نوعية
##ركين
##نمار
##بتها
مجل
توثيقية
time
تدفع
##ثناء
##شيط
تخزين
##فضيلات
واليوم
عراقي
الاحم
افغانستان
##لمه
##رنية
ادبية
المدونة
نزلاء
الموافقة
حوله
##ودان
الامني
يتناول
##econd
الاوقات
##ديدات
##اضرات
يمتلك
الارهابي
يصلي
##ical
##داقة
والتف
##قش
##ضاف
المايية
قادر
الجفن
##لقي
اساسي
ياكل
##وولة
##ذكرات
قبايل
المخالف
ارجو
وثايق
الماج
##لاعب
نقاش
##غن
بورصة
بالتجزية
للرييس
الصبا
مولد
##200
رسمي
القانوني
##max
والاعمال
الواحدة
العادة
روان
زوجة
الاسيوية
##قض
غسالات
##الدين
عرفت
##ep
مستلزمات
نفيه
وروى
حرام
##سير
الاولية
جامع
##هة
البلدي
وبما
يموت
تتحدث
لرييس
اللجوء
##طيف
تكريم
الرقابة
والانحراف
##ضاءة
##رايق
لر
##واتيم
يشبه
الهول
لث
هنالك
الليرة
نعيم
التنسيق
اخلاق
والسفر
تطلق
العربيه
المنظ
##رحلات
##action
راه
الرسوم
صنا
استح
الفيزياء
2003
##سيب
مسح
##ذاكر
لاز
يفضل
شامل
##ــس
الوحيدة
الخبرات
الاساءة
توثر
##نجر
والال
مضى
ريس
صلات
التقارير
##قتين
عموما
الولاية
هلال
قراء
خطيرة
لافتا
๑۩
هولندا
##فسار
التحويل
وبحسب
الباق
ولفت
المسم
الصندوق
الفتاة
علق
الذاكرة
اعم
الدليل
يحكم
رسوم
ساعد
الحضور
قبله
الرغبة
الاهم
##تماء
تجرب
فير
السرعة
الفطر
اتبع
الجنسي
واصبح
التصويت
الهوية
لقي
انشطة
الـم
فاما
##حاح
اختلف
##كاى
ضحايا
النهضة
##فتاء
الكريمة
قيس
##لكية
الستة
##واحي
ميناء
وتصفح
الامانة
القمة
قلنا
للسيارات
المصالح
الشتاء
##يسر
المشروعات
ser
اختار
والابت
بمجرد
##بهات
تزوج
عبادة
##ضوء
صحافة
بالقران
فيات
وطني
مرج
br
##ليح
والعشرين
gx
انجل
المضافة
المرجع
اشراف
محاولات
المشرف
حيا
خان
والروايات
فقالت
فعالية
المسل
الصعب
##نتها
تلقي
##33
المستد
الشعرية
off
اخوان
##والى
اندونيسيا
##راجعة
استشارات
الفتاح
منزلية
العلوي
##فاد
جاهزة
بدور
##ذاء
التمويل
بريدك
يمكنكم
المزع
نصوص
مستمرة
الماني
تقنيات
##سعيد
خطط
صحراء
بالحق
ضياع
بافضل
##لاند
البنات
الخليجية
بوس
الحيوية
عليهما
البدر
الصادرة
توصيل
##اتيا
انتظار
مانشستر
منظومة
ايقاف
بيننا
افاق
##خار
##يانمار
لتنفيذ
الشعور
ضعيفة
التعرف
safe
##حصل
خد
الغرف
وبذلك
mic
جرا
##قتصاد
##طيات
دينية
فايدة
مقام
فحسب
والرياضة
المهرجان
الليبي
وزيادة
الوهاب
الاستراتيج
المديرية
ec
سهم
##هيل
الالاف
وتحديد
بطر
الفنانين
الوظيف
السينما
##اقبة
لبناء
##وظيف
الفحص
##واهر
شرع
باكستان
المخل
##صام
##اماكن
لقسم
##بقى
##غرق
##اريف
بالتاكيد
والثقافية
##وقاف
##قاليد
القصيم
خصايص
##بعوث
وتحت
جافا
الصلاح
##ection
الفيم
الباحثين
الاعراض
الدوحة
الرايع
المهاجرين
قاب
لاننا
المسلمة
صاد
##يوف
الرايدة
الجوالات
vs
المظ
الوكيل
وخلال
67
##وزع
96
lb
الغز
انترنت
يتجاوز
ويه
##qu
اميركا
تنسيق
##md
##واط
واكدت
##وكالة
##ابها
##ديب
عنك
سلف
الاسكان
الاشعة
متصفحك
سول
يومن
صفر
حماد
فيم
تهتم
حسني
وانتم
ميلاد
اوغ
المعاصرة
والمق
الياباني
##راها
##مله
المنافسة
والاتصالات
جال
##يلا
تمكنت
##روا
مقاومة
الخمس
๑۩۞۩
الممثل
شريف
68
يام
والتط
الجامع
اداة
اواخر
##دق
##طاع
الحميد
صعيد
sport
شق
بالجملة
extraction
يسوع
سيدة
يمنح
specialist
ومخ
ثمة
شريط
بطاقات
الضفة
ولب
##ذور
طويلا
مخل
الربح
الفيمتو
الاختلاف
تعرضت
احوال
##ell
باول
مصمم
ic
سلوف
تحب
النمسا
بقراءة
surg
##كالوريا
وطال
##osecond
خبير
الفقر
الجزر
كرواتيا
يكونوا
ملع
بسعر
femtosecond
it
الكونغ
الاطار
##بيح
##شهد
دوت
##عدة
والمناسبات
نظرة
63
النش
خساير
المباشرة
المجيد
يفهم
نظيره
الضح
##مادي
صحيحة
المعتمدة
##شان
القرنيه
مشترين
المخروطيه
الكو
بيضاء
مبدا
المتوسطة
##vi
الخبراء
سمو
##zn
الدخل
الجرايم
تسل
حقه
قيامك
##بساطة
نداء
تطلب
##اطب
مرسيدس
موريتانيا
ضيف
جسر
بايعين
جناح
##كليز
عبده
البتر
النسايية
##نو
التشي
النعم
120
كين
تدعم
البع
وحل
المياة
##بوط
##خرة
يسب
ينشر
تلقى
الظاهر
تصنيع
فيك
##حتك
##رمى
والشيخ
##ore
المراكز
بتق
##تب
##ليو
##ربا
تحظى
حنيفة
##ولوجية
##سمح
مهاج
الدكتورة
زفات
كويت
##ودها
الاولي
للتص
##ادتها
هامش
بيار
فضيلة
##روقات
بانوراما
##اموس
البيوت
ترفيه
الحادث
والرييس
صعوبة
##اعا
شاح
البنفس
##وايل
سيس
##ذبون
وتحقيق
وفرعية
للر
علمي
وته
الاطلاع
vide
##رمة
##يانو
##اقب
وقتل
تجم
شج
تخصيص
والعاب
للتس
اكون
التاريخي
القطري
المذهب
do
##لانات
##mk
##dl
النيابية
محيط
##حمود
المواقف
التكوين
متل
ارتك
الغذاء
##وراه
جانبه
والجرافيكس
التقى
اجمالي
الاقم
##جدد
تبع
##طوطات
المدى
الركن
المتقدم
##لفة
طلبك
قبيل
اوقات
نسي
##يزي
المحاكم
اطلقت
بشيء
رمض
دى
##فقود
جسد
البيل
جعلت
جيم
الراحة
سبورت
جولد
اغت
حسابه
واخيرا
نعلم
ثقافية
يتيح
اتمنى
التوص
๑۩۞۩๑
واشارت
ابحاث
بيده
الدموع
اصحابه
بدم
متس
##اليون
للاشخاص
كانه
الكاث
تدل
الحاسوب
للض
الصلبة
الرجوع
جبريل
صادق
##اميك
##ــر
يدعم
##طبخ
##ــام
قديمة
##ابخ
السويسري
العلي
اركان
اكمل
خطورة
لنفسه
امنة
الشرع
##رتك
sun
والقانون
##line
عندها
والدين
وايل
اهلها
الدوم
الحرس
حايل
##روضة
يدرك
تبوك
الانجاز
الخطوات
للنساء
القل
البرية
##ادثات
##load
النباتات
المعي
##صاء
##rd
##اريكاتير
المساعدات
لول
للاعلام
تفقد
تاخر
##وتس
الهامة
للاستثمار
انست
مدا
جرير
الثابتة
مقابلة
استهداف
البرا
##راته
##old
حكومية
عملها
التحكيم
الايمة
اليورو
يفتح
للث
سباق
فاح
للاح
##لاقي
##هرباء
محب
التمتع
شاشات
معاني
العقارات
##واصلة
صاحبها
بتهمة
العربى
التصنيف
انهاء
المختصة
##دان
لاصحاب
ميانمار
رشيد
العشاء
شغ
الاوز
الالغ
##سيل
##هورة
مناه
الشرح
تركي
##نعة
التوفيق
الارهابيين
الجمهوري
لحزب
##تهر
##تيبة
العامل
تجنب
الهندية
التقنيات
nok
المستشفيات
البنية
##روبات
الاقرب
ستجد
الاعدادية
mob
الزوجة
الاحتجاج
كسب
وتعزيز
سنقوم
البا
المخرج
مشكل
##يفية
صاروخ
المساحة
اغتيال
##الغة
والعربية
مخصص
سنين
واخبار
الترشيح
واقت
عني
الين
القصيرة
التلف
اليا
العت
الديموقرا
امي
##وضية
##gd
##orn
##رها
المحبة
علمت
عايلته
شانه
##37
وتوفير
بالقانون
##رنا
المعاجم
خفض
يسال
اطباق
يزور
عندك
نبيل
##امى
ره
##ينيذ
لاكثر
التوبة
##صلات
str
##رحة
الحيوان
التطورات
انذاك
الحقايق
الكبار
ماجد
##لافة
ذاتها
شانها
الرزاق
الجان
الماك
الخريطة
فاير
هاني
المستح
الرحلات
الشرف
##كريات
بالبريد
التعاقد
بنها
##امع
##يرى
الطايفي
##اضى
اسلحة
عاصم
نهار
##وارث
معرف
استشارة
واعضاء
روما
العلام
انصار
الساعات
لور
نعمة
##كوك
##وراء
المسابقة
##كيلة
بتعطيل
##ريش
وبط
بثلاث
شاطي
ليوم
والعد
عراق
##طين
##ياح
السباحة
قابلة
اجمع
الناحية
البدء
شاعر
الحجاج
##ans
المقدم
واتس
الرباط
مره
التذ
وفتح
رات
##نق
##عبير
المرجعية
اكشن
لاهل
البيلار
##ــــم
القطاعات
جيت
وجوب
التجارب
##ese
600
##سيكي
المجه
وذكرت
مرد
وحين
كاملا
المخابرات
غذايية
وزيرة
فساد
اليسار
المستهلك
الزينة
المسيحيين
فاد
اصر
اكاديمية
باضافة
بولاية
كسر
القطرية
امريكية
الزيادة
المسجل
ماهو
اعوام
مود
المصنف
##كك
باغ
##بلوماسي
الجريدة
org
##فسية
كونج
حرارة
##صايل
ali
الجماعات
بنشر
##رنسا
للحفاظ
مذكرة
للاف
##وجي
تتطلب
كيلوم
الاماراتي
ظلم
##ظهار
تسلم
##وايف
المقصود
المستخدمة
المحامي
التمثيل
تحرك
الظاهرة
##فعال
صاحبه
تقسيم
تلمي
##حار
احتمال
##اديمي
##كف
العشر
ادوية
vb
##لس
مدني
تجاري
عمارة
##رايط
##ations
جماهير
##يدرا
فجر
تقف
##وبين
##يليشيات
##اوس
##فضلة
الديوان
والاك
تفيد
ممل
البحري
شهادات
الشهري
##zd
##عتين
تير
والدولية
الانقلاب
ومه
البوم
ممتاز
الاسط
تنبيه
رخصة
3d
داخلي
ادريس
مفيدة
##دال
بعدد
جده
##برز
mod
الاشهر
المرء
المعلومة
##بكة
احباب
بشدة
fre
لشوون
تتجاوز
توسيع
بانيت
الامان
2001
غيار
##حان
الجوف
##ضت
##ثا
وحقوق
المقام
##فف
مواليد
اخذت
لار
تهي
surge
وابي
النقاط
المعدة
مشد
يخل
وتفضيلات
والهر
بوزارة
الطباعة
جازان
##ذى
المشاعر
الاصوات
##هدية
سوفت
نامي
محج
تشتمل
الكلا
##وتمر
مسير
تمكين
النموذج
sky
تعامل
##رود
ودعا
الناز
##غبين
##zs
حاض
للشخص
اتصالات
بدءا
بحجم
للمزيد
os
كه
اسف
شرا
##امعات
للتواصل
يسمع
واصابة
الثوري
يفيد
الاجانب
##اوف
خصم
كعب
##علام
81
موث
لوزارة
fl
##اثة
يحق
95
شباط
وجمع
lg
فالت
الاصدار
جبال
##وازم
وافضل
فكانت
رع
المفاوضات
الخطة
الرشد
نوكيا
وقتها
والشعر
##ويين
##صلية
المرافق
##ــل
عرق
عجل
ساي
##هك
##ust
ممثلة
اريت
كوت
استمر
الجملة
البدنية
المصلي
as
سالت
##دمر
##واص
الثان
##رسول
عوف
phot
##غاني
مرضى
mo
##ثمر
بخط
سند
##رفت
mad
دارفور
معايير
بوش
فهناك
الفج
##قدرة
عطية
تاشيرة
يتكون
##ثلي
فلسطيني
موضوعات
##راقب
المحاسبة
رجع
##كول
نبات
التشريعية
وون
والتد
##املين
اوباما
هوية
الفيزي
عيوب
والعق
##قدس
عضوية
هير
الاخطاء
بحرية
زع
رزق
##وريد
مبكر
mat
الحضارة
اخرون
ارتباط
premium
##تايم
##شفت
اسحق
عبدالم
التوصل
##اليل
##رعان
##ین
قصيدة
##خيل
وتعتبر
اجتماعات
فذكر
يمكننا
الاجازة
طايرات
واخرى
التطبيقية
وجب
بلجيكا
هدى
كمب
التوالي
الصحفيين
يحدد
الاباء
الغضب
بيج
الاندل
والصور
##غول
الصومال
لانك
مسيول
تايم
المباريات
##زايد
طالما
القطع
حقيقي
الناصر
توفيق
الارثوذ
بخير
ميس
ادب
##ليلا
المفر
##ــا
##رتب
حسام
للشيخ
يعيد
رخام
الوادي
تحد
gen
بالمنطقة
توي
سبي
معالم
كولون
الثلث
اخطاء
قران
رييسة
ساع
النمل
اللازم
ومصر
المجد
ايرلندا
كق
##مارسات
##قدار
الهندي
##رمي
السليم
والحي
السياسات
##رابي
كونها
صعبة
وافق
اسنان
والاقتصادية
بدقة
الفيات
سكاي
ببساطة
الضعف
الشارقة
معالي
جيبوتي
سجن
قرات
الدرس
مسم
وخرج
##شرع
بلدان
لمتابعة
عشرين
والحديث
الصبر
النارية
ثمانية
استبدال
الحسابات
##جزر
نظافة
وايت
##شع
شجرة
بلاك
لايحة
الهندسية
اصوات
76
الفضايي
ونح
##صيب
800
انيدرا
الكيان
لولا
الخليل
##طالب
نجران
قلة
ويمكنك
ردا
##بابوي
اللقاءات
المجتم
##يوش
الايفون
البشير
ينقل
وجراحة
امثال
البنفسجية
##هية
ومنع
المناخ
خار
شعبنا
sat
وبدا
صلوات
المنع
ينفع
المتوفى
##سلين
##تهن
مسيولية
العرش
حصة
اساسية
وكنت
الشكاوى
##يثاق
معن
للاص
ليفربول
العذراء
الجس
كـ
ملام
بارت
الزعيم
te
تال
الشروق
باحد
تايوان
رياضي
اجنبي
الفعاليات
واربع
العوامل
وثيقة
والابتعاد
وعشرين
الحظ
الابل
ترددات
تلف
ميشال
##ماح
##غلال
بطرس
افادت
##وليد
بفعل
المصلحة
زعيم
زاوية
الفرع
الاعا
الرابطة
جار
صراع
غريبة
تترك
##هود
لاند
حيوانات
بضرورة
اختيارك
فرنجية
الجراحة
##والب
للجيش
ويعد
داخلية
الكيميايية
ti
الاستثمارية
كلامه
تناسب
##اااااااا
تتمتع
لاستخدام
رووس
عوامل
تعطي
والامن
تتعرض
تلقاييا
##لر
##ark
##جون
وصور
##نيفات
##cam
زيارته
اسقاط
موضحا
##سو
ثلث
السح
يتوجب
المستثمرين
##34
القذ
ah
##inter
##يشن
المستقلة
المطاعم
##يافة
اظهر
مقعد
##الها
##جمهور
##لفات
التراب
##وتها
قلعة
شام
الحلم
الفاس
والمواضيع
##وبرا
محور
##فيظ
اعجاب
سلع
شوارع
ومشاكل
لمكافحة
مهام
##ضه
المراقبة
##ـق
##وسيقى
سوز
وحماية
للتعليم
ببل
تعا
طريقه
زانوسى
سبل
##اييه
##فتيش
##كمل
لابي
متوسطة
واسم
انسانية
##ليفزيون
يجتمع
##td
جزاير
قلق
فيرج
وفيما
##ينت
بذكر
رونالدو
ملم
اكتب
المي
وتقول
##رحيل
محتويات
البشري
عامين
مبر
والثقافة
##ونى
نقله
بالطبع
قيا
المعايير
islam
صر
مهند
##بعد
كلهم
وعلوم
بامر
ضمنية
down
العادي
يشاء
فحوصات
الارقام
شركتنا
انز
عدي
النع
العايلات
تقدمها
متطلبات
بحكم
##موية
الموضة
الحفل
رييسي
زكريا
سياسيا
يعملون
فعال
بخدمة
الكفر
بالماء
تقدر
##ادين
##كررة
المجمع
اظهرت
حاسب
##her
النهر
راسها
بكافة
تنتهي
##قلق
##اشية
ينبع
للبي
زجاج
بنز
متاب
الشيوخ
العلامات
المراحل
فقه
التز
الوقوف
والاسعار
##ury
لصوت
ايمن
الزهري
##جددة
نيب
يمارس
جهات
الجبال
التعديل
##تمين
##وضحت
اميركي
الاتي
مبادي
المدة
والمراد
مشاعر
وحسن
##ياطة
##ريفيا
حيدر
دقيق
التام
##ظاهرات
##ستانية
كثر
الكوم
عصام
الانفاق
بوروندي
نات
النسايي
مسقط
دردشة
كذب
كيب
منتــدى
جا
##افيين
والاتحاد
تنقل
تحدد
هت
1000
ووجه
والصح
##قسم
hotels
بالمس
##ريضة
يمكنه
##تهاد
للحكومة
ومنذ
والعراق
سارة
##ودع
##وضوح
تامر
المرتبة
تفضل
##سلسلات
نسمة
الاشتراكي
التشكيل
زار
منظمات
السد
##حمام
مانات
الانكليز
مجاهد
ختام
يعانون
الكلى
##بيبة
النسب
خاطية
##واكه
##هيد
باسعار
##ريفي
بنية
الكليات
الاساتذة
المستويات
البيلاروسي
om
تاجير
القابضة
شرعية
ايف
##طلبة
راحة
نوعا
يتع
حياتنا
ظن
تلعب
الاضط
النظارة
سينما
الحروب
##واصفات
السادة
لاطلاق
الاشغال
لاحت
##ولوجي
نعت
وبعدها
##ناف
عقدت
الحوثيين
قالو
يفس
##التها
فورد
جلدر
قيادات
بريف
لاخر
ماله
التقييم
تعطيل
ملحو
##ايجاد
لاسباب
المجاورة
اصابات
##ابيب
ونحو
##اخستان
بود
##جهيزات
micro
مليارات
فجعل
##na
محرم
##وزة
افريفيا
سكاى
black
ستت
بالتق
##شال
لقوله
الحاضر
التحميل
##ايخ
اصدرت
لتف
منتج
##زيغ
السماح
##وقا
نصي
الزور
نجح
العز
السلسلة
اوف
محاربة
يتف
التقني
##ويج
وتحسين
الفقيه
وعي
كرب
تدريبية
نزلت
فرعون
الابط
يقصد
صيام
1440
بمختلف
##كوم
الحكومات
الاختبارات
وور
نستطيع
للفنان
الافتراضي
الخف
للدفاع
ابعد
sw
سرقة
المكونات
بلال
المتميز
##شيما
التحقيقات
الطواري
استشهاد
التمي
النض
المنس
يصف
وشع
اساليب
اليوتيوب
فقالوا
تسب
صعب
المدف
اثيوبيا
##ولف
يشار
والتعاون
##يتال
##ـــي
يقضي
ضخمة
قابل
دو
قايم
الجسد
اوايل
المفضلة
حيال
اريتريا
##اهية
pkg
الاوعية
والاخلاق
cup
cnh
تطل
##ططات
لنظام
وهب
سلعة
مساهم
واوضحت
فط
##he
##vel
##ys
شعبان
الصعبة
الاندية
البرتغال
الهام
ترين
التحريض
الافطار
##امون
you
##شارات
ميون
##يامين
العكس
والبن
جرين
مومن
الغرض
القهوة
نارية
##ازن
##بيعي
استثمار
عف
##نغ
الجماعية
هارون
نظرية
يطرح
بكال
اختصاصي
وخط
بارب
محركات
مدونات
##ايتها
يتكلم
للجنة
والمنتديات
منافسات
##سكس
يتوقف
جهازك
وزن
منى
الشوط
الممتاز
والشراء
رفعت
بانهم
تكييف
كميات
##فاضة
النظافة
الاجنبي
##خا
صلي
##قوط
لازم
الرحمة
وبت
ماس
##اهدين
المشكلات
##ord
لاغراض
##رمان
والتطوير
##راعي
مكث
لوس
مصورة
وفيها
##صان
ابراج
للمد
##ستيك
##الو
بانواع
حينها
العملة
خوف
اصط
##روء
والسكري
مرغ
تثبيت
والتر
ass
##كاك
للاحت
فله
بدوره
الجلوس
تطالب
للعالم
لبي
كرسي
تويوتا
السعيد
سياسات
والفق
##باراة
##بدع
##سيطرة
الضويي
بمتوسط
البطريرك
ينزل
والمحطات
##ليها
تمنع
مغلقة
وفت
ديب
##ذان
المهارات
حماة
تاهيل
عار
المحيطة
بعضا
ابعاد
cc
نافع
##بث
الجغرافيا
زل
##باد
ur
وتمت
##وتيات
الوقود
جنيف
##فتها
74
##زيج
الجزي
قتادة
بمثل
##uf
الامكان
لكافة
وخارج
الكه
المغت
دايو
financ
يصيب
##سمين
##حنة
المادية
المنتظر
##بادل
لتحسين
عملت
##صرح
نعيش
نسايية
##بغاء
الحلويات
الدواء
الخليفة
##حها
وكشف
للمستخدم
الجر
واحترام
العذبة
ويقوم
تهييج
الحساسية
الايم
فيلا
انطلقت
حدثت
كاميرات
المباني
طايفة
سياحة
نيكار
قطرات
غسيل
الاسبق
##بادي
عنيزة
كتابات
الاضرار
حبوب
قضى
والمص
##سطين
القوي
##ـك
##فعول
الحوادث
تقييمات
اللام
اسراييلي
##طلحات
وزوج
باحت
سنتين
بمجلس
كوكب
المعدنية
سجلت
مكونات
super
التوتر
وبخ
##كسون
الاعاقة
##بيي
بالمملكة
الكثيرة
فيديوهات
quot
اللسان
سيية
##سيكية
مصرف
مارتن
للسيا
نكت
عبي
لعدد
##اريكا
حاكم
ارهابية
البث
مراعاة
الانواع
##ـال
والمك
محسن
doctors
الجوز
محاضرة
الحارة
الحرف
##طاني
##ull
##رويجية
والاستقرار
##عاش
دكة
##وقعات
العظام
ارادة
cr
الترفيهية
كع
##wa
السري
للمجلس
اعتبارا
المدرسي
ميزة
نيو
والطب
باكثر
الطايفية
بموقع
السمع
man
الرسل
حياتهم
فاخذ
احمرار
download
الفتيات
##ational
الارضية
##ize
للاشتراك
السنين
الصيدلة
سريعا
غيرهم
موظف
process
الرضا
الموقت
بذل
##me
للبحث
والفن
السهل
امتداد
ep
##فساد
##ابلات
وتحدث
كود
اوجه
##ومو
والسياسية
عزم
نهج
ياسين
والري
##vue
بهما
وصيانة
##ناعات
##اهي
بوم
افراز
##شو
معاذ
اسمها
التوقيت
dan
المشرق
ليبر
يستمر
##يتان
روحاني
##ain
رويترز
##رول
games
##سيه
##نافس
##فسي
تاكل
without
اجن
الدايرة
الخدم
##فاوت
والعن
اتفق
نوح
##منتدى
اذربيجان
لكان
مرب
للامن
شد
##nt
اليدوية
الباحة
##زار
الذاتي
استن
والتجارة
##اغرة
عشان
الكندي
متميزة
بالاج
اسعد
طباعة
الخطر
سماع
رويال
##لزم
يافا
فيج
##ضار
##وفو
اجاب
السحب
ووفقا
برب
عالي
استلم
الاوقاف
القوية
##97
المسب
##نازل
وتتم
##سيد
غن
انكم
قصير
للقيام
وعق
لجافا
الهرم
نجيب
اليومي
اربعين
السمحاح
متع
tiger
وياتي
##شيوس
الكورية
لوضع
المنعم
الانضمام
اجتمع
خاضعة
##رايف
العط
يتوقع
بروت
موارد
بالرياض0557824327نقل
امانة
مسافة
البعث
87
one
##انيال
##خصيات
بتحليل
##سلم
اقتراح
##واها
ودخل
لوقف
لتلك
mobile
نموذ
##راهية
##يييي
نوعها
##ext
الازمات
بالاد
##ودج
مواصلة
##ورون
السلفادور
##وريوس
المتابعة
##بعات
طرد
مفرو
للبنات
##ليد
لمجموعة
##روسوفت
الحزن
اقيمت
##ختار
فضاء
هندورا
معكم
القيا
مستقل
المساء
##يدين
التمو
العروس
##erat
الفقهاء
مهاجمة
##كشاف
صلاحيات
منزله
الفيسبوك
طاقة
والاز
بوجه
تبارك
ولماذا
تستمر
عظيمة
يحضر
ربح
القلق
والرياض
الاقمار
سعودية
تقني
73
سيطرة
pri
##بق
##ريجي
المرتبطة
##vb
##فاتر
سنتر
##قدسات
كرام
##وهري
ابلغ
ملعقة
يوح
الطويلة
##ثقافة
##تري
تنس
فسي
كالت
اقر
القبر
مكانه
الحروف
##لها
بتم
##ملاء
الواضح
يسير
طاهر
مثلما
##اسات
بعيدة
اسوا
##اغواي
##انين
التعليمات
وكت
مقبول
اختراق
سرية
عدوان
##ياض
طبقا
الخبز
وجهات
قير
اسال
##رجانات
الثم
المتواجدين
التخصصات
##صاف
هدية
##ux
لانتاج
##ثبيت
تقرر
شركاء
##داي
بالقول
ويخ
والترفيه
ذهبت
الاهالي
وسيتم
res
جراحه
##غرافية
تنفي
##فتر
##oa
باه
##سيير
تتردد
الخال
المنكر
والهرسك
##قتي
حياتي
html
بانشاء
الظلم
التوعية
الكيمياء
وقالوا
##صارات
##ظرة
الجنود
lazer
العلمانية
المسايل
العماد
الجيزة
فی
تايجر
متفرقة
والكل
يقيم
##جزء
دعوى
تسير
رمات
دخلي
الولد
مزد
جاهدين
سنغافورة
افراح
القليل
##زوار
##ink
تكرار
لتت
المكررة
شقيق
بوست
الابن
كارت
اجتماعا
البرلمانية
المطلب
##اييل
##باكات
فنون
##قادات
##كسية
مبالغ
##app
##قار
تثبت
كليا
##اعمة
مطاعم
الاهمية
الصفات
التمييز
##قن
##واطي
##ياغة
للقرنية
تفتح
وتكنولوجيا
مسايل
تسع
البطن
##وانة
##الام
##kh
البلدة
62
بصف
تستهدف
بابا
انضم
##روحة
الناطق
والفر
قصف
شهريا
واجتما
ودول
وضوح
بكركي
remove
##hs
المنط
##برغ
##969
##اصب
قمنا
شغل
المالديف
الفرعية
للقوات
تنشر
##ورغ
اطول
جزاء
لغرض
book
يرون
قانوني
##ool
مرتبة
الموبايل
شخصيا
وجبة
مشيرة
##ony
الفيزيايية
التحقق
الزه
توقيف
الشراي
##اويل
##وزات
للتجارة
والخارج
##قيات
يثير
##ting
much
سكك
جوانب
هايتي
تكذبون
سنن
المتك
##iyab
عك
##ابهة
##يدز
فجاء
التقويم
الزل
air
البايع
فانهم
##ثار
المكسيك
توصيات
عقوبات
لتنظيم
ايراني
##ens
سويد
غربي
المخصصة
comp
معسكر
التحديث
للنظام
##يبات
كوال
السماوات
اريحا
##قتهم
sv
لطلب
صفات
الشفاء
##ديما
الدجاج
##فلون
هاد
محبة
وبمجرد
والارشاد
اروع
جى
المسيرة
lk
##mw
انفسنا
ارباح
الصفحات
والتاريخ
سيش
شاركت
وملحقات
الاستخبارات
بكلية
الاتفاقية
التقليدي
الباحثون
المالك
حصرية
واضحا
بعرض
##داوي
للخدمات
خلقه
بالتالي
الميدان
لتعزيز
تكلم
محمدا
lc
ليه
حصولك
الخالق
##ience
تقويم
##فران
الشكاوي
الريح
مكتوب
الادم
سببا
##فلة
البطل
لمشاهدة
شل
اود
اسل
##صدير
استمرت
تعليميه
الحشد
##يناء
ومما
النظرية
وخم
باتت
كيس
##que
110
بجوار
cop
الهاش
بالبشرة
الفحم
المعاملات
النووية
الجب
الويف
الماجستير
اردني
##ham
##بتي
الاطل
##وتوغ
للطيور
##وتى
الدنمار
الوص
وجواب
2002
مقطع
##يمنة
##وتيك
v2
المحامين
امطار
dr
car
النط
##عدام
غم
الكاين
الرياسية
استايل
الميزان
##يلو
tra
للطلاب
السخ
الموازنة
شيك
واللي
مناسبات
عتامة
والبحوث
78
يتخذ
الرحلة
##اصد
لفريق
##سمية
كتبه
ميزان
كيم
العملي
##واضع
وختم
عددالردود
وحدث
جنرال
عددالزوار
##يادين
الانقاذ
المجلة
يرو
الاستشاريون
##خلف
وطرق
##فاية
قمر
##38
##عبية
الالف
البوابة
اعماله
يسي
الحية
##سنة
وضعها
يعنى
المنام
القريب
عمرها
مختص
امان
فيهما
الكردية
العظمى
نظيفة
##عدى
##ary
يستعمل
تسمية
للانسان
والجوال
##دوا
المسار
حمص
صدرت
القليلة
تصريف
اشبه
يتقدم
##فيز
world
والمعلومات
بنحو
##اتا
كوبا
ابنا
مستقب
الادلة
زعم
قلوبهم
بمل
حارس
الصواريخ
ومسلم
##وافقة
حدايق
بالمعروف
الاستوديوهات
ونس
مقاطعة
فريقه
ابنة
الظالم
الفوايد
مدف
اظهار
##قاتل
ملخص
الصباغي
تشخيص
وحول
ind
ذاكرة
الملعب
financing
شهرا
ينتهي
خسارة
شتى
الحين
التوقيع
استلام
هيون
القدرات
الامبرا
ماكرون
##ايتد
##ung
ثيمات
femto
##باقي
بلدي
##غمات
بروناي
يقومون
lasic
customvue
motiyab
surgury
motiyabind
الجهد
النجمة
##اجين
المنشاة
تخفيضات
وشدد
افي
العجز
بنين
لايق
اياه
##عدين
مخرج
##ملها
فعند
##حقاق
الليث
كاميرا
ودفع
باعادة
69
بقاء
lang
الاكو
##مادة
التكنولوج
##ee
الجارية
استر
بحد
فاب
##كريم
راجع
عظم
منسق
اعطى
لتج
انجليزية
الخالية
مسج
##جايب
size
الضع
##كيلي
اضف
##دنا
بوع
##ريني
فف
متلحف
##حيى
ps
جلسات
##راثي
##وسم
اللطيف
للدراسات
حافلة
بالقط
حدة
##روية
انقاذ
مشروعات
والمالية
77
سلطات
تتيح
video
اذهب
##سع
حراج
gmt
استقلال
##لبس
##ندقية
##ماه
##خلة
ديفيد
المواجهة
امهات
وطب
الاستثمارات
تتمثل
الكار
معدلات
##رامية
مهدي
يحفظ
الاستر
اخيه
هرم
##وارب
بصد
للعلوم
الامس
موم
طبق
تنتج
ورف
##يثم
psd
##65
الاذن
##ونغ
usb
لتر
السني
##راغ
حمود
دريم
##اوم
##طفي
ممتازة
خميس
للقضاء
الديك
انتخاب
شاكر
الاوس
##روسة
8a
درج
الانصار
والفيديو
جنود
##ايلي
البترول
الريف
يعرفون
عنصر
جنسية
والمسا
الاشت
الخضر
اللجان
اشارت
ورفض
الخش
اودي
المقترحة
السلبية
نرجو
لمناقشة
وقول
انتصار
اللذين
لى
نادى
وسجل
##وعد
جوايز
مظهر
موبايل
المغاربة
والاقتصاد
نبيه
بالث
##انو
ينظم
##غف
سمارت
##etin
الكفار
للاغ
بتلك
ترومان
تتخذ
النظارات
بالعاصمة
1994
##اكهة
كيمي
العي
محاول
دينه
##star
المشرفين
خفيفة
يشترط
باشا
البطولات
وحدها
قريبة
هونج
##روز
التقديم
##شركة
ღღ
##قاليم
ودم
والاخر
بالطايف
الباس
##قيمين
اكواد
اساسا
نفوس
##ire
يعط
بلس
كسارة
باقل
دقة
ناص
##نوع
والحمد
الصي
النيج
تامة
العبادة
بضم
##هول
##شرف
تعقد
997
بحلول
##زامن
المخالفة
والاسلامية
##ms
برقم
##ky
فيمكن
قرى
نحت
##اكي
تتوفر
الفقراء
وبدون
المتحركة
دولي
كد
نستخدم
##براني
باللون
بداخل
كيت
حكوم
وتوزيع
التهاني
الاكس
##ديها
النقاشات
تما
باقة
منطق
المحرم
##اتباع
er
ضربة
##كز
الغدة
المهام
القاء
يسلم
ساحل
##واتي
تفهم
##هيار
الثقيلة
موتم
##زيين
انهما
##صفيات
بتنفيذ
لعلم
التلاميذ
##ahar
التوازن
ثلاثية
منق
مصد
وند
الهضم
ارو
لاتف
العدسة
الاستراتيجي
اهمها
الناتج
##طاف
انتي
ونسبة
بالعربية
التكرم
سكنية
انطلاقا
##ult
باطلاق
لاجراء
الابطال
العتي
النازحين
انواعها
الصناعات
تذهب
ووجد
##ياطي
الناج
الانجيل
##وضي
##جري
الاعي
مشكلات
فعلت
##امير
اثبتت
لال
##تمة
احص
سراح
صيني
شدة
يصعب
الراهنة
ومتابعة
معروفة
وشهد
تيمية
الخليجي
فيجب
واجهزة
تعبية
الطال
gt
الامت
يدعى
قاموا
##بض
الشيعي
كومي
الصع
حبان
##als
الفلاح
لتوفير
##ردة
وللم
فخرج
بنقل
الكود
##اخبار
تاجيل
والجمال
حاولت
حولها
تراج
intern
ساق
قدرات
ممرض
اسراييلية
كيان
للعم
تمارس
##96914
تحديات
الفكري
اللحم
الحز
والمنطقة
محاكمة
##ربوا
تفرض
تدمير
##٠٠
مسبقا
النزاع
الكذب
##اليا
وبشكل
التجار
dvd
حار
##ويدي
حملات
ارمينيا
العذاب
الفتاوى
للمل
##هاي
الاسلامى
وشارك
##يتنا
ne
##يرت
السرية
gal
برن
الايت
ردود
رحل
الغني
##ناده
##جزيرة
تتلقى
وفاته
تتراوح
##ديمقراطية
لبنانية
##ولون
عربى
##شعر
##واكب
##ضحى
العقيد
##يوانية
##ضحك
##اورات
ويعمل
##علك
السياحي
الغذايي
##اعدين
الرياح
1968
نشرها
##ماعيلية
الاتحادية
معمر
الرض
عمق
العزل
استطيع
والشركات
بامكانك
العصور
بقتل
جوهر
##هههههههه
المسافة
معم
المنصورة
بند
##غطيات
المعارك
الاشجار
الجنايية
المثالية
الميز
بدع
يبت
انهيار
##ياطين
الشراكة
برمجة
##وجل
يوافق
اتم
##صره
اقبل
استخدامه
والذى
اتمام
me
##2010
##ـتـدى
99796914
وقي
##الين
الاحمد
ادلة
للتامين
محدث
مخطط
تعلي
قدره
ضريبة
الاهلى
برابط
##تمان
والنساء
نيجيريا
فرش
والانس
الاسرى
يتحقق
لتحديد
رايحة
يجلس
الانق
الملاحة
##soft
##سيطة
سمي
الكونغو
##ضرات
##ييل
مية
pa
الكاف
الاعشاب
##وليك
نصب
##تداء
العثماني
ثقافيه
##ايبة
اليات
الفيل
فالح
##وكة
الذكاء
كاش
ودون
خذ
انتهاك
##osh
والدراسات
والاستفسارات
##overy
##احف
##نادا
تجهيز
للاعلان
وادوات
##لوج
حامل
##قرة
ماع
##يرها
##حيي
ann
فريدة
الشريط
امم
جفاف
الحراج
ككل
اعتمد
العظ
اكن
الاعظم
بوب
تنازل
مشهد
المنافق
بزيادة
كليب
بجده
نظيف
واكت
##اسير
المساهمة
يومية
الاندون
الغالب
تصور
للاز
¤o
للمواطنين
سيادة
تاويل
82
##ضايع
اقلام
القاموس
led
منزلك
##ريغ
الجولان
تكاليف
##صه
##يسار
اتهم
bot
استعراض
علمه
وامر
اشعر
عقوبة
وتل
زينب
استعدادا
العقار
هز
يود
مرسي
نظارات
61
عات
محارم
فوجد
##هرا
المالحة
الخمسة
79
بالمست
بالجامعة
##سنوات
يور
حكيم
بولندا
والمسابقات
تهنية
يعلمون
جدي
نفت
للشركة
السفينة
ولها
اعداء
ومف
يقرب
##interest
البورصة
واجهة
يمين
امتحان
الاجر
##ظا
الحركات
##تني
المركبات
كرتون
##31
سلا
وخدمات
##صفه
ودور
استشاري
##ناقض
صارت
تلم
لايف
##ضيحة
##plic
تايمز
يدور
مرسى
المتصفح
ليلى
ميسي
بشرط
##حيفة
حمامات
##ance
ارشادات
مضاعفات
اليهودية
والفل
التاكيد
زخ
بمد
##فيين
##رارية
تعم
للسيدات
##جلد
##لندي
الصم
فاض
نصرالله
فيتنام
بالاعضاء
تخفيف
ريت
sal
##ندسة
متفق
كيني
##ناطق
plus
ثالثا
مسرحية
##لج
98
دجن
##يزيا
متحف
نبض
هود
ورواج
نمط
الاجتماعى
ابين
اشترك
شعيب
لاه
النسي
##ـــــــــــ
##ليط
##خفضة
وجهها
جثة
الناخب
للحزب
مختار
نقيب
اذكر
##طالبات
##قيقا
الزع
ir
pinterest
الاماراتية
لوحات
ذكرنا
يخالف
يقود
والسياحة
##يقي
فيمن
وتعد
المنقول
اوق
ابوع
السايق
الزق
حدد
خلايا
البدراني
والالعاب
الكمال
##وفد
بوتس
ثابتة
الجمل
الاشع
الصلة
ونظام
رت
النكاح
يصنع
##vr
المعادن
الضرر
لقط
97
عشاق
الاختبار
ثانوية
وعبر
يذ
هذين
##ونج
نشره
##برج
المقالة
متت
ماجستير
للرجال
جوكر
b1
احدكم
السياسيين
تنتظر
غالبية
لزيادة
حاي
والتكنولوجيا
للتم
كهربايية
طلال
كح
كذ
##غرة
##اجرة
لنتاكد
ننت
القارة
##خبات
والصلاة
التوقف
##برع
لقايه
النباتي
ادري
الفتوى
الفردية
فاني
ولادة
ايديال
الجاهلية
اعمل
يمل
والتغ
مستشفيات
##ينيات
لرفع
##وثيق
وتنمية
السريعة
ومكان
وبهذا
موقعها
مذكرات
لشراء
km
الراهن
حمدان
©¤
والاض
ترفع
عاب
كفاءة
تمي
الجيد
حوارات
##وراق
ويوم
ليبي
##ظاهرة
اجازة
عذ
##ركون
##ويح
الهاد
ونقارن
الشاطي
##ادها
اولياء
السجون
سرير
المفس
المشتري
يصلح
طيلة
بخاري
يحتمل
##واجبات
aw
يخدم
استكمال
الارصاد
الاذان
جديده
احس
يحرم
خريطة
اخبرني
والعل
بالمق
ساموا
كند
المصل
بيرو
دجنبر
رموز
المزايا
##انها
للحوار
red
مدون
بنجل
##دو
مترا
المنقولة
الميكاني
الصار
##صيح
عقار
##ياتهم
مفاهيم
ماهر
موسس
##ورج
محدد
##برنا
الدر
دبليو
الموز
الشريك
التعرض
المتف
والاجتماعي
عطلة
درو
المردة
##احمد
الوفاء
والعمرة
الرقمي
care
حنا
المشركين
بروز
##اتين
وتز
يعيشون
مغربية
وحيد
يضر
استف
##شيش
##ظاهرين
الشرط
الغناء
الدايمة
محر
عادي
يونايتد
جلالة
رصيد
محلل
اعترف
وصفة
##ـى
72
الاخذ
العباد
الجايزة
الحبوب
##ندى
وعنوان
ولاي
##يخ
المحطة
عدو
للطيران
##سبه
الطفولة
##ais
لاتاحة
يحظر
يتح
كورد
رسوله
تشجيع
عادت
يوجه
استثناء
بصوت
ms
مرتبطة
البطالة
he
مخصصة
##طوبة
الامثل
تفوق
##ps
##وايي
وكانه
##وليه
زفاف
يتق
جعله
##ودو
صدقة
العراقيين
الارجنتين
لمدينة
افتتح
##امنا
للنشر
القى
حريق
##باغ
لحد
##اصلة
يجيب
والمم
ثان
##رضا
تسعة
الصحافي
الطايفة
بالماية
السنية
الحسيني
##اريين
شعوب
العقدة
اصغر
اعتراف
للفريق
حكاية
كتابا
بغض
##رتهم
##رجاع
av
##كاف
الافعال
موهلا
شيبة
اسمع
كولومبيا
بيانا
مايكروسوفت
شيت
العايل
تمسك
##شيه
##عق
لويس
ثنايي
مجرى
وطالب
langu
الاجيال
طاقم
##يداد
2020
ينصح
الضرورية
¤©
حادثة
يضرب
##39
مبروك
##رياسة
تحسن
المرشحين
لاسيما
يعقد
حياتها
متكاملة
يغير
سور
فتنة
vision
مرتبط
smart
انقطاع
القريبة
النسبة
خطب
الالكترونيات
حرا
ضابط
همس
الفتنة
قف
العفو
اسد
##اليك
عاج
والتواصل
##شيء
ديل
العبور
شهاب
الصخ
##ood
بعملية
معاليه
متابع
البنت
##جنات
حركات
فوركس
الايجابية
النبوة
لبس
##سوق
##غش
##تكار
صهيون
الجرا
##plus
##لد
الوسيط
وحفظ
وبق
صدام
كرك
المصاب
بشرية
دكت
يواصل
الحليب
بمقر
الكلاب
قنا
الضروري
يرتبط
##نده
حذر
والقم
##تاب
اشترا
نظمت
يسقط
لدرجة
والشباب
الديب
نية
الضغوط
id
الخمر
الابر
##روءة
url
جح
##يلاء
يقارب
صالة
140
##طفاء
ليش
gold
المستمرة
##يسور
وحكم
برك
ماري
الملوك
##ويتش
القلم
ثلاجات
الكبد
no
##يرن
##ذوفات
ودع
النقدية
زادت
توم
الصن
##جزة
البت
الفاط
قرابة
free
##ازات
##ريز
##وتشي
السبيل
بنيامين
##بكات
تقي
عرضة
مصل
الدقة
نفسية
كلمته
عدنان
جبران
##باحثين
ساد
لمصر
المعاني
##ـيـة
الفك
بتوقيت
وردت
##يمبابوي
عناوين
##نتوس
الضباط
##سوبي
يوحنا
عيني
الصوتي
لنشر
##غى
اسلامي
سرطان
الورقة
السوبر
شعبي
##ضن
##لكات
الاولاد
##الايت
والشتايم
صواريخ
بركة
السايل
عينه
حاف
بتف
##عارضة
وكانوا
للاق
تشاهد
##فظة
وظيف
ظفر
مناهج
1995
الببغاء
الاجراء
يث
##ـام
لاني
كاد
##ics
حبس
غسالة
الخزانات
الاجل
صحفية
السيدات
الدرقية
89
مكانة
القياس
الاحساء
اصدارات
جرافيك
##صلت
عمليه
انفجار
ارضية
لوجود
يسعد
للشركات
شركه
خاف
الواجهة
هيا
الاغذية
ريم
خوفا
البعد
التضامن
##كوف
هايلة
عاز
المساواة
للاستفادة
واصب
##كته
##ازيق
الوض
ويوكد
تكتب
##سهيل
يميز
مكتبه
عايد
المحدث
##وثايق
هدفا
التحول
الندوة
انثى
متحرك
المسجلين
جانبية
ارتداء
وشمال
التفاعل
1999
اللغوية
##طت
تشي
النقطة
جر
والتخ
بورد
للتق
نضع
##رقات
حققت
للتاكد
دبل
بقول
وبس
تهدد
والفنون
تزويد
##rk
طلوع
ينتج
استثمارية
لاتفيا
##vision
تشبه
البييية
##ساهم
حازم
وتض
المريية
كازاخستان
تولى
متط
##اجا
معارك
##وفه
ظبي
##عكس
موكدة
رص
واعلن
##48
لضعف
باختيار
هان
قوايم
رجاء
##زوجة
صدى
الصينى
المشروبات
صيغة
والعب
اضطر
##وسا
المايدة
صوتية
لتصبح
ak
المحقق
صمت
اسهل
فجاة
##رافة
فتفضل
وكثير
تضر
##قود
والثلاث
يهدد
ولذا
الاسترالي
والتصميم
تقديمها
يوضح
الدعوى
تونسي
سقف
الخلافة
مميزات
والدفاع
هجمات
الحادي
##فرغ
يكره
##ويع
للفن
قوالب
قطري
الجانبية
##راعية
##بيرا
اخطار
اللق
اشك
انقلاب
شرقي
##سكي
الطبعة
دلالة
البه
الفنى
##رارا
لقاءات
المكاتب
الارز
بديل
تعلق
##كاليف
mus
##68
بشحن
طلحة
قـ
وكر
الموسيقية
للكمبيوتر
خصوصية
130
تليف
الكناري
والايب
العاج
والمسلمين
##ليج
##ناط
قومه
ly
رول
##ديك
الصمد
190
تقيم
تتكون
مدبلجة
وقرا
مراكش
##قتنا
##وافي
حسنة
للمقدسات
وحديث
صام
بنو
التعليمـــات
برفع
الكرمل
نقلت
وقطع
gener
فلسطينية
ارحم
الشهرية
##رياء
ترب
صادر
الاجزاء
##وشة
مسووليتها
عثر
##وتش
مدع
ويوجد
موريشيوس
وسلام
##يعاب
الانتفاع
والادب
المتعلق
المشهور
المتوفرة
وشكرا
المبكرة
والاعلان
بمركز
ذكرها
كيا
قالا
لاستقبال
تومي
لتخ
بالتنسيق
التعديلات
متوفر
السموات
وتقوم
الشايعة
موديلات
ازاء
سط
يتحول
##داقية
##نامية
ومدير
والثانية
الرشيد
دعت
الالكترونيكتابة
المشاركةالمشاركة
المختص
facebookالمشاركة
twitterالمشاركة
حرق
##ern
بدورها
طقس
##فط
ويقدم
رويا
امكان
لزم
شرم
##لاحقة
الانتظار
يمكنهم
حقل
رفيق
امامه
##كوري
##سمبورغ
##وثر
##خان
موقت
البصرية
افعال
ميجا
والعلاقات
زب
##رتبة
لجلب
الكاز
##جهز
واسعار
غرايب
طلبت
القيادات
كانا
الفلاش
تستحق
واعلم
صريحة
اكرم
ابان
لبحث
لوكالة
pc
عرضها
##امينات
العلاجية
راك
متصل
بالعالم
كاليفور
والثالث
بليز
##100
الاستغ
انجلترا
الشقق
##اطا
##سله
الكوكيز
##مسك
فست
الجار
المفترض
مانع
##اكيا
درعا
##رايي
##براس
السعوديه
سنه
بلادنا
lat
##its
رضوان
ناه
يرض
والاثاث
وبدات
كورة
##فورد
وجوده
اجتماعي
##قاسم
القضاة
المرات
الحوا
cam
نجل
المصابين
قضايية
رياضيات
مباحث
o¤
##وضا
##لوا
اللات
يقرر
الموه
بون
باعتبارها
##iss
الحلف
توت
الضحايا
المعارف
وصحبه
وامت
بالاسكندرية
##ins
والعشرون
##اصي
لجان
شعور
يقوي
هيكل
طر
متنقلة
حاله
بصيغ
bd
نخبة
ووض
الورقية
وخل
اللقب
عماني
للزواج
المناهج
حينيذ
لبيع
المفضل
انعقاد
الحلقات
##رفه
##عيها
الكعبة
قولهم
الفاتحة
يومنا
font
مهد
بحجة
رضى
الاضحى
الجماعي
ظاه
##ريجين
باستثناء
نسبيا
ترخيص
نموذجا
والكثير
ساف
نادرة
الاغنية
الفيروسات
حرج
الاذاعة
الجي
غاب
متحركة
برد
دورها
##رددات
المستعملة
##mb
##كنه
ديز
غر
الروحاني
##يقا
##بتديين
عقبة
ذاتية
حظك
مصطلح
##يسير
تاريخه
##تهد
الارسال
##وهة
كينيا
الافراح
معاناة
بنجاح
خطير
قتله
ستارسات
والرحلات
حسان
الحربي
للامام
للكن
##ya
ارخص
##جعل
جمعت
المعاصر
وتاثير
##شرية
التشيكية
##اطرة
الهدى
بولا
ورجال
رومانيا
يبين
بالشعر
للتدريب
##مح
حنبل
حساسية
عنزة
المتجددة
##ايحة
بلص
الرقية
بشارة
والمشحونة
والمغ
النفايات
ومات
والفنية
صوف
الصحفية
سويف
طموح
الاسلاميه
email
الزراعي
دستور
ادراك
##yle
##ism
مثيرة
والتدريب
galax
امريك
##وسية
واصبحت
لمثل
كاليفورنيا
المصمم
وبخاصة
تلبيس
ارتفعت
انح
دست
عبيدة
السابقين
##بوب
وايران
الاقس
بتج
وتعمل
التحضير
غالب
بتنسيق
المنطق
ووا
تفاهم
المفقود
التفاوض
وقاية
المحل
وسام
نان
النفوس
يتابع
بالتف
hk
tag
بقانون
شارب
اجت
ويبدو
فلب
كلنا
##ory
احتجاجا
##بادرة
السفن
الدبلوماسية
##ايرا
قدمه
العبادي
شيخنا
ترفض
##رارات
البير
صالون
هدا
مقاعد
مفيد
surgeons
مواق
##كنت
##المن
للمحت
تاخير
دفعة
##مات
##طون
الطول
توازن
الفاع
الكسل
برلم
امني
تراه
الكلب
اليهودي
mg
بجايزة
##وظايف
ميقات
بالخبر
تمه
للشعر
حرك
تخضع
مستخدمي
الـــ
السرير
جهته
اعجب
الكثيرين
موجة
فيرجى
النحل
التصنيفات
##وكم
وعمر
علاوة
الحرص
القبيلة
فام
يعادل
##لع
الهييات
الزهور
وسوريا
فتحت
فيلد
المستوطن
واشت
##روفيسور
مايكل
ووزير
تاون
توحيد
تتوقف
لانشاء
par
ضباط
اسيوط
##هرام
ونقلت
يمكنها
اسماك
للقانون
المكياج
دورية
للتنس
بالار
الخبير
يرك
البيطرية
تنزانيا
المستقبلية
iq
وتركيب
للحياة
وحمل
هيونداي
الزقازيق
##وايا
نزول
انور
وعالم
##ستمر
والاطلاع
الكاري
فقام
##فاءات
المصارف
منشورات
الاعمار
وتوبا
قبض
موضة
الارجنت
##47
دنيا
المسرحية
الاليفة
الشاشات
قســـم
pow
احتلال
##te
الفضاييات
تحذير
بقرار
للفت
المختار
##kk
فتاوى
المحمولة
المرييات
بلاغ
##بيها
الامامية
غلاب
العقلية
المبيعات
اتي
انطلق
استهلاك
الدقيق
##الحريري
عفيف
المتهمين
ونص
##فقه
الصغار
الفرح
الحديدية
sz
الشهادات
التحدي
ثواب
بحثا
طراز
الاختصاص
وعايل
تعكس
خمسين
المير
روضة
##اعدي
ملكية
ببرنامج
##الاس
عرضه
نبينا
##هارة
رشح
##الهم
البغد
صورا
تنظر
باصدار
الفريقين
القادة
السعي
موشرات
الخيل
دفاتر
##بعه
الغس
المحاضرات
وتنفيذ
احساس
العاطفية
المستدامة
المواهب
غام
والاي
فوكل
تكبير
##co
مواعيدك
رينو
مركب
سلك
الشت
##كتيريا
بنجلادي
##قع
##قرر
تقدمه
##طول
بالاف
gl
وبالن
العطور
##ماعات
تهديد
الهجمات
لعدة
فلك
الون
##able
الدراجات
الغريب
ساو
نايل
شاهين
غيرك
##حقة
الابناء
مرشح
والبط
##بيحة
الراغبين
هلي
للدول
متاحة
الاسكن
والجمع
##ينسي
انسحاب
نزار
الوضوء
لحضور
المعتقلين
##und
بيش
باسلوب
يرحم
bw
تميم
##يلى
السياح
1439
تدري
كلين
محاسبة
لاماكن
بوضوح
توج
##ايقي
التحض
سوداء
اسك
ملامح
##خير
للتخلص
الجاد
اجمعين
جاد
بانك
##98
الكهربايي
ثلاثين
##الوا
للغة
تولي
للرد
الرمضاني
عملاينا
الورد
الفوضى
غرام
ثالثة
الابداعي
مقص
الصلب
##اعيات
الحجاز
واقعة
لزيارة
##سيارة
الجذب
وموسسات
القاد
باراك
ma
امية
ربيعة
ثلاثا
##ـار
مدافي
##وفان
ايمة
المسح
يصدق
يلا
مفاوضات
المتحدةت
سورين
فصول
##الار
متطورة
##سلط
الامازيغ
دايمة
وتحليل
##ولمة
الحنفي
##يزا
هوب
ig
لوح
الدولى
المدع
بالخارج
وضعه
الفهم
وطلبات
السلمي
الجالية
الموض
فتحي
معاون
##ستن
مستعد
السويداء
##وعين
##يجي
وملفات
##هدوء
##اوري
جهنم
اشتراك
##اردوير
##ـح
الربيعي
اعين
مجهول
تدريس
والفت
المبنى
الشريفة
محاور
كليات
جواد
##واتم
تقدمت
سوس
عملي
يبعث
بالرياض0557824327دينا
هوا
ادراجك
##اءمة
السنغال
##ram
الوصف
وتحديث
تبت
حصر
##ذوفة
والعنصري
تكس
مصرع
للكي
##وفاكية
لطلاب
الصهيونية
لحركة
قدما
خطبة
الضمانات
التاليف
طبقة
الالفاظ
الاندلس
والنا
الفرج
اضافات
ورك
مولاي
##plications
تحديدا
لاقت
##ادقة
خالرج
##كشف
للذ
ومحاولة
والامارات
##ليبس
وتوجه
موافق
تثق
روك
متح
##والد
amd
طاب
##عمر
لجعل
والرق
تار
السلة
المنح
للطب
##يروشيما
المرحوم
##وروبا
##جاعة
hum
والنقل
1998
ناب
عاشوراء
لتد
aa
محادثات
ستيف
اناشيد
fri
احصل
اداري
تفض
القمح
استضاف
##كث
##iel
##جيد
الاعداء
سلة
مطلق
الكفاءة
مطر
ايجابي
تمتد
الملكة
المطلق
بروتوكول
نقلا
نجمة
داخ
الايجابي
سواتر
الشرب
احتم
سيط
##ors
بتنظيم
تمهيدا
##كبة
البرج
المقبول
فبعد
ننصح
تسليك
وتعليم
المغربى
##500
##غلب
##ique
recovery
الاندونيسية
صنف
ابرزها
وتركيا
فون
ذمة
زهير
نادر
الكوفة
العنصرية
قطار
مولى
اعتما
general
الالغاز
دوره
الحاض
وقفة
الزهراء
##رباط
توقيت
والاجنبية
جنبلاط
بوج
جورجيا
المعن
خدي
تلبية
غوار
##فيلد
النفطية
بحقوق
يتغير
تطهير
##وجواي
شملت
يدع
##فاذ
واستفسارات
دولارا
ميني
المند
الحادية
بحوث
السامية
نافذة
المبيدات
حقيبة
ولكل
العال
##ايما
ترجمات
افق
شهيد
تلاوة
النصرة
نيوزيلندا
تتحول
94
الاركان
المولى
ريح
كوستاريكا
الامية
ang
ويرى
##ليميم
ومعرفة
كايمان
ودية
خلافا
##يجة
ترج
rt
##الاب
##ولال
يار
العطل
مثير
##دام
العبرية
الاستمتاع
شاغرة
##بوين
والتراث
الانكس
##اجات
قاع
معارضة
##ices
البرد
##ساءل
##تناع
بمعدل
##قطاب
##هال
والابداع
##يانا
فنلندا
السيف
الانتيل
طبقات
##طورية
يستهدف
##طانية
وصار
براس
تقام
بوا
الكرتون
والتربية
عمالة
ولدت
يتعامل
رجيم
بالاشتراك
##فسهم
pen
الاسلوب
ماستر
الظن
box
طلعت
لواء
اصابع
بنتيجة
##ــه
تعويض
واحي
##ـف
وبالم
الفوتوغ
الاستعداد
##ick
اريستون
ca
للعب
bt
والدم
عباده
مرييات
##ربيه
والناس
بالسجن
##اعيد
الخي
الاعراف
عقيدة
المارونية
شقتك
##سيخ
الاصطنا
##ديية
الباطل
##ابته
والمطاعم
##95
الكاميرا
مظاهر
التسليم
الزمنية
##احنات
وقط
vo
الشجر
متوفرة
الستالايت
تاييد
السينمايي
مريض
الشيعية
نيابة
الدعاية
عموم
##ينج
المنيا
اطلع
جهل
حنان
الزجاجي
حبة
##اغوا
work
sams
توعية
col
##ميص
وارتفاع
الاميرة
بعثة
فوكلاند
اخطر
قلبك
اذاعة
##رجمات
الغبار
الفرات
##دعي
الحجاب
والكر
##غياب
ويذكر
##كينات
بالذ
الجيدة
كمن
نبراس
هدم
##ياسة
باعتباره
ومعلومات
قبلها
بالنظر
contact
##يقظ
جرح
##جرين
فعالة
مصنف
القصايد
المحر
استنادا
مركبات
##وكر
لكنهم
اسباني
السمك
رايد
##fo
التقدير
##كتل
الذكي
##bo
ارواح
exper
##غطية
تساقط
التشيك
يفكر
الارواح
والاخرة
مشب
فينا
مصانع
للانتخابات
وحق
العظيمة
##شارة
للمخ
والعديد
عقيل
شرعي
اقتصادي
اسما
##رعه
##بالغ
المبر
الموحد
الاقليات
اقدام
بابوا
خاصا
روات
بالمل
##يليت
الدمع
خالف
والحد
##خصيص
وصفه
الوسايط
##ركاينا
برلين
والحض
والغاز
نحتاج
عالمي
لشخص
##ربها
وتبادل
##ونهم
الاناشيد
الموشر
بالكلية
تعالج
تصيب
لمعالجة
##يدان
كره
الصحاح
طاعة
##كسل
##احه
الانتباه
المقط
تعليمات
يقتضي
السوف
##جزات
ماجه
الغيب
غي
##جلى
عا
غرار
كونغ
لمل
مبينا
المبادي
للمياه
دراما
المترجمة
اختصار
موقعك
الالباني
خيال
dis
بوف
##رتي
للمه
فاروق
الكافي
الاستعمار
يساهم
وجودها
الانشاء
الثروة
لاحق
دن
##رامي
قايل
المبعوث
للاجهزة
باجراء
الكول
اناس
والمغرب
##ars
تفكر
مكر
الكوري
افرازات
واني
المقات
##سح
##min
ليصبح
الفشل
ليو
طنجة
اينما
العطاء
زحلة
الجذ
والمعدات
الجوانب
##وافذ
##وافر
##عدادات
الامريكيين
وتنظيم
##عنا
##ـــــــــ
انبانا
##فد
##داثة
الموسوعة
ريب
مهاجم
مرافق
شيوخ
رفضت
##idae
مقدار
تشويش
##ement
الثانوى
ومز
##سيين
البغدادي
اولي
ضيق
ومكافحة
بقيت
الاستماع
تحريك
الفاضل
عاجلة
والشعب
بلغاريا
جدد
مسبق
الصدد
##حيين
جث
##لاجة
القايل
ولات
##غض
عددهم
البحار
##فهم
الخلافات
الذنوب
ومجلس
##غرام
##شرا
##gi
ليد
استيراد
الادارات
##مارين
القرانية
##هاوس
تحل
التحرك
اقراص
فرانسيس
##ليين
##روشات
يفترض
تنطلق
ليم
الصداقة
##داك
المغتربين
رز
##ـــن
للاسلام
لمشروع
الحمية
##افير
مكس
والجن
microsoft
جدوى
معتبرا
##nl
mk
تفصيل
الصمت
تمارين
عقول
يفرض
العر
##هدفت
بيتكوين
عارف
تسهيل
##وكا
تجميع
القصف
يراه
المزعجة
جميعها
لدول
##bl
##port
1996
لتتمكن
موف
عر
العملاق
تسوية
طور
روماني
##واتو
اجريت
كامكس
برق
والدكتور
التسوية
نسعى
span
يدعون
1990
##وجات
بتد
مالا
كاين
##لفل
بطريق
تربط
الحص
##تيلا
اعض
##سنجر
الموتمرات
##ظهور
انعدام
الشاهد
##ماة
2018م
النطاق
انجازات
انخفض
بوتسوانا
##station
البسيطة
كامب
##كييفات
الجهوية
تمنح
##اذبة
تحصيل
تثير
اشهار
وخلق
وانته
##راجعات
مسلمة
لاقامة
الخيال
##وليكية
برميل
حسنا
راق
العشرات
##رتنا
البرازيلي
قويا
العقوبة
اشارات
صبر
يامر
لكننا
للمستخدمين
داف
والقب
بالو
يختار
وساير
طفلك
فضايل
الخرج
##ايكي
الملايين
##زول
اهداء
الحكام
غادر
تساهم
اساسيا
##ريال
بعل
كجم
1980
مازال
والدولة
style
للكتاب
الـع
التعذيب
شمالي
مواصفات
حوض
الاناقة
تامل
حدا
معلومة
جثمان
لاو
##واقيع
عوا
##سار
##سترد
تقليل
الانتصار
1967
تعنى
وزاد
الرايد
ورواه
بمق
البكالوريا
##حلة
لمساعدة
والجماعة
فقيل
الفرو
نجحت
##ابح
ليسوتو
##شراء
لاعضاء
بضع
للبح
خسر
##ليمون
سوب
فسوف
فاين
##2018
##كستان
بنس
عامي
نهى
صيف
الجلوتين
شيع
##وسفي
المتشد
##ضحيات
جدران
غضون
عميق
يقر
كروس
وخص
##زى
للعد
وتحديدا
والبر
الفتن
وصاحب
##هاية
##هاجر
سمايل
الجانبين
ومعه
حوالى
الامهات
ينقص
ابداعات
الغاية
assist
##يهما
سباحة
لجهة
##ايغ
تسال
حسم
يتسبب
بالاق
عمري
كردستان
##سيح
تحولت
الصدق
مضاد
الباك
##وكيت
##اطير
ياد
قادرا
تسمع
اهد
##aq
حان
عصير
##view
gro
جهاد
راض
ستان
ترينيداد
الكاريبي
صاب
يقطع
اللحوم
##برين
يبق
الاحساس
ميلان
والحك
السيية
الكاس
فنز
بكسر
اراض
داعيا
تصنع
حكما
ضرر
الطاهر
رومان
##ron
##نوا
يوفنتوس
وباس
مكاف
وسيكون
ريسيفرات
المذه
النبى
العماني
تفكير
الممارسات
sar
نفع
محفوظ
اعوذ
ربكم
وينت
##zt
والالت
والصوتيات
##هامات
##غرى
والحفاظ
والحوار
واصلاح
التوراة
kw
##تبع
##كنا
ميوية
المشي
بترك
للدخول
samsung
حقايق
ويتحمل
ترسل
##ونديال
##ستية
نوفر
قاضي
##اعرة
##ــب
##ich
عروة
##رنيت
فانواتو
الشوك
البدي
الروحانية
احزاب
الرياسي
صعود
##فتي
رحيل
يخلق
استعمل
71
##خات
الحليم
طنطا
sn
الضريبة
اولويات
كربلاء
##ممة
انو
##ادجي
##ann
المخصص
التجديد
art
دياب
نسال
جاني
ذر
وتاتي
قتلوا
يناقش
when
##وزي
##مام
##وصي
وراى
اوسع
حث
لتغيير
الوجوه
لزوج
التصعيد
وتنت
ساند
حنين
الجراح
##وييل
والنشر
sch
الدريم
الصفا
ووقع
الجزاء
المادي
هوندا
##وثة
المصرفية
وتصميم
المحرك
العمالية
والنس
##وهاج
التموين
قيمته
يناسب
مجتم
قار
سترونج
مجدي
##اتور
كوادر
galaxy
امارات
دونغ
الكيوماكس
الخشب
البيه
##ذقية
##رابة
التنوع
mx
نسمع
عقدة
##قيبة
شيكل
وقتا
min
اتل
الورق
##تمت
بلاي
عددها
والاه
للمسلمين
##arn
##رافقة
mag
##وديا
strong
وروسيا
لذي
الباقي
والمواد
ملغ
جزييا
برفقة
where
ميكاني
اليونانية
تكمن
سعيدة
الممثلة
لمصلحة
للدكتور
النوعية
المعتمد
الافتتاح
اخلاء
شهرة
الماسنجر
الاستد
الايدي
صوب
للخروج
محدود
راعي
انى
الفوري
مسوولة
annahar
##ـج
##يتو
both
السط
يخضع
كرت
##ريلان
فوري
وفعاليات
##اعته
تاخ
التنقل
اشهد
تدفق
وجهك
##اكين
الدعوية
ارهابي
بالاحساء
والخواطر
وتلك
التغيرات
قايما
الذكور
الطيار
جلد
المخطوطات
سيات
ويعت
latest
المرشح
الجوهري
key
لايم
##الل
##اربعة
اخره
##cl
بالامر
الموب
جماعية
الاثرية
عرفة
##بب
اندية
اليوسفي
بمرض
لاعبي
البطاقة
الرويا
مهنة
##افى
ايديهم
nad
حجاز
وحاول
يرسل
ونش
مخرو
بالدرجة
online
الموحدة
##فعاليات
##ved
٢٠١٨
الشيوعي
دمياط
والاقليم
بالي
تحية
##باري
ضخ
##عدت
وتوباغو
فاك
المتق
مسوولا
ممكنة
##ition
ربهم
تسريحات
اورد
##واتير
جادة
والمري
الامتحان
##رنسية
عرش
##راص
مضي
فرنسية
الحريات
زيدان
ليتوان
كيك
الكروات
##لتر
التبليغ
بالمش
يتعين
مفاتيح
باراغواي
للاخت
مقدونيا
المطعم
قلوبنا
eur
استفسار
علية
##ريجيا
جنيها
رحاب
##air
##cy
##يفاء
مستوي
##رعى
##ديال
والمزيد
لير
اليز
##بتهم
لكاس
كروم
عبارات
يحسن
سلبية
المحمد
تسوق
الارباح
انقرة
كوبي
التفتيش
##زقة
الشغل
اسلاميات
uf
موب
الهدايا
##كرين
المتعب
حزم
##كوت
تفس
حاصل
##ظروف
اعتداء
day
اخبارية
مكتوبة
نيكاراغوا
ولبنان
الكيما
ضمور
يختص
اضاءة
المحسن
##نسى
المصطفى
##قلوب
للاسرة
الزفاف
لاري
الجوار
يعكس
القديس
##يهود
ضحية
وعاد
##ound
حلال
تركيز
##طالما
شخصي
رواندا
مواطنين
وذهب
##روبة
ولكنهم
العثمانية
حاس
اليت
امارة
البحيرة
كونا
الجدل
ومواقع
ملاحظات
الانبا
وحض
##صرين
لاسراييل
للمجتمع
##نجهاوس
وزيرا
تطرح
المتح
##كما
وجاءت
ثياب
سفينة
##wl
الاقدام
متقدمة
##ــع
الارتفاع
##ade
ووسايل
مترو
ايصال
الاربعين
##طوي
وغيرهما
دمج
اقتحام
لتعليم
ويجوز
##ابتن
فيجن
تصدير
apple
هش
السا
اوقية
الحارس
الدماء
##نيابة
مجوهرات
##جهل
اكسب
##ابن
بالاخ
العصبية
islamic
ابها
القاتل
الاطلسي
المصنع
تركت
##ثه
الصواب
تركز
وفاء
يقام
الرومانية
الصلح
ينس
الاستث
##قاولات
a9
فدخل
##رته
وشعب
مقاولات
اتهام
زمل
الفصايل
ناجحة
سيراميك
المقررة
بــ
والدول
الفنلندية
not
المطالبة
موريتانية
التبادل
بالما
تشار
احتفالات
افاست
النيابي
التلفاز
الصال
ليصل
لاظهار
وتنظيف
العف
عجايب
بالتص
صحيحا
##لتين
الرضاعة
فولكس
##verage
سقطت
متهم
الاحتف
الهن
ببط
واتساب
##یر
بالشكل
خصي
العموم
ارسلت
المتظاهرين
والاسرة
##حتي
التركيب
الرقبة
بقد
داو
playstation
ماركا
النظري
عيليت
بالاعشاب
##ليان
الانسحاب
ادي
حيفا
##تهي
مسوولين
##جنة
معيار
##قدان
1992
يقاتل
الضيوف
حكمه
المذاهب
التصدي
لاث
انشا
##ينز
المجاردة
##لند
الطابق
المكي
##داة
تستعمل
دواير
سماء
وفدا
جمل
##ربما
الصفة
franc
فيتامين
يتوفر
صراحة
الاسفل
بريم
والما
النادرة
مساحات
فصايل
جوية
المناصب
الاقباط
##oy
يسكن
مواقيت
لدولة
لقول
الاعدام
صلاته
لتحرير
guid
باكستانية
مخروطية
جرينتش
الروحية
بيض
##ba
استقالة
##بلور
الفقهية
والقي
الحديقة
idr
تعز
الصيفية
مكل
الخلفية
طعم
يهودا
تلاميذ
فز
وثقافة
وصحيفة
##yp
الفول
عقده
مطور
اخب
والحق
الموريت
والعرب
التشريع
##ليقة
يتولى
الزر
##بوس
لطيف
ترو
واحيانا
##سابقة
وانك
الفيتنامية
براد
افني
بوز
القطرات
غانا
كوكو
زهرة
الوزارات
##جهد
##اذبية
experience
افعل
برسم
الصنع
للتش
داير
الرسيفرات
وبرينسي
البولندي
والغير
فلماذا
تومن
##فاول
##ديـات
والمراة
جود
خاصية
ساخنة
ميزانية
الممن
بتوفير
انتهاكات
يبيع
المفوضية
نيل
المهاجم
اهتماما
مضمون
خواطر
استقال
الارادة
الصالحين
النظامية
الطبري
مداخل
##اسر
جايز
وتخلي
للنق
مساهمة
روفر
لموقعك
وثلاثين
خرو
درب
العــ
المواطنة
المومنون
التسيير
الساخنة
اللوح
معبر
هيوماكس
تزايد
حلو
يخاف
تختار
دماء
##gk
واصد
المتحف
يستعد
##ابو
لترك
وصلى
تنزاني
المقترحات
##يدية
prot
الانسجة
##وسيع
وستنجهاوس
تدا
العقبة
شمل
توضيح
##ايكم
بلوغ
مثالية
##طرق
##تهاء
الاعجاز
السباق
ديني
180
خفيف
المنافس
اسالك
الرمل
الزايد
##شفاء
صالحة
حقن
سيرين
القيادي
توضح
المحذوفات
العس
لتسهيل
وفل
##ضمون
##وظفين
ضخم
وتحويل
الصفوف
هايل
يوميذ
والاغ
جوان
##وهن
perfor
ايلي
الصليب
ترقيات
بكالوريا
##jf
تاك
##انم
لطيفة
للعربية
##ديي
دف
البضايع
اعرب
التوقعات
##نيطرة
تتع
up
##غور
بالبحث
الكاميرون
##لقة
الاستعانة
القذافي
وبيع
الاهرام
اوساط
بالذات
##ـــس
اوامر
المحتمل
##ستين
الحسون
يصير
بسب
والشر
الدفن
الاسماعيلية
بكلمة
الازد
جاهز
وارج
خلفه
ولله
الكرواتية
##sa
المطلقة
اللاس
تمديد
يجعله
هذة
الباه
##ماق
يسجل
المعنيين
النظم
المواصفات
تبني
للاتصالات
الترويج
تقرا
البس
##بني
لحظات
القلعة
الصربي
##اسل
ultr
المدا
والتقنية
امكن
##كتبة
اعدادات
الدكتوراه
##85
والتقني
عـ
ليتم
التضخم
المتخصصين
فذلك
ويص
كفروا
met
##نازة
ووقف
##زما
الاسير
والسلامة
يوان
ios
التميم
السفارات
مدبلج
gn
الملتحمة
##اذن
النصارى
التشغيلية
الشيخوخة
##عمد
الشبهات
المتمدن
جوار
##صرت
قبرص
الشابة
للثقافة
ثوب
فشلت
ارجاء
وجرى
##ليمان
عرفات
استهدفت
الخدج
الجاهزة
بلي
وضرورة
تشكيلة
رادي
بكون
##ويب
تغذية
الدوام
الحريق
تاجرات
باطل
##مصادر
المشا
التمارين
تستقبل
صناديق
الير
ادوار
بورسعيد
طاولة
does
الاستفتاء
##اشا
المترجم
مستم
وامام
##يبه
الالات
بطرق
##دادات
bein
مسمى
##طيية
يان
تحذر
الرمد
max
عضلات
استون
المرطبة
السبعة
الرقة
الصوفية
ديار
والاستثمار
زمنية
الجهوي
عوز
برازيلي
والاطفال
نايف
تدشين
##انباء
الاكاديمي
وارد
الصيفي
الارشاد
مدرس
الــع
امتلاك
بدمشق
##روم
وانهم
نسايي
النشاطات
vip
وسلامة
الصبغي
العبارة
retin
للمقيمين
الضمير
رحيم
بالسل
##وقين
##خرط
والحكم
العقاب
##وغل
رعد
الصبح
المتحدةد
بحريني
استخراج
##شاركات
##باني
والرا
##ملات
الزاوية
نفي
##وزو
##غوا
تضطر
بى
فهر
والدعم
تدريجيا
bu
اعقاب
والخاصة
والمشاركة
مبيدات
وبكل
اضعاف
abd
القصور
الوفاة
##sc
##اقفة
المحترفين
دواء
ونعم
البانيا
الطرقات
قصور
مطابخ
##0000
المطاف
##جاة
الفقرة
البالغة
ماركت
بوح
##عفري
والسم
##فرع
الملح
جارية
الاناث
والتهاني
مولف
وسع
الباقر
pe
يطلع
تتحرك
اوروجواي
##uter
للولايات
يقتصر
average
تقطيع
منقولة
##وولية
وتقدير
اشغال
مغامرات
خيرية
ben
الخصم
اثنان
لدراسة
ولق
فايقة
المصارعة
التشكيلي
غلام
التقاط
الاحترام
اعتراض
وبرينسيبي
فخر
المتحدةم
المستفيد
العسكر
السالم
التعبية
تاه
##ستطيع
يشغل
جوي
واجهات
الراسم
مكونة
ظلت
امنا
##افظات
تكري
مفاجاة
التور
##لقب
الوقف
والديكور
ومركز
bhd
يظن
الراش
##زهة
يارب
الانعام
getting
الساخن
المحلات
حصيلة
مثب
##obe
النيجر
حفلات
دواوين
##غازي
##aj
عناية
##اراكت
المعطيات
بالغة
اشعة
91
طري
كريمة
قذ
اوج
خيمة
المتكررة
شعرت
##رحل
المصير
##ump
اكادير
رفي
وقامت
عرضا
المحدد
epi
ابنته
العوا
يدرس
يفقد
danger
تخدم
##ca
ونتايج
مقط
##برمجة
عث
السهم
فترات
التنموية
غاض
المطالب
##یس
عظيما
##باريات
ينفذ
وضبط
العبيل
والجغرافيا
ليا
باعت
الاجن
السمنة
اتت
شرايح
##zk
التشاوري
##فيس
##ارتي
شهري
فريزر
رحب
المتضر
اليمنى
طريقها
##bb
عرضت
kerat
مشغل
##واهد
##قله
بكرة
متق
الاونة
الحدايق
##زح
الخبي
هبوط
الزوجين
بتشكيل
العضلات
نشاطات
بالقطيف
##stem
##افلام
##رايها
رايدة
egy
بمقدار
##manent
للسوق
المشاهير
متكامل
غني
ماهي
permanent
تقضي
مثالا
وتعكس
تسقط
الابتدايى
شىء
الناقلة
##جليزي
روسية
المجموع
فامر
الغريبة
يتوجه
والاعت
المكتوبة
مشاركته
صياغة
تستضيف
لانهاء
##فذة
##jd
تهريب
والاربع
dangerous
قرنيه
الخفيفة
mdl
شراكة
¸¸
##طها
فرانس
hrk
sll
section
والحكومة
gyd
وكتاب
##غام
##ونيو
##قدت
الاعتقاد
sony
بالعديد
تبعا
corn
##فرح
للتحويل
جبير
استهدف
قومي
لافت
sunplus
ووزارة
استطاعت
وتضم
وابت
مثبــت
nt
##رايس
الفرس
للمبتديين
عمه
والاكسسوارات
المجتمعية
##ستا
##ارقام
اجرى
الاكشن
##زس
سوني
تود
##form
assisted
مصاريف
نظير
bar
١٩
البرتغالي
الكازاخ
يكاد
removed
القرشي
يضاف
منصبه
عادية
الكهف
فاف
بلح
السعوديةال
pal
##gb
وكالات
المدخل
الكتاراكت
ركعتين
الوثيقة
قايلة
النصايح
##va
عنيفة
ترتيبه
واصحابه
التنظيمات
وجم
الالية
تدبير
العبيلان
المضي
وقوة
guided
قديما
##شاق
خاتم
##غيب
performed
##راقبين
pter
هبة
النزاعات
بفوز
صيغ
0a
ادعى
complications
removing
والولايات
مجري
specialists
##الابصار
مجتمعات
##ااا
الشركاء
الطاولة
الجنين
طا
الملاحظات
##كرمة
الايرلندي
صلب
الذانية
##كرت
سيرفرات
pteryg
احولال
نتحدث
keratome
واخرجه
##غرافي
لمركز
الرحاب
والسي
يظل
##ينيين
117
هيلانة
ge
استجابة
للتعامل
ويجعل
##وتهم
المشاهدة
بجروح
خصيصا
##mt
الاعوام
اخباري
##فوا
##بوينت
rtl
المحاس
للاند
معتمدة
##ures
بارباد
فرس
وبات
ووصف
بسط
سكرت
مستقبلا
صلبة
##01
##راوية
الناصرة
ليسوا
تطبي
الجدول
كوي
الرومات
الفراغ
تراس
##ence
جذب
##خالد
##غولي
والتقدير
الما
غسان
بعدة
للتعاون
الجنرال
قطاعات
يغفر
##مبية
السيرفرات
للشوون
##ناقش
ast
##ايفون
ونحوه
لتشكيل
الجاليات
الرعب
والمواقع
يخفى
##ews
a8
السادات
##edia
المستجدات
يستفيد
ملوك
مضت
يشع
والاعلانات
##ages
الرازي
##يعة
يتفق
العار
##لاوة
تنفذ
لبناني
لمنطقة
بلفظ
كاريكاتير
##تمون
والتنظيم
الداعية
ملح
المعالجة
كافيه
الاسراء
يليق
انفسكم
تحدثت
تحفظ
تنفيذها
فخامة
##ivers
خضرية
و3
بالدقة
مونديال
##ايدي
وحلف
صناع
والقضاء
0d
##راكت
الضيافة
اللوحة
##ازى
السام
الاقتراع
##روها
المعالم
مختصر
dri
الدومني
##رارة
ذنب
الاسمنت
رومانسية
للادارة
زوجي
بلده
الوثايقية
البالغين
##ليوبية
معاملة
سكانها
##شري
ينص
والسير
استق
ملكا
استرا
وخلف
موناكو
ستقوم
ذكاء
القدير
اصابته
والنصف
##ider
رفيع
العميق
stud
للمحترفين
##زازات
الممل
اعمالها
شكوى
تفاع
##خلى
160
##ادف
est
francais
##وجر
##انك
متمن
##صفحات
التخرج
الصلي
##رطان
اليقين
ae
دفن
مكي
الهاردوير
الظهور
بالسعودية
1989
ونتمنى
شوي
تجن
بتحديد
##احل
مولود
##سفية
خارجي
المصريه
##سامة
والموث
بواقع
تحيات
وابرز
واقام
قات
تعيد
هزيمة
##اريه
مدنية
0096
sec
لاعبين
القطار
ادع
وماذا
لصحيفة
1970
system
الميكانيكية
مام
نذكر
السعوديين
للطاقة
التحدث
##وديو
تاريخي
القبلة
رواتب
للذين
شكري
##قيد
استخدمت
احق
125
الفايزين
مقبل
مطلعة
عجلة
يعبد
طفلا
##قيها
ابليس
##يكو
الحربية
##اتيكان
باشراف
##المات
تصغير
ملكه
##حتهم
mur
جنوبي
##خط
اربي
وشرح
الغاني
##اعب
تخطيط
تند
##يليشيا
ملكة
فضايية
تنسى
##خن
الرصاص
الباني
ثقيلة
يسبق
##ولها
القح
التطرف
التربة
الصالحة
راضي
##بيك
يدعي
##اييس
واعل
عدل
زراعية
المبد
الماز
##اطية
شايعة
يملكون
##ظه
تساوي
##باحية
واعد
##رقا
المستن
##اطف
وقفت
السنن
للسياحة
وضمان
##قطت
##قدات
التليفزيون
سرعان
تارة
للتحقيق
ممثلا
مشددا
friend
وعلومه
سعاد
##عاث
cm
جنة
لاط
ساهمت
شديدا
وشركة
ذكريات
##اعى
وامن
##حنان
المخطط
1997
اسناده
الخوار
وفرض
الاشتراكية
##قذ
عكا
الغن
المشروحة
غلب
##اروسيا
شدد
الفاعل
تطورات
انتظر
##قتال
##ines
التمريض
رغب
كرات
والول
الجهل
استيناف
ممثلي
##صرا
وتوجيه
استشار
adobe
الايمن
مطالبة
هدايا
والخط
الفاطم
pol
forums
الكومي
الصفقة
للعلم
واختيار
تعليقك
##ربى
الاقصر
خضر
ورجل
فوج
البب
##واجن
افريقي
##الط
بالامس
استراتيجيات
##زات
سلبا
ليبرمان
ابني
للبيية
تنشيط
سلط
حاز
الضخمة
عاطف
##عج
طابع
الناتجة
يفتتح
##ضوية
العشرة
مقهى
##يوية
النية
ثمان
بدولة
والفكر
##ابعت
لمناسبة
مجاز
التسا
السور
93
##غاء
تصفيات
##هره
لمنظمة
filter
تغريدة
العادات
المليون
##49
##روش
يسر
##مبيق
##غواي
الخريجين
الموهلة
فيراري
بانواعها
ووز
المناضل
ينتهك
ech
فرك
الشق
##لكي
والنقاش
تفجير
بيوم
اسفر
##تز
التفصيل
الشعار
##بيوت
مشهور
105
جيمس
الحرارية
##رافقه
##غداد
##pf
يعزز
##يجما
##الان
لشيون
مشيط
##yu
الحذر
نهيان
الميزانية
والقط
جواتيم
كبر
تستعد
استثنايية
وحيث
التركمان
البعيد
والتك
##لمس
lcd
##بوا
##رتين
الاكوادور
بشركة
الروضة
الاحرار
موسيقية
##اركوم
سعة
##طيها
المهمه
##ستار
الجدران
التعازي
بطولات
تخلي
zar
وافاد
ترجع
المجاز
الطوايف
بمبلغ
والصناعة
track
##اتر
##بييض
الجدار
الصاروخ
الجري
الوفاق
الصبي
كرس
مدم
تحريم
شاحنة
راند
قرط
الدواير
معتد
قتال
ووق
يصر
العجم
##يندوز
واين
##610
700
منافسة
باستعمال
دوس
##قلالية
كتير
تمييز
زايدة
الارجنتيني
الاسرية
فمثلا
ارمين
اجابة
اصلية
فيزياء
تدير
وتشغيل
كاون
افخم
نين
نيف
##داق
محف
غانم
مجهولة
واضافة
واقامة
قيرغ
الديموقراطية
اضافي
##irl
##يفروليه
المساهم
وخدمة
تدرك
شوم
فقدت
روسي
تنوع
نال
##ساكر
الكثيرون
الكونغرس
ملال
لجمع
القصيدة
##انطان
وانظمة
المتد
الايد
##اسمة
شوقي
افغاني
ونز
الدستوري
الحوت
يروي
##باي
المزد
ago
يستطع
الظلام
كمان
الاساليب
بمقت
الهدوء
فرانسيسكو
الميم
تحذ
حسبما
يعترف
المغني
للعودة
راينا
استشهد
التفاع
بتوجيه
بشري
الدعايه
ومعنى
جذور
##bs
تحتفل
تقتل
##ware
##جدة
الفصيح
غازي
الخت
نرحب
الاولمبية
وانظر
السورة
والمشاكل
الدومنيكان
الوزاري
قلم
الاسناد
قدمها
الشجرة
##هلية
محترف
عشيرة
##اتنا
تذاكر
نشات
الاستجابة
ممنوع
##طري
الضرورة
تتناول
اموالهم
##عيلي
والترم
وعضو
وحب
والجسم
عبدا
##كسي
الربط
الفايز
الرشي
جماعات
القتلى
يوقع
rub
حلها
e2
ممارسات
بالطرق
عينيه
للال
##وسس
لمساعد
والامر
الشياطين
##ated
حملت
##ــد
ومعدات
لكزس
##ياش
غنية
مرمى
رامي
النايل
الماركات
طلق
المطران
لاختيار
الاباحية
بتحقيق
##اليسار
وللشراء
اوم
وانشد
معلوم
الانتاجية
فعليا
لخدمات
مسد
وانشاء
##ha
الفضايى
جند
سويش
جندي
بطب
طالبا
الكاثوليك
1962
##ــــــــــــ
طالع
للانباء
الثور
الحايط
مرتفعة
اياها
الثوب
تتابع
والقمر
عاليه
نايبا
##46
السيادة
لانكا
الكنايس
الامازيغية
للكيوماكس
كلب
للتربية
تدوير
##صقة
انذار
لمد
محاكم
الركاب
حفص
الاجماع
الازواج
راد
موته
موجهة
الدرجات
##فهوم
حوا
واستقرار
الشفرات
والتكوين
ذك
سون
اثم
##ions
تالا
مسند
متحدث
والقصص
text
حروب
مغادرة
ملاك
للصحافة
more
ودين
##عقد
انتقلت
توغ
الروحي
مضح
نزيف
لذوي
هاجم
استمتع
بوقف
92
والوط
##حتنا
واعلام
ترتبط
روبر
##رداد
المهنة
عليم
نيكول
دليلا
للنا
aut
والسب
بلقب
تجاهل
مواف
اطارات
البند
خطرا
اهتمامات
بصيغة
ومعالم
##البا
وضم
##علي
وكانها
كيمياء
حكايات
بغية
تعلمون
الملاعب
العايلية
##ـاء
تعهد
ipad
##وطين
انضمام
##نيت
##روعات
تحس
الحاصل
منظم
لهن
فينش
##ستيكية
##اياه
يتعلم
نفوذ
بمستوى
##اغو
دريك
طع
لحساب
2030
الياء
المدين
تدهور
الاصلاحات
##اسا
اكتسب
الانتهاك
الاخلاقية
واسراييل
##وووووووو
هاجر
الروس
المنظومة
توافر
جمعيات
صحتك
##انيون
اباد
##wf
ولده
منعا
والحلول
تحويلات
تعتقد
##سيوم
حزن
كلف
مخلفات
فيكم
##ــور
والترك
للمملكة
الصدقة
ضده
اخرها
استطلاع
العصبي
##ظور
جلس
مشوار
##اقين
##قهلية
##رزق
البص
نتحمل
المزمن
يمني
النقر
يرحب
مشاهير
##كبوت
جدار
##كش
ناميبيا
مبكرا
##غلو
جورجي
##واقب
الوظيفية
المستقلين
الموشرات
الموقتة
اظن
فانما
الكتل
بحالة
اعمالهم
الصايغ
##gx
هدفها
فوكس
##وفين
الحادثة
يفوز
##ريته
براف
خديجة
1982
اكر
بفت
وجمال
تعادل
يعين
##ليما
دوام
مواهب
خلل
مخلص
الاعدادي
hel
راديو
اناقة
اعتقاد
العاجلة
وفرنسا
هاشمى
وضعف
الحزم
الخطبة
##مبيقي
شعلة
نبه
مصحف
lak
المخالفات
وسواتر
موه
انتشرت
سموه
الثلاثي
التاي
1987
اهلي
الفح
المحتل
البيهقي
المدعي
وحيدة
بكتاب
التعادل
للتر
البلاغة
يبر
مستد
الدولارات
sl
فهى
متوقع
bet
الفس
حسابها
we
الثنايي
##تن
هدي
تتغير
بالقوة
##ابلية
##press
pan
##يمر
##وكان
رايك
الجوع
اخضر
خلية
عروس
نقبل
الانيجما
المجاري
الاقلاع
تدرس
التوزيع
سكربت
طلاق
ميثاق
الاحذية
يهود
الملاح
تريدها
##ولك
##vl
مواجهات
صومالي
حمية
الايق
لمحمد
##بيري
dvb
الجدير
تظل
المباركة
يرتفع
جاي
##لازمة
تعارف
تمس
##نانة
sol
يتمثل
للجن
شارل
سويدية
##ناهم
الشرايين
وقلت
النقيب
يدا
مثلها
مادية
اثيوبي
يتهم
بقايا
بمساعدة
فلبيني
القضايي
الخمسين
تحق
مكسيكي
phone
ريجن
##ora
مسيحية
لارت
##غاوات
وكافة
بدرجة
وطريقة
مزرعة
الوجبات
و6
بالخير
بشرى
##الش
الثورية
الغي
الوصية
وهولاء
للقاء
العرف
يتصل
##بتك
اساتذة
مخاوف
المدونات
بارز
وافقت
البلاك
التقاعد
والفلا
يتس
واحكام
العايد
##ional
منخفض
مسيرته
الزيارات
والخروج
مازدا
والتسويق
يولد
##وتوث
الداير
الهولندية
غطاء
العقول
بيتك
شبيه
الدب
الفيوم
try
وكي
اللاذقية
لانني
دعوات
بحيرة
شهود
التوافق
الحاكمة
##اعت
الغنية
قتلى
بالجبيل
##صفية
وعز
##any
بوليفار
بيتر
بالتقسيط
النهي
الكرو
##وكيو
المنذر
تسيير
سلوفاكيا
قرص
امثلة
بضعة
الدنمارك
right
اترك
جامعات
والشعراء
المتعة
المفاهيم
مراه
##kp
##طران
الكترونيات
##اديا
المناق
غارات
كوس
##ستم
##سمي
الاسلاميين
التحرر
الخسارة
nokia
المنصة
المحمدية
لازالة
الضريبي
ينتمي
فلسفة
محي
اوز
مقب
بيجو
##رحي
صعوبات
بالمنتدى
الكونغولي
سايل
بيني
شيلى
وتفسير
دراجة
توثيق
السيول
صالحا
الفرض
يزعم
الجرح
الاغلبية
##de
##واحل
ارتكب
ماليزي
المسوولة
الاجسام
تزداد
غرد
هالة
غربية
##اندة
لاتس
الاعصاب
your
مثيل
المورخ
وصد
يونغ
##جواب
الحامل
مرارا
مسجلا
##دهار
ناز
هلا
##ft
##land
والتقدم
بالاط
اسناد
منظور
##راخ
##لبن
الرموز
نر
النجار
كوين
##قبة
بوغ
سني
التكاليف
bad
والمال
لشركاينا
نوعه
وكون
##زرة
##بروا
الاتية
البروتين
غنى
##yt
تصدق
اوكرانية
الجندي
يجعلها
قدرته
##arab
جدية
##wor
والحصول
المراجع
اولها
ويعرف
والمتوسطة
فولفو
ورث
##يهات
ملاعب
حاص
صغار
##ورخ
يديك
المدم
مفار
المميزات
الكرامة
مكانا
1976
لانقاذ
برصيد
الانم
تتح
##بطت
درويش
##ريون
##ناديل
##وسل
المنتجة
النضال
البطاقات
نابل
##ربح
مركبة
المكس
##atar
scr
الحلال
ثور
##ولاتة
للاطلاع
##زوق
محليا
بتغيير
ولكني
وارسل
sub
##صون
اغراض
للمواد
فغ
sports
##اميل
رايه
تعدد
الفعلية
الوها
السلطنة
ميقاتي
بالعم
##كاثر
امراته
ron
المرصد
##ابيح
اشترى
chf
الادمان
##نبلة
تقريرا
اقامت
##لحة
الثواب
النعمان
ضغوط
الالياف
مركزا
ينال
##سيحية
sek
الوصفات
الاستعلام
##ايتين
ويظهر
بتخ
##حتوى
السوفت
بكثرة
ارضه
الحضاري
حية
صقر
امكانيات
المخط
الفروع
سمعنا
سوار
فقل
لكى
باحدث
ووصل
##js
يفرق
##راوى
مطلب
المحذوفة
الكلاسيكية
الترفيهي
الادعاء
الجلدية
يقلل
رعب
ثلاثي
بالمد
##ema
المسيولية
##قلية
1ث
صوته
##شاركت
وارتفع
باليوم
الكورى
والسعودية
والمستحقة
الخريف
واقعية
##ادون
بركات
الفو
##سوبيشي
الدش
الاجتماعات
حكمة
والعلاج
فاتو
رينغ
زينة
المقابلة
محامي
تتعامل
وانس
ادر
يومنون
والقوات
gel
##دانا
تاكا
السكانية
الديون
والانشطة
بغرض
قدرها
الغالي
اوروبية
الماضى
تعزز
الوالد
وخمس
وبالنسبة
cin
##uh
##ليني
عملهم
الجمارك
والحرية
حزمة
صريح
واللغة
aed
mw
الليمون
نيبالية
تعل
ممد
##ضوا
الديموقراطي
المفقودين
##ناص
##سنى
الافراج
لمستخدم
اصعب
مقروءة
مالطا
حبه
الاسيوي
106
والعلمية
اثارت
المخيم
ix
فـ
هونغ
صناعية
الكا
كارثة
باننا
اعاد
للقران
##raph
##ازان
واسعا
التلفزيونية
##وصيل
المضادة
المتطورة
المصانع
لبدء
ينكر
سياتي
التسعين
للاندرويد
قوس
##خيم
التاهيل
##يفورم
منير
النحاس
##وشي
جعلها
عصابة
طعن
الزهر
##لهم
العمارة
الماكولات
الشديدة
باور
##itt
الحان
national
الكورة
##وازي
عدت
عسل
تعالي
التوصيل
اعتبرت
المزمنة
بالبوا
ars
للاخرين
يستغرق
تنغ
المتجر
القنصلية
##عودي
##وافل
الاصيل
اتخذت
sos
الانش
خليجية
قتيلا
وتمن
ستاير
صحيحه
تسيطر
الرضع
##خيصة
بوتاني
اتهامات
واعط
للعديد
خليج
##اجيكي
mov
المختلفه
يتحرك
سيطر
وعرف
تاثر
المثيرة
##ـور
الهوى
اشجار
لمص
الطعن
##حث
خصومات
الصفر
وحضر
لحين
دجاج
ماب
الجافا
بايع
بالانجليزية
ضربات
الطبقات
اداب
سيرا
وظل
الوالدين
اللغوي
بوليفي
البرمجيات
اوغندي
البني
الخساير
القراءات
الفلسطين
يوخذ
انجز
##راحل
language
المعني
تكنوسات
مكن
بايرن
##اديش
ابنها
شيف
ينف
عزاء
ارجنتين
منقول
منغولي
الفواكه
qmax
الاقاليم
القروض
كينا
نورا
والحل
الجهراء
طلبا
رينغيت
الجغرافية
##بحر
عودته
رود
وتناول
بحم
يحد
بلغاري
باض
شكلت
ارتكاب
##42
##يرمو
##اليوني
مواط
gx610
الزنا
فورنت
استرال
##نيست
الغنم
##سانة
نزيه
والعدالة
كيات
##atch
الروبية
سمح
القبور
موديل
الحراك
تغطي
لصناعة
بلادهم
لوز
شعرية
data
##رابطة
توضع
يوجب
##تمية
تبعد
العسكريين
mbc
البعثة
هريف
الفلاشات
الربا
البوت
الستاير
طاجيكي
التفاح
الناشط
ايسلندية
بكت
اقترح
ويزيد
جامبي
وبار
وري
يحول
##rig
تراكم
##ايفية
شيفروليه
الطبراني
للطفل
تحدي
لطيور
السند
ant
بكامل
الروى
البدع
لتنظيف
ازواج
الفاتيكان
دوبرا
الدهر
اطلاع
المنوفية
باتاكا
غواراني
ورض
##ترات
##المة
تشيل
وعنه
egp
مركزي
حت
السيسى
سيراليوني
دانمار
باجهزة
الناشية
##ings
##جيم
ينيك
والباحثين
تقوية
##ild
الانكليزية
النهوض
سبوت
ازداد
سوزوكي
##محمود
##وماتيك
##وتون
واماكن
myr
القصير
القبطية
guy
حجاب
##vent
##ينها
المرشد
ليص
dur
بريدة
روعة
جريج
kp
الامكانيات
وجبات
بطول
بتصميم
هندوراسي
هيروشيما
##دع
##ولترم
لدور
بلغة
والسكر
ترتيل
svc
dkk
##تال
طبعة
شعره
كينيي
##ضاح
##com
التلوث
لتحميل
حداد
تساعدك
بوليفيانو
##المبور
الره
والمسلسلات
للمنتخب
##مينان
gmail
الموجهة
عمير
sgd
معظمها
الشاه
الرمال
انكار
والادارة
##nxx
ملفك
المجمعات
##sm
تدريبات
نسيت
يهدي
والادبية
##خصية
bob
ينطلق
عرس
std
سيشيلية
##ـان
الحسنة
يسيطر
نشرة
ذبح
اديب
الموضع
dump
فيني
بالبل
مراسلتنا
واعلنت
توريد
شيون
##كاري
السايد
تحقيقات
شرعا
read
##وليس
الجعفري
##رايية
##فلونزا
اجور
والرج
تورنت
توليد
السعد
الحنف
الضحك
بولس
والبناء
والايباد
غروب
موزمبيقي
الفاخرة
مصنوعة
czk
##رايع
مكانها
المشهورة
##شفي
التنبيه
مثبت
##حيم
##ضيات
##جدية
مساعدات
الكازاخستاني
والكتب
لاداء
الانفصال
وتوفي
بانا
المفهوم
التخزين
بالمركز
يزداد
##cr
المعاهد
ستن
ضيوف
مزيدا
غل
متعدد
##عيشية
عادات
##صلا
clp
##شره
moham
nz
ماضي
##قتله
ضرورية
ميتسوبيشي
سافر
واحدث
الزلوتي
qar
اقناع
omr
كوردوبا
لسنوات
للحديث
##حلل
##وميم
اشاد
لايجاد
دخوله
الكاثوليكية
جوا
قاري
##crip
المفروض
وعب
لفتح
الـت
ناميبي
##eed
الموجات
الطاز
الكاينات
يحافظ
comm
تايلندي
##حيل
اسعاف
power
الجوايز
##اجاة
نغ
لسل
مصالحة
سوموني
بوصة
اروب
العاجل
الهيكل
ناهيك
##ea
مسجلة
راية
تسور
المعدل
نرويجية
مراة
والرس
انجولي
الاصطناعي
والموثوقية
##رموت
التدبير
حاسوب
منخفضة
##تمدت
هادية
الجرافيكس
سميت
والماء
المقاطعة
هال
سمعة
اسراييلى
##ناوين
تصح
سيدني
bam
##osat
بسل
الدا
والنايب
المكتبات
يغطي
محلي
ابنايه
النهج
##ati
المريخ
الميات
##كترونية
الارضي
##اكسي
soft
بعقد
فمع
الاوايل
تدين
الماركا
التراجع
اجاز
المصحف
بمنزلة
##كله
##وعب
الطراز
النظرة
سهلا
لتسجيل
يمتد
فتكون
استرالياب
##يسلر
الموظف
احتجاجات
الاتهامات
cfa
مزيج
غيني
بالضبط
نفذت
بنمي
وسبل
ليبيري
للمنطقة
##راند
شاك
##فلت
##زج
الاضاءة
##سينما
1991
الكورونا
تعداد
المجر
الناشر
ترمب
طحن
فكرية
المراهقة
لقوات
وافت
mon
مواضع
الاصفر
لقطات
660
العدة
مالاوى
المحاكمة
بوليفيا
0111
mac
تقود
وتطبيق
بصدد
ومط
المنصور
الغم
بحل
بست
ومك
امرهم
ايمانا
المنطقه
طاج
بيتش
الداخ
بينا
الاخلاص
تاريخها
المجلات
##يورا
صحف
داء
يشاهد
الزيمبابوي
المتحدةني
وجن
هدار
ويعود
تلاوات
جوالات
والديمقراطية
الكوادر
720
المثير
الودي
حجاج
والمياه
التصحيح
isk
##كولن
##vol
اوقف
فاعل
خلاص
##ــــي
تصليح
##ماكولات
راتب
##احبة
الوزارية
الحراجية
##حقوق
يقدمها
##berry
kwd
lbp
باربادوسي
كقوله
بهاء
##شور
الاوامر
mzn
لليوم
لاوسي
والنهي
نصرة
كريستيانو
kes
الطابع
الاعدادى
الجامايكي
الصحيحين
ارجنتينى
اضل
للسلام
نايرا
مقالة
سوازي
جماع
مرجع
اللايحة
##سمت
900
huf
الجناح
ازرق
المفيدة
##ank
يكفر
اكان
الانظار
الاوزبك
انفين
انكر
الحساسة
لتنمية
##غرات
العابدين
اشر
عهده
بالانترنت
التشيلية
الانتهاكات
الانقسام
حزين
الشقيق
afn
تعديلات
نيجيرى
تحض
الروايح
المنتشرة
مصطفي
البلديات
عتبة
الاحتفاظ
وكلما
الاحتجاجات
dop
107
لمبيرا
ترتفع
والحم
uah
القطارات
فيروس
التهم
تركه
خدماتها
اصله
كلاهما
طفلة
حاجز
dzd
استرجاع
##يامي
برمودي
ختم
المخلص
التسامح
تتقدم
##انجيني
iep
lyd
حيوي
غطي
##سوف
اقفال
الحوض
جواتيمالي
mvr
فرغ
115
وضعية
سينم
والمعرفة
رواندي
ern
هريفنيا
##ضحت
##وايح
خارطة
ولولا
اسكودو
العنصري
und
والمو
السرقة
الراوي
والعروض
سلوفاكية
ماكاوي
الانتماء
##اجيل
نافكا
وسمع
ttd
##تاين
pln
سياحي
واجراء
ممتعة
##وجا
تغلب
##ظف
عاليا
##هلات
كادي
المـ
الاعرابي
التخلي
ونشاط
وتحمل
bwp
عامه
العمرة
والسبب
وعجايب
##ارتين
نقلها
لكونه
بابن
yer
دراجات
فستان
السلا
جراحات
العزاء
byr
bif
التاويل
thb
npr
التما
الكرب
سيده
رمزية
اروبى
##ina
والتحليل
azn
كده
##باتات
sdg
بنجلاديشى
لوتى
##ريطانيا
توغريك
نولترم
مناخ
128
عراقية
##ونك
والايمان
الجدي
ghs
لوج
المرو
استونيا
##بتون
فضلك
شهيدا
ضباب
المسمى
##ورف
##جموعات
نفى
الجوهر
mop
زكاة
##uss
واعداد
المراجعات
##خراط
##دياد
الغامبية
الرزق
يبعد
الاحصاءات
سداد
مابين
ليتاس
فوزه
ايمانويل
##ثي
والاهتمام
مديرة
دولارات
المحلة
معقولة
يستطيعون
بالصلاة
crc
##نيي
مقابلات
##اهن
وسيط
استثمارات
اوبل
##ected
والبيية
irr
عقايد
pab
##هاينة
الببغاوات
بهاما
التوحد
##وفاء
##نيوم
اعلانية
ولكم
المهن
عطف
##ضامن
لغيره
btn
syp
التكلفة
##رفات
ومجموعة
وتبين
بقابلية
لشهر
byn
عمليا
الاوزبكستاني
##وانه
مرورا
tnd
ltl
جاسم
والزي
الاعطال
##صيحة
نويفو
mro
المصنعة
etb
اتس
اسمك
fim
gip
لجماعة
وباقي
الصلوات
ce
نشرته
##ناهج
bbd
والبا
للمدينة
جسده
والملاءمة
##omen
pkr
iqd
bmd
دودج
الاحتياطي
نجاحا
bsd
ينتقل
سورينامي
مرق
البلاستيك
دوب
مزارع
ngn
التنفس
طالبات
##طيك
داعي
cve
الفهر
بالجسم
الحلبي
##ـيـ
khr
lkr
guyana
tmt
رغبات
التركمانستاني
##لنا
djf
jmd
الاسرار
aoa
vef
عصب
##افلات
والصرف
pyg
mnt
##قده
kmf
bnd
درع
اجرا
htg
يوش
##ــاب
فماذا
shp
mga
cdf
uyu
المقيمين
دانماركى
وحصل
الستار
nio
الفيجي
ماليد
szl
بالاص
والتوزيع
الاسراييليين
gmd
bdt
ويضم
##كرار
يلانجيني
والتصاميم
ماليدفية
العرق
lvl
mmk
tjs
wst
الحلق
awg
kyd
##نكر
اجيال
واصيب
mkd
hnl
kzt
rwf
يلجا
فعندما
itl
srd
موسعة
bgn
fjd
lrd
sbd
uzs
bzd
##rist
vuv
gtq
pgk
tzs
ugx
zmw
براءة
170
كولومبى
kpw
fkp
##هت
الميناء
##حده
الاعياد
gnf
mwk
rsd
اخذه
الغورد
ترميم
clf
تونغي
lsl
وكسر
المسافر
بانغا
سنغافورى
zwl
مواكبة
نيوزيلندى
del
xdr
فضيحة
رييال
والاحداث
frf
بمشروع
مولدوفى
الصفقات
وجهت
ارط
امتلك
سيح
zmk
البعيدة
مقدونى
skk
ملغاشي
لتامين
108
##راضية
ارمينى
ميم
cfpf
serv
كمبودى
قيرغستاني
guyanaese
الممكنة
##اجنة
بمكان
تصاعد
تجب
والاسماك
ممثلين
معبد
اوله
##br
وجنوب
111
دالى
النيران
##جمان
للتف
العمرية
##ـــــــــــــ
خانة
##صايد
الكراهية
والشروحات
بحري
فورت
لكني
بالترجمات
للوطن
الاخرون
البحرينية
كارل
موازنة
تكاد
اللاتينية
الازهري
منزلي
##فيك
bro
السليمة
والطلاب
يفعله
يحاولون
تكليف
وهن
تدعى
يكمن
طم
وقضايا
بصح
سلوفينيا
وثمان
##راعنة
##ct
السحاب
سلمى
بروح
##ماهير
الشاذ
الاخري
المنق
فراغ
خلاصة
##ذهان
خرايط
وورد
لاجي
تفاسير
ترحيب
خالص
الاممي
عبدالمجيد
h3
والترحيب
والسلطة
##هض
الحملات
السينمايية
مودي
القرم
الويندوز
ولهم
بدليل
ear
للهجرة
لجهاز
##صق
السويدي
##اليين
كانها
##ضيه
##اربين
السطح
ننتظر
توبي
النجف
##غشقر
مناصب
##ياتية
##درالية
##ــــــــــــــ
بادارة
اقتصاديا
girl
##زعة
##ريها
اقليمية
والمفاتيح
عفان
المناعة
##رغم
الاثير
سفارة
الكردي
استغفر
الرييسة
##حدر
بلسان
ينجح
المشاغب
للنظر
نحوه
تخالف
والموا
للعملاء
مخالفات
شح
##سيون
##قاة
فاجاب
محطم
للمرحلة
واجعل
قادمة
حتما
متعلقة
الموعد
inform
بثلاثة
mor
learn
##ايهات
الطلابية
المعيشة
الانتشار
الوارد
اعمارهم
du
قهوة
##امجه
الداعم
وفن
الخلفاء
الميدانية
عسكريا
##وهاب
حلوة
التحويلات
حصد
حيز
وصدق
##جمعات
سيز
ادارات
تسرب
كيميايي
الالهي
حقيق
للنبي
##اريس
والاهد
يضيف
عذب
وشك
الزمني
صحافي
ويبقى
ناقش
التكنولوجية
##سفي
النطق
الدبلوماسي
##وبى
مديرا
تنتشر
الباردة
حكومي
المعمول
ميونيخ
##سلسلة
ابوال
بروكسل
تلقت
تعليمي
القصوى
##ily
يعجب
العنكبوت
الاندماج
يهودي
المغيرة
المعمارية
امال
للعراق
فعليه
اقوم
راموت
بالغاء
المام
مسوولون
الغسالات
##ايقاف
h1
اخوات
للتحميل
اقتراحات
بعناية
للاستخدام
club
رقص
##روفا
الناخبين
متسا
##قاتها
وحجم
نغمات
الحصري
بمجموعة
والصين
##كنج
المفاتيح
##رقوا
##ase
##حاكم
معاهدة
تصلح
الانجازات
الولاء
ذم
التمر
استقب
منازلهم
##da
الباري
##تموند
الاسيله
وابل
كج
السيرفر
مشروعا
pic
مودرن
للجمعية
محس
المنوعة
هلك
ومو
هوت
عمن
##شيد
##اردو
cccam
لوزير
##لتهم
##كفورت
ميدي
العملاقة
الاستعمال
##رادو
الدراسى
حيوية
حالت
ناعم
متعلق
الفوتوغرافي
dra
رهن
##74
سنان
وقصص
وجرح
##راثية
بتنظيف
الفعالة
لته
##ts
مخط
##ets
بموضوع
##rom
1988
h2
##سامي
الليبر
يجز
قوام
الاحدث
الثمان
##عتهم
##الجات
الصق
الاصغر
kr
لسبب
التت
والاستفادة
الضرب
العمانية
بالصورة
وبحث
##زمه
بالجزاير
بدعوة
1983
الاجتهاد
تفتيش
ينطبق
تناولت
انفينيتي
fir
التهديد
تبد
الــــ
العبارات
تبديل
امرنا
جيلي
قدير
وازالة
ليث
الصغرى
تتسبب
وحركة
يربط
الهاشمي
##برلمان
بايت
توصلت
بعب
التهذيب
مريحة
المحور
sud
خشية
يلق
المرسوم
منفصل
جنبا
منهن
exp
ماكينة
الاولين
دعما
لاتخاذ
تضمنت
##ضرب
بمص
للجوال
ديمقراطية
دفعت
##ورن
البكال
واجبات
غزوة
تشري
حط
كرامة
المربع
الواف
والاستشارات
المرحله
خشب
القاعة
والاستاذ
اغلبية
مخاط
كرايسلر
حفاظ
شريحة
والتسلية
والشرطة
العبادات
الوالي
الصادرات
القرص
للمواضيع
الضحية
مقاتل
وصال
فيكتور
بالاب
الاجتماعيات
يدوية
فقر
يكلف
المثالي
النصب
فو
لقطاع
ادعاء
التصريح
مدغشقر
التقوى
مذهلة
التميمي
##بيدي
شاع
تتوقع
تفادي
ياباني
شفاء
فاول
للبرامج
والتب
يترتب
##هوض
الظالمين
عيب
##واجية
رده
للرجل
والقوانين
مبوبة
##ital
مناسبا
بدعة
تتجه
بدار
الخلاص
يتبين
تراك
ساعتين
ارفع
ليالي
يدين
ويضيف
##اديمير
العطار
المحتاجين
الموق
مكيفات
وشي
ايست
##راثيم
المشتريات
نامل
media
##تيكو
##بداد
الراج
office
internet
بعدي
يكثر
الرفيع
البنا
السودانيين
والاصلاح
وجدة
التدابير
ثقاف
يساعدك
السلبي
فايق
وبقي
والقوى
عالما
كاست
##يبو
بذكرى
1993
##سنال
لافضل
سوبارو
يتواجد
يخوض
fam
##رايض
باعداد
المصرف
##رافات
##جاني
كورس
الخطيرة
عطل
##بتين
ودورها
للكناري
101
##كارية
واثناء
الاحجار
الفيديوهات
##زغ
ابدى
##تيك
للسلطة
متاجر
قرون
الصحراوي
وتطبيقات
التابعين
الكتلة
##amp
القطيف
قـسم
lin
موقفه
ذراع
1961
##كترونيات
الاتراك
مساجد
لامراض
اليدين
محمية
##فيضات
360
النون
النوبة
بعضه
الخصايص
##شيبا
يعلى
ثعل
اخوة
اندلاع
شري
اوربا
الالتها
##ـتـديـات
تحركات
المستع
##واله
##سانت
اختفاء
الثورات
يميل
وغالبا
السلمية
اطلالة
بالمدينه
الخطط
مزايا
##انف
##ـــــــــــــــ
بنتلي
content
ضروري
الطفلة
للبلاد
واختلف
سوهاج
والاول
المعلوم
شفط
النخبة
والجم
السياحه
مخططات
مطلقة
تلتزم
يدر
المحاور
الاتحادي
هاما
منفر
واستمر
الاوكر
##artment
والموضوع
حمدي
##نبى
ومسوول
المثق
1979
صبري
والمز
وتوكد
الرمادي
if
ابوه
شوف
لتحويل
باخر
اسفرت
فارق
للوقوف
##وقاية
واخبر
بفارق
admin
اهلنا
اميركية
الهولندي
dir
جلي
عكرمة
ارهاب
حاد
المحج
والاهم
##cee
##ودعات
##oot
##همه
inst
3as
ومواد
ونست
موقعه
لتصل
كنز
pub
class
ومغ
كيلومتر
ومراكز
الامومة
##قلون
التحرش
اال
بيتي
مضط
والامان
بالجن
##هرجان
الاعزاء
عو
يزل
مهنية
لطالما
##زامات
مطروح
##خامة
##تماع
##شك
مناقشات
رواب
نزع
##لز
1986
بالمحافظة
كاديلاك
البروت
ليال
##ama
وتشجيع
كوبر
##كيما
صوتي
ثنايية
الترجي
بروتون
فلاح
واليمن
المبرم
عمادة
2as
حولك
كثيرون
امامك
وادى
لايمكن
اقوي
التصريحات
العليم
##ثرات
المطروحة
بهدفين
ذهن
العو
team
الاستيناف
mas
حش
##غارت
ويضع
350
اعلامي
ودولية
الايتلاف
lycee
ويبلغ
##فيت
مبكرة
وتعرض
##جرات
للعلاج
فصار
##wr
المستور
مليكة
بالال
مشا
بشراء
مختارة
##طلة
##ole
الهايل
مقترح
رولز
1436
##سف
##يروين
##وسكو
افتح
المشاع
تصويت
والجد
بالمت
فتن
اشتباكات
نصل
والراي
والدها
ايسوزو
الايميل
النعمة
بطرح
##امد
توما
##كاني
تفاعل
والاتصال
dep
الراقية
وابحاث
بصور
##شوف
اسبابه
والخبر
اساءة
صربي
##ـرة
الطاعة
محاس
الاسما
استخدامات
المتكاملة
بليس
الابتعاد
صيانه
مدي
##عاير
يحذر
دامب
##صلاح
##اريات
vi
بالعودة
انساني
وانواع
يبد
العلاجات
ياف
المواصلات
الصعوبات
غريبا
الاثارة
قرض
الواو
##ابراهيم
اللد
##ator
الاصم
سجون
التشكيلية
##موك
بورش
ناح
وغرايب
نقدية
جبيل
##pa
باذ
اتف
ترض
البريدية
المنصوص
ولكي
##طالع
الادوار
##شدد
بالمجان
تداعيات
وروي
الهجري
الصلاحية
جوه
##وازنة
الزملاء
يلتزم
اخطا
وقوف
مخز
##اطس
اكتساب
العود
الجلالة
والقنوات
ارك
ننسى
المكتوب
الكربون
الكمية
الصايم
اعلي
احتفالية
بالشرق
العنصر
##ier
منال
والقدرة
عمرة
##شارع
اليسرى
وتظهر
صغيرا
ياه
ولوازم
احنا
وقته
ساحرة
103
بصحة
النثر
البرلماني
وممثل
جاب
بلق
##فرين
الارثوذكسية
ترحب
النجاة
المرورية
الاذى
دريان
الايجار
رويته
نوكد
الحفر
وحزب
وكلمة
صفقات
والاثار
##ومبي
كبيره
الاضواء
والروح
والموس
وعروض
قاط
القدي
الجفاف
واكبر
امتدت
بخل
##عنة
واثر
اليكت
الزين
##ane
الالكترونى
ذكية
انتظ
الجزايريين
يمشي
واصول
المشتركين
والكن
الشقة
الاقوال
الربو
##اصرين
مليية
المبدا
الانتقالية
انيم
النقب
وصلنا
غادة
نمر
الصياد
مشغ
سكودا
##ضبة
الجبار
ارز
##هاض
ابوب
للمساعدة
نل
الانوار
الامبراطورية
##راصير
يحتفل
##صفة
##زاع
##ادنا
البركة
السيي
القياسية
شوت
بمساحة
الرياضه
##يراتي
باعلى
يبحثون
براك
##سارة
علمنا
##ada
للجامعة
وتشير
التنازل
معتبر
الاسترا
1948
معز
تطرق
ندعو
##son
المنه
معامل
اثرها
##شابه
منفذ
الفجيرة
التوسع
ستارب
متعة
والتعايش
صيحات
المنظم
الدل
مشارك
روبوت
##حتاجين
سناب
مرغوبة
تصد
تتف
##ale
غار
فوزي
الخزانة
لمجرد
##لاصة
للنقل
act
الدوريات
و20
اشع
لحق
التراثية
##غوليا
سيقوم
حفلة
بلدنا
المنصب
للتعبير
ديون
تخلف
##ظلات
المجرمين
عميل
فلاديمير
kn
عبايات
المبادرات
وتطور
المجاهدين
وكشفت
يفوق
غلاف
يند
العاهل
##adem
##غتربين
بواب
للجد
مازن
فالق
ازيد
مصور
##جيبة
ونظرا
ياخ
فلقد
التغير
التعارف
##مبياد
##وتغارت
##راهة
والعلمانية
##قوس
وتفعيل
هوايية
الوظيفي
full
ليغ
sms
كيد
##جوا
للموضوع
هجر
##باشر
##ركبات
سليمة
الانبار
نشا
وبالف
دراسية
والبعض
للـ
##ديت
واوروبا
ولكننا
الفوبلس
ماريو
##يبرا
شعارات
المرجح
والترمذي
##كينا
والجوالات
الهادفة
قســم
تيمور
الاغراض
oth
العولمة
وسير
يقوله
هدفه
ووفق
##مشاهدة
information
home
##ريدات
الرفيق
وخمسين
مفردات
الدرك
المعلوماتية
الماروني
##ـدى
الخار
المحادثة
دايهات
عميقة
##ضاها
الموديلات
اخفاء
##ادهم
البال
الطلق
الدبل
egypt
التواب
التمسك
1956
خلقت
pn
الانابيب
الاكراد
الاتجاهات
داوود
##نبر
##وعها
دايهاتسو
الداعمة
سفن
اخواني
اعياد
تنزل
الشقيقة
live
##ماض
وصححه
لباس
offers
الغزو
بيتا
##ادوية
ايلتس
الاون
النعيم
التشريعات
بتر
شباك
حادة
##ارعين
لمباراة
دينهم
post
اقتراب
والنسايي
back
##76
تركمان
السجود
يوضع
##ايكا
احذية
##انتا
الانتخابي
وزوجته
العمومي
##ــــــــــ
218
الابتكار
بامتياز
مدينتي
البطار
الجواز
##inder
سواه
اليزاب
##وريس
نياب
##عالم
والطيور
##راسل
##ريحا
##فيلم
كاري
مشابهة
المعاملة
الموسيقي
تحمي
وبيان
##les
الفلل
##oma
الطل
لفايدة
بالضم
تتس
##هولم
sr
protected
بالرباط
جوزيف
mont
نفاع
قضت
##ملكه
تجاوزت
والقيام
واهداف
بنادي
##ari
والشي
##رايهم
همسة
##اجية
استماع
الـح
يمثلون
واقل
##جلوس
تاثيرات
محجبات
سنا
عشق
##اقير
ومدينة
المستحيل
##باير
##فيها
ونتيجة
وفضل
line
الدفعة
ملء
مايخص
السيو
ماسنجر
وحرية
##ff
##نياء
تنص
تخطي
##لاوي
عربيا
الفارق
امتي
مرتفع
بسمة
سامح
كوربا
نيوت
لثلاث
اعطال
blackberry
##الاي
الاجور
مجموعه
الرومان
برود
العنب
الفيران
وهد
عبرت
ومسا
وشركات
##ـــل
بالنفس
تعريفات
اثنتين
مقار
##فرت
##قاءات
رابعا
الادباء
كرمل
##طيم
بلى
قادم
بدفع
ثورات
توشيبا
يلزمه
مطحنة
شوال
##يوود
يعتقدون
##انيةال
صوره
اسبابها
وصرح
ثقب
حبا
الوساطة
computer
الحرير
##وكيل
والاداب
غرين
المتطرفة
##212
##امس
الفضة
المصن
##روجين
سهرة
1434
التكريم
للتعرف
صيدلية
##الرييس
واتخاذ
تراجعت
الدرد
الرجيم
ib
النسيج
الاطر
بالدين
مبني
وبحضور
المبذ
لتشجيع
عاصفة
ورود
##وكهولم
مخال
روش
##pe
مراق
##رفا
المصور
صفاء
شيي
للكشف
الاحصاء
باث
##اصم
برمجيات
والوس
الحضارات
pres
المفاصل
نمت
مصن
مهر
الكافر
حضرموت
after
بارد
الاتفاقيات
تريده
الاستثنايية
الملاك
##ادلات
رافع
##ديهم
الوريد
حاييم
##هيلات
تشيلسي
##احبه
050
1977
الحنفية
تراب
وحضور
اغفر
##اذب
220
##ورم
الحاس
لابناء
المعروضة
فارسل
ليبيريا
مضحكة
مهندسي
منتجع
##سترول
تبييض
##ياتك
رمضانية
خاني
للارهاب
منصات
المحفظة
وتعلم
مازالت
لينكولن
لاتحاد
الرقص
مازيراتي
العقايد
##by
يتزوج
055
الوجد
بينة
سريلان
الروبوت
البلاغ
الاعمش
باربي
b4
##يوبي
ماتت
typ
تدمر
التلق
نظارة
بالحياة
الروماني
hou
بتطوير
##ساندة
الانترنيت
الحدي
استبعاد
هامر
المقطع
والمول
وتحرير
للبحوث
دونه
لحفظ
place
والاحكام
عطا
##ta
##ماطم
النكت
##ica
وضرب
بالسوق
فولكسفا
عضويت
شلل
لانجاز
انتباه
di
استي
متخصصون
الجماع
وخير
جات
بابل
عيينة
هندي
القصاص
cinema
الدورى
الحيوي
##ريست
عزيزى
quote
ايجار
بلدا
المهتمين
غوغل
الوسيلة
##جول
والتابعين
خوض
سرد
color
##طره
##رضة
وانجاز
لوجه
تعليقا
الفاتح
بدين
طابعة
لعبد
che
##ne
الغابات
بتناول
محاسب
##قطار
لعقد
وثم
الحفظ
فرنسيس
كثافة
العمود
دفتر
امرت
قانونا
نظره
تشاد
women
تران
##وينة
##كالي
التفاهم
الخياطة
باقت
المحادثات
##يروت
##ايله
تهذيب
اللواتي
وسيل
احرز
الحمامات
الاردنيين
اوي
شفيق
##وبان
اتقان
صادرات
الاضافية
الامثلة
اولوية
ومستقبل
روايع
الوطنى
##ردون
ايرانية
لقضاء
اللحظات
ثمرة
برين
الامنة
فالله
نيم
زغل
البكتيريا
الفصول
مقرر
وصفت
المشروعة
سلب
##اديه
##راكم
والادارية
قدموا
الانتخاب
مرجعية
عبدالفتاح
باختلاف
تنفيذي
118
##اعدام
جنية
استعرض
المداف
##uk
188
بخم
السايدة
موحد
الضارة
المعاناة
واولاده
ابوبكر
والشرق
جارد
دانيال
اطيب
اهلك
وذات
##arg
ونفس
حضارة
الحداثة
التعويض
ملحوظ
عملك
نظرت
والسياسة
واظ
تصفية
انطونيو
الاميركيين
النقص
رسالته
ثبوت
والمعنى
##طرح
هجوما
لسنا
برصاص
باعلان
دلت
##ns
الكرسي
بادخال
الجزيي
زيف
انابيب
و5
الارمن
##طفولة
للالعاب
gla
الرطوبة
اضراب
الرع
البنى
اﻷ
##حظ
##كتات
موقتا
حرمة
cd
عيار
يتعدى
يولي
##ath
شجر
ووج
المباحث
والكهرباء
جرب
توقفت
##رقه
المحليين
مشروبات
غيب
القبة
لتجنب
##طلوب
بالاتصال
بيبي
اللاصقة
##يزون
عشية
عمون
هدفنا
العاصمه
تاتا
الاسبوعية
حليب
العقرب
البصل
اوبك
##غون
والدعوة
واللغات
قالب
روحي
عبق
وسنة
محض
انستغرام
go
طيار
علاق
اساسيات
واربعين
الذروة
##باض
مورغان
كاج
##ولان
##نتايج
المتاجر
##اعدك
يته
خدماتنا
شاذ
العاملي
قرعة
عنق
الحضرية
الفارس
والقانونية
اباء
يزرع
##اوا
الغايب
##خاييل
صفحته
الانفجار
واعتقد
جوست
نصيحة
النخيل
بحوالي
##ems
الوحشي
صديقي
اوصى
حقها
مكتوم
الفروقات
الكيل
104
الاقــس
##بذ
اليزابيث
لصف
وقيم
واخراج
الموروث
الاستاذة
shar
جيف
منتدانا
##وارى
البوليس
كركوك
الاتهام
يكمل
##فوكس
انجليزي
الحيوانية
الهجال
نهاييات
تموت
مجهود
شفت
الترق
plug
بابها
واشهد
شيري
##رصاص
المتقدمين
اللقاح
والعين
المفتي
##خاب
##ليفة
اللم
ينفي
التحريم
بطي
التشخيص
التلمي
والمعاهد
القطب
بنهاية
فاكثر
تطلع
عارض
##لاها
انفاق
ميركل
ايش
وحرص
وادخل
الاوربية
عياش
ومسابقات
داون
هيد
والتلفزيون
##بيتها
محط
بحياة
التهديدات
مشاهده
القنيطرة
دراسته
عاشور
يراد
جيجا
##ka
ومشاريع
لغاية
القرط
المجاور
اغل
مفعول
علی
فرنسي
موجودا
##pn
start
محبي
المستقيم
حجمها
والطلبات
عنكم
عملات
بتطبيق
والتعليقات
الطاير
بالبخار
##news
علبة
الفيفا
ميليشيات
##ناكم
معتم
تنف
travel
تـ
ويغ
لتاسيس
##زلاء
وتغيير
يعالج
تنتمي
ارجع
الوصل
والجامعات
الهوايية
جونز
الفري
الموازين
حصار
معيش
الطين
دوار
الظاه
مـنـتـدى
ملاحظ
الصدرية
المنص
الاقبال
اطر
##بنك
طيز
##بورت
تفر
بعلم
فعليك
برغم
الضعيفة
اليكتريك
##72
ستايلات
للبت
وجع
مصعب
وايا
سبعين
القايمين
تسديد
للمنتجات
ووحدة
الشوق
##ظلوم
انجيل
##ones
ونج
توقعه
وذوي
الامارة
##يتاج
بعينه
المشاركون
مختارات
فاصبح
كرن
التغييرات
اغتصاب
سعي
زيارات
##oshop
سـ
##طلعات
يهد
الفعلي
فتم
لمواقع
لكلا
الفاكهة
اسيل
والسيد
والطاقة
بلب
قتلت
وكلا
سيراليون
سيست
القطط
اصحابنا
ومرت
الوقوع
##▬▬▬▬▬▬▬▬▬▬▬▬▬▬▬▬
ازم
البرق
كلاب
موتمرا
بسام
الداجنة
تصعيد
البييي
##ضيوف
والمعادن
والاعلامي
وتعرف
الاكتياب
bh
بدراسة
مستجدات
##دري
الاديب
اليرموك
cle
المنشور
العصافير
010
##جها
الخادم
والامتحانات
الفقير
بالمدرسة
يخلو
ستس
قولا
##شتري
لتطبيق
حيوان
اورام
ساوث
مسودة
ادعية
##صيلا
ابلاغ
الحدودية
الوقايع
والزراعة
شعبه
والاردن
ونشرت
لجامعة
بينكم
سهيل
##شهر
تمتع
##ولار
تجده
الاقتباس
معص
لمراقبة
دعمها
ضمير
الاخص
يتضح
شخصين
يستغل
فسر
الرهن
لتلبية
الحش
align
وطنه
عنف
ماركة
والافكار
102
مجتمعنا
وظهرت
شواطي
وشف
المراجعة
انص
والكتاب
تحرص
##ارتهم
بديلا
جزايري
اعز
يتناسب
اصح
اندل
النموذ
روبرت
##كتي
والمساواة
وهدف
يصب
والمعت
##عمرو
ذهاب
لطف
وصحة
التنظيمية
الخضار
بعضنا
وينبغي
ذاتي
لوتس
الانتحار
الضعيف
التعدين
تحقيقا
تتخ
##ارون
واراء
##نتيجة
##ايتهم
##سكين
##وران
التشريعي
##ـية
لاعمال
nb
##اكاة
academ
بالموقع
ثقافي
كاتبة
ومعا
كالتالي
القرون
واطلاق
يسار
التجويد
حذيفة
بدايات
فولكسفاغن
عزة
الخطب
فيض
##ench
اجله
متخصصين
مرفوعا
و4
السامي
##دمت
الاستط
المسيب
واراد
ديننا
ماخ
ويصبح
تذكرة
مده
1973
الطالبات
##ايدر
photoshop
ذنوب
لتناول
البكالوريوس
##رمز
التحية
لاذ
بالاسلام
الهمزة
مهنيا
جماعي
soc
##شيان
يتجه
##ولياء
##اضرة
6605
الغوطة
119
##لالية
اعتق
مشر
متب
مسببات
##كيا
الاضراب
الغزل
استدعاء
##lies
السموم
لاتفاق
وعين
بوصف
اراضيها
لجل
المخد
الامراء
دومين
فايز
ياز
يعلق
المتحدثة
سبر
منغوليا
ونساء
ومول
تحفيز
للصناعات
الفراش
السعدي
المولود
group
لتعلم
الاقوى
تغييرات
الملتقيات
زوال
##nb
باللغات
##سترا
##يتور
وبالرغم
ركوب
بنغازي
الرومي
لنق
المركبة
التعم
##اناقة
##زاين
تلوين
كهربايي
غزيرة
اكيد
اعتمادا
humax
برحم
##ake
مجاري
يخشى
##كارات
اسطح
عطور
##شقي
وفنون
هاتين
##جبت
##uray
##قطني
الواسع
النقاب
مسلما
تبرز
jav
وسفر
ساحات
رجوع
##اغوار
تورط
##رينة
والخاص
ودود
المنافقين
لقوى
الطهارة
انتق
الاعتقال
نطالب
واجهت
والالغ
تعدي
لاصلاح
للبنان
قاسية
التكن
##ياغ
الشبابية
##المطران
واحداث
تعب
باسمه
يمس
جراحية
لرسول
و2
استقر
##زمية
وصلة
والافلام
خامات
الايسر
مخروط
للدين
الكرا
##اضلة
وشخصيات
بتسليم
الاخترا
الاقرار
ظهره
المشتبه
port
نشتري
انصح
الخر
clin
تسببت
##ks
للمحافظة
قاطع
كليميم
نحب
يوقف
##اعدا
اوا
##وليم
نكاح
وفس
##ليانس
اربد
موحدة
بالاعتماد
124
المزارع
طلع
تهمة
##ماير
الصلاحيات
##شيت
احتاج
##ismet
الموقوف
والمنظمات
لايران
انفاس
والفعاليات
pre
واطلق
فوضى
اعتقل
كوميدي
حا
عناء
اتيت
##وارض
نفهم
لاحكام
فقتل
والـ
الحنيف
رين
عذر
الكسن
المعسكر
الحراري
يتن
نابلس
##ظافر
وفريق
لاستكمال
يطالبون
الرياضات
جانبا
يفر
الصراعات
الغبيري
خرا
1500
مقترحات
لهولاء
امها
قدس
##قبض
السبل
نقاشات
والكمبيوتر
انبا
الدعوات
حمادة
برلمان
والرياضية
xbox
والمراكز
##جموع
بدخول
##ثوم
للاث
##ساوي
الكي
ماكينات
لغز
ميركوري
##طايرة
##eh
بالتزامن
التغطية
happ
سوي
ونف
¦¦
للازمة
ووجود
والنظام
تعتزم
##نتهم
باهمية
اختراع
مــن
##جيج
فيست
##وتنا
الثوم
والجنس
والطالبات
علة
بتحويل
spider
نطي
##¦¦
الحكاية
##وراي
ومض
##ويقية
##اتكم
##جاهل
صعبا
ويترك
الودية
##aly
زه
الهزيمة
##واتيمالا
هندوراس
الحمي
الانساب
لتشغيل
بوق
##ايعة
محو
ارسالها
تنتهك
مايا
موجه
نتوقع
##فشل
جريت
تحيط
الرفع
وسوء
وقسم
التدريبات
بقط
الهداية
ابنايها
لقناة
##ثمارات
الارثوذكس
بكتابة
حاضر
لسانه
اضطراب
كافر
this
تقليص
##يدون
##صرار
تنجح
under
الوراثي
مثلي
صانع
بلف
##وحد
واعرب
##ember
اوروبي
التصفيات
فالف
والمدينة
اجرة
ليتوانيا
صينية
تتحقق
##خيرة
الجبيل
المحاولات
سمك
اوضحت
تستفيد
فعلي
may
شقه
بحفظ
والفض
والهي
النقي
جولات
يعم
نسبته
جت
والتعارف
الكريمات
تصب
##قاها
مفتوحه
تقدما
الدورية
الكفاية
رامات
بالقدس
دونها
اكمال
استاد
نظري
الثقافات
akismet
نفط
وافكار
يلحق
بالاصل
مستعم
المجهول
ولح
للاعمال
المسلحين
والعلماء
الكيماوية
الحمار
##بورغيني
مشاع
ذن
عساكر
ورحم
انتشر
والمناطق
تقتصر
love
يدها
حكام
تركمانستان
الميزة
##اهرات
##تهاكات
طرحت
##هز
##bir
المهد
لفرض
فهرس
والوطن
قاض
للاه
ميخاييل
تتناسب
لشع
المبالغ
friendlies
رمزيات
السوء
والجيزة
خلدون
نانسي
الكسندر
##راجم
والدة
اعشاب
##اديان
البقع
##امش
اذان
عرقلة
##صرم
وتستمر
رايعا
جورد
العبيد
##وتة
ودراسات
تاريخيا
وضح
مفصل
وجدنا
rss
يحمي
الرملة
الغياب
3000
هواوي
طالت
##يبال
المنز
مبادرات
int
البرتقال
نقط
المرفق
وطالبات
الانكليزي
العزم
ستاركوم
مثلث
راسهم
للاصابة
اربيل
السواحل
فرسان
##ness
واطفال
ارف
التهرب
الفاظ
الناجحة
المجوهرات
شموييل
يرافقه
الجغرافي
السلفية
##ابايت
##رفشة
وعقد
الاكسسوارات
تاجر
الدولتين
العمى
وظهر
للجسم
لامبورغيني
التوصيات
اوبن
ومتى
اطلاقا
المهرجانات
تغليف
##روان
فرحة
##منا
معج
##قترحات
نهضة
والبيه
سبوتنيك
تعق
والموسيقى
الاسراع
ترشيح
الخليط
الحوثيون
الصخور
تثقيف
مشعل
ووضعه
علام
وبان
الخان
ومختلف
135
حجب
الجها
تقديرا
يغلب
غرق
مراجع
المواجهات
مــ
المدي
##افعي
يتخ
اكاديمي
##غرل
ستيشن
الكوكب
مقل
الابي
جدير
##كند
##قاطعة
ويعتقد
شاحنات
طالبة
##ايده
البارد
##احن
الالع
علميا
محمول
اثره
اوغلو
وامريكا
الغار
لرياسة
##امله
##باخ
وصفها
والشكاوي
محتاج
والالتزام
البسيط
وابناء
القف
طمرة
real
وبسبب
وبينما
bi
الريوكان
يحسب
ودروس
والدته
ماريا
عجيب
المتطرف
زد
رفقة
عصرا
هدوء
720p
قتيبة
مجلات
##دينال
الصفراء
اقامته
مرم
109
لروية
##احت
برهان
##وديلات
##وقراطية
ولابد
وعايلته
مقبرة
مسبوقة
ناعمة
##صفا
ويمنع
ومشاركة
المحطات
طلبنا
سيدتي
بالطريقة
ازمات
واقتص
بكين
لنادي
بجمع
قح
الانذار
اكتر
الاسماعيلي
مسلحة
ورع
الجسر
الهواة
وتدمير
##شارل
المدافع
الرواتب
البقاع
داني
المتحدةف
والدار
نبت
للقطاع
بالناس
ماليزياك
الاضافات
العلمى
والابحاث
الحفلات
##ــديد
الادبيه
وشروط
فرنسام
علشان
حقايب
ترفيهية
هموم
bluray
##تموه
ونوه
تمزق
اهمال
لشعب
نوا
النبطية
tab
ملاب
بكار
ايقونة
امامنا
يتمنى
الفيصل
عظام
قروض
والحن
فبلغ
ولين
يفسر
first
نطلب
المونديال
##اضول
كاظم
ملحق
ويصل
قادرين
فاتورة
والتنسيق
ايرادات
##اتيل
تعطل
ريجنال
الجنسين
##ضباط
##ظافة
طالبت
الدهنية
اندونيسياب
المانياه
وقوات
المقارنة
۩۩
واقول
شقي
ادوميم
التعريفي
مهني
واستمرار
الاستضافة
تحرم
عاملا
تعرضه
لدفع
التواقيع
والقيم
روايته
ووعد
bea
لبث
جرام
الابار
المتحدةن
المتنا
ادايها
شعرك
والدليل
المهملة
شريطة
##ii
deals
الغزالي
فاخبر
المخلوقات
والماكولات
##وفق
للحركة
والمسوول
كريازى
##فلسطين
##افرون
مرخص
وتصل
اعطي
ذكرته
المكث
عبدالوهاب
باسرع
خلط
الرموش
اضطرابات
وتضع
سنوية
واتمنى
وبارك
حاش
منظر
استفتاء
يسعدنا
حلمي
بدوي
والتعامل
وبها
وقوانين
الجوزاء
ببيع
اجود
والاقتصادي
##يبان
كمثل
تخريج
الترخيص
##اعف
معاش
الشعلة
##اييين
وطننا
الاشعري
المحب
##ريمه
حضرت
##نيش
وسيع
مستن
لاعداد
للاندية
##سبوع
لمختلف
القوافي
التدري
تحافظ
##كلام
والحقيقة
ضل
ضيفه
##اندا
التقي
الانسي
مكاسب
التقيد
خادمات
وشكر
براي
والهم
احدها
نترك
مغامرة
احببت
حشد
قسط
الاولوية
والتحديات
##تمييز
##بكية
ميوتك
والاسلام
##وصة
تعاملات
185
البذور
اوزب
وانخفاض
والثقافي
الايتمان
##قاق
حبيبي
والمتم
يحوي
والاصد
مختبر
الرخام
بدت
تناولها
##رجس
الوات
والاذ
بتقنية
صافي
الخلية
##لاحق
والتطبيقات
قيادي
الافتاء
النداء
تجدد
مورين
لقانون
##تعرف
ترش
صديقة
الاخباري
##حمده
اثراء
##ساهمة
الرحيل
قيود
##ارتكاب
زن
##حمين
الغيار
##غنى
حققه
نبذة
design
جاكسون
الاقدم
بكري
##نر
##شيين
تكنولوج
تتشكل
مولانا
احداهما
ارتفاعا
وبهذه
تراف
تخيل
الثلج
وافريقيا
بالكثير
البكاء
باداء
الواقعية
استراتيجي
##اندر
واقتصاد
الخاتم
والحسن
وبالفعل
مصدرا
لاصقة
##لبول
مقومات
modern
والحاكم
وقدمت
مخازن
الزيوت
كالح
نسم
##الشيخ
جزايرية
جالي
لوازم
البادية
ناسا
لولاية
مستقيم
توبيكات
معادلة
والعملات
انعكاس
kar
ta
عديد
يلقي
##نزير
والسن
الاســ
##udi
المتبادلة
##وابق
بقضية
ودفن
الترشح
تصادم
اولية
اهلية
وصناعة
ارضا
الهضمي
الاقــســـام
ياق
وتاهيل
وافادت
املا
وروساء
الشهور
##عك
شيوعا
زميل
الامساك
طواري
##ضييق
الراجحي
وبعضها
##ضعف
##يقار
تناقش
##امكان
##ادش
لخلق
##غالية
لاكت
للصلاة
فالع
النفوذ
التقد
##هنا
الحياه
قطعا
مضيفة
يهني
والمنطق
مطبوعة
لورنس
وتقد
116
ارطغرل
العزة
لتط
css
مجدال
##وريات
وزي
بخاخ
توفل
اسبوعية
##وامع
الامعاء
فاه
##وحي
يدويا
لجذب
صوتا
##يدها
##ضرر
مظل
المثقفين
العصرية
جسدها
فادي
##مط
فيقال
التسمية
واجن
حقوقهم
بولونيا
صعد
تفسيره
##amm
المصريون
المثنى
منزلها
##علت
ومنطقة
قتيل
للسفر
الاكاديم
جامايكا
لفض
سلبي
الرمز
ولغ
المزودة
للسكان
وتصدر
حصان
الاشارات
edu
اعماق
التصنيع
##600
##ورط
الفاش
المنشا
السجناء
اسرته
##uv
القيادية
معناها
##وزن
العميقة
والحماية
##قلا
ايجابيا
elect
للاتصال
الرحمان
الشار
موريس
osn
##يسيا
للفوز
العاز
دبلوم
عملنا
المصرفي
صاف
مكافاة
الميليشيات
الدال
مسوولي
علياء
مكه
مفتي
##وصف
ومواقف
الالتح
الخضروات
العــربي
ببناء
ازد
##عوبة
##فتين
اشتهر
بالمخ
للملابس
قناديل
المسلح
تجهيزات
فذهب
الرامية
للمطالبة
خيبر
خزيمة
رمضانيات
خروجه
شيمن
الانهيار
طرايف
الحزبية
فلاتر
قياسي
خواتم
سحق
بريليانس
يراس
##واحد
التحضيرية
لوي
وكلاء
وسبب
##ضون
للرقم
الزب
والنجاح
لاعلان
المفيد
الفارسية
طايلة
ومر
##والله
تعجب
##واكبة
وشهدت
حلت
المها
سبلة
exam
وتابعت
والارهاب
سويا
باحة
مكعب
بحديث
المخيمات
##غبات
العالميه
مكلارين
التردد
انعم
متصرف
##اطى
عملاق
بالحديث
##ـــامــة
ساخن
والعاملين
ميكرو
sim
خزانة
تواجهها
تنتقل
ديزاين
متاك
يسهم
##وستي
بالكسر
ويحمل
dreambox®
##زايدة
لعملاء
دش
amer
لخوض
الخلل
تاثيرا
شيم
##اسبوع
المجل
الاحرف
الاعتراض
trum
كيلومترا
وللت
##ame
جامعية
والفساد
##عددية
لكنني
الميلادي
اللوحية
وشرك
القاه
##لمون
الحقايب
مشج
##جزا
والوصول
للنفط
الغال
انتح
##دونالد
حرصا
طاح
والارت
انفي
مطابقة
والصواب
يبذل
##كـ
باناسات
rgb
فلت
ويدخل
الاسابيع
يسود
البحريني
اضيف
يحملون
وسبق
ارقى
قبة
وموقع
ساكن
الوداع
شومرون
العلاء
دمن
لبطولة
التليف
السبا
her
الخيري
اقبال
المناظر
الازمنة
تنفيذه
العطلات
السراج
هنري
##ثيف
وغياب
##بج
تسجيلات
والتجارية
الافق
1981
وصلوا
اقترب
والحج
الاضافة
اخو
والحكمة
مزود
الاكلات
والرف
البيرة
اميلي
والفرق
stc
خبز
المدرجة
قبالة
للدراسة
مشمار
الاسطوانات
العريس
الشبيه
النماذج
خطي
##رحبا
ودا
فتيات
وجز
قطب
اردنا
لرجل
##بلي
##الاد
الاستوايية
##afa
معقول
الكافية
وتبلغ
reg
للاستاذ
الدجال
بادر
غفر
##ject
##فقودة
والاراء
والامنية
ركب
الغازية
جاغوار
الاصط
الهاشمية
العادل
الخاض
الانقل
وسرعة
دراهم
ستاربورت
##هيري
معانات
وعاء
معقدة
##ـــــة
استخدامك
زكي
ابادة
##تهى
اهدافها
حصوله
ثبات
واهله
يونيفورم
وصوله
##قاته
ردة
تتواجد
الناجمة
تدع
واتفاق
التقدمي
مراسلة
منحة
قوما
بعمليات
الانثى
##سطينيين
فرجه
للتصميم
##ضاه
الجفون
المتحرك
الاسري
مرتضى
لرعاية
ونزل
ضمنها
ومهما
التصرفات
للحكم
الممتدة
العرقي
فنزويلا
العـ
لافتة
##ردقة
sex
##ush
والحب
تضرب
##rah
الابداعية
معشر
##ــــات
مميزه
الشفافية
other
حليف
هني
روج
##ورث
##aid
مساحتها
mr
##موذج
خطف
##كد
الكرم
يعرفها
##سيليا
ودورات
##نبلي
##شتاين
والرد
سامر
اقسم
يحبون
##فضة
السرد
المساس
ميدانية
حرس
##راره
نتاج
وجدوا
french
خن
الاسعاف
يتردد
الزباين
وشوون
تغيب
سينا
بتكلفة
والاحياء
انقذ
ويرجع
##فليقة
بقصد
اتفاقيات
ومساعد
الولي
الاوان
share
ذهبية
صدا
الحيض
ايداع
ظهرا
##اوب
تهديدات
حربا
##فارة
قدرتها
احسان
مدح
كوالالمبور
قبره
##انيم
العشق
النادى
ويحتوي
الدردشة
الكابتن
وعشرون
كتابي
الكاريكاتير
تنسي
1960
نبدا
المتواجدة
مخلوق
##نتو
شوب
الكنيست
بولي
يتب
مبين
تطبيقها
للعل
بركان
الغسل
الورشة
حاجب
لمحاربة
وبقية
والدراجات
الارتقاء
توجيهات
باختصار
للفنون
##finder
##يتة
flash
الصهاينة
راسي
عمي
باكمله
مصممة
الضخم
##طفات
مزاج
متنا
نشطاء
رویس
السوفي
للمج
يعرفه
##نسيا
الفارسي
##94
والتبري
تحتل
الاغلاق
وبلغت
family
##صريحات
القومى
عاق
##vers
اعترض
اكتشفت
##awe
الفهرسة
يحظى
صورته
اقس
ينادي
سعادته
وتستخدم
دلع
##شفة
القبل
ومطبخ
اصناف
الاجرة
##زلية
لبكالوريا
عليهن
وقواعد
حملها
##سبات
اغلى
الشيخة
phpbb
الفصح
بتونس
الاوت
اميرة
محله
الورود
الحداد
المفروضة
فاخرج
##ايشة
الترابية
سانغ
عاتق
##وفيتش
الجبر
##برون
اعرض
المميزه
١٤
المرمى
المرسل
ويحاول
احتفالا
لموسسة
فـي
العوض
روسيام
العفيف
متزوج
بالعلم
اوزبكستان
##بالغين
قرطاج
الانتفاضة
والقرى
السيوطي
حزام
##ابرة
##وريه
السماوية
شرايين
تيك
حبل
##خالفة
هذ
الديار
موتور
##ساني
الطلابي
1984
ويشير
باحدى
غموض
والسيارات
الطرح
##غلة
التوت
بالعب
الاسره
الجراحية
العريضة
بالكتاب
البقر
الحسينية
بانتظار
والوظايف
غيري
ونايب
تسريع
قنديل
القوايم
##يتم
الكافرين
شبرا
عاشق
##حيا
للشاعر
واحب
مسبوق
b3
باردة
tur
لامر
##وفل
starsat
قالها
انقل
ولانه
واحسن
الاليات
وكنا
112
المحتملة
rep
نقي
##طارق
التطبيع
pig
##اتة
بالنظام
ترتكز
عقله
ايتلاف
بقطاع
##ode
كجزء
وقلة
الزمالة
الاوساط
الفين
النافذة
سراج
لممارسة
اسير
##ثلث
والانسان
بريطانية
متتالية
xp
والشف
المتغيرات
محضر
ولف
##برس
اسكان
متد
تحفيظ
##ظارات
الزوال
البلجي
##مرت
الجاف
افريقية
##وذة
##كوا
اجابات
توفى
فلوري
المقاصد
##رشحين
##حدثة
##صريين
فرضت
لافروف
خبرات
وقراءة
##كاست
الظل
الحسنى
بوغاتي
##شيف
نضال
##93
##اتمة
##itor
وافلام
الكومبيوتر
##بيروت
##rol
الدمشقي
وردا
المعيشية
المتوس
والسودان
الكترونيا
بروفيسور
شاليه
المفكر
يكرم
انغ
اجماع
وانتاج
يحيي
متسبيه
الطبيع
المتابعين
مليونا
po
اشهى
##سابق
حاجات
عملة
صدره
مها
المحاولة
##حميد
يتلقى
univers
اعتمدت
خرق
ابراز
##وكاسل
يتد
الصعود
الكيميايي
نعتبر
##سابات
وبج
النشرة
اجهز
طالبان
ملتزمة
ببن
وردة
جسمك
مفس
التجــديد
وموا
اولاده
مغرية
خصصت
##ارفور
الوراثية
الحدودي
خوري
##pg
مارب
القوس
ودعت
department
##ناوي
##صرون
المقترح
##هدفة
الغر
الضابط
نعرض
ماسة
احالة
مكثفة
نجاة
دعوته
ويستخدم
المقاولات
##شافات
يحرص
هجرة
يقين
عيوش
يركز
##فها
دورته
كرنفال
المقري
الامد
كلثوم
المعنوية
ارادوا
الحجارة
تنال
اسمنت
##عنوان
معمل
word
##جرا
القاط
الكب
الرومانسية
clinic
اليمنيين
مستحضرات
##67
##افو
وقرر
خارجيين
البادجي
تخصصات
القحطاني
فرو
يمد
وجها
لاطفال
المعادي
المشايخ
فالن
islamicfinder
لجمعية
##يطان
بلادي
وقايع
دبلوماسي
ساس
##way
امامة
الطور
انظار
المستقل
##err
معلقة
المنتديـــات
ومثله
وتقارير
فاضل
وتصاميم
وتونس
والسوال
والجيش
عصري
المسيولين
فكما
والمخت
بارتفاع
المفعول
##ستهم
واحده
secur
قميص
##خبة
ننشر
##عمه
بحب
وفيديو
##العين
تجوز
الجنايي
تضامن
ماير
##متهم
كنوز
غايم
التزم
شهاد
شهدتها
مبد
الحف
القيود
اسطورة
ولاد
##حيق
روحه
وشكل
يدافع
للنادي
anc
المظهر
وتوفر
والعناية
الانكسار
الراء
ياسمين
probl
##باكستان
صنعت
حوش
لقم
سعى
الانع
بريس
##ريخ
يقسم
اشكر
يتصور
لقيت
العجوز
الانجيلية
غول
اعني
##سيكو
يدري
بطبيعة
عفرين
##باره
الخلفي
للسيد
للعاملين
التالى
##رمون
ناسفة
والمر
الاستهلاك
احترافية
truman
الاعراب
الخشبية
منسوب
##قارات
##تعال
وراءه
الداخلة
وتيرة
متلازمة
لهواة
يغادر
##شارية
الاصلى
سانش
##ينس
وابراهيم
qatar
هاك
وبك
الهروب
جانبها
nov
والمدن
بنفسها
البلاستيكية
للميزات
الايرادات
المعتاد
قاعد
والمغتربين
165
##وايات
##ومون
اللوز
الفراعنة
##درد
اتجه
كابيتال
الاضطرابات
##جيرات
منكر
والمعارف
وعادة
##اكستان
وكيع
ويقع
##باش
فيمكنك
النزول
والعنف
الارضيات
والفنان
الماضيين
البيتزا
##ats
قوته
##علاء
##شارون
والعالمي
احتساب
وموضوع
اكيورا
للتج
المسيول
بمديرية
mos
4d
##واتها
ahmed
فريج
ولدينا
تصاع
الشاعرة
المخططات
الوع
اللذي
تضيف
123
والقن
موتمره
العقبات
ذالك
التاب
ريد
المحس
لحديث
صدارة
الجرحى
المدينه
الثوار
تحكيم
نوفوستي
لاستعادة
تعارض
يونيون
وحدهم
للكثير
ينسب
المدربين
الخلابة
يروى
##ركس
الشيب
بعدهم
blog
اليع
قاموس
انتقد
لساعات
والسياسي
الشبان
سمحت
يقدمه
##غيان
##اليق
للفق
##وارق
ناخذ
##ces
رمزي
مخيمات
00212
##مصطفى
سلاسل
واخرون
الرمان
بالتش
عقيد
الميزات
مرغوب
التاش
الاذكار
تقطع
لعلكم
##قوبي
##المملكة
##طبع
expedia
خب
##هدا
يلاحظ
الكواكب
المحلل
الاحمدى
##ارتنا
اليماني
الاجفان
تجتمع
1438
مقيم
خلافات
##arch
بالمجلس
بالصحة
التاهل
اطلال
فتحة
خطيب
والشوون
بالكمبيوتر
تقر
هاوس
تطويرها
بوتفليقة
اللوج
الرتب
المساحات
واخلاق
الاكرم
للمنا
لطلبة
وماية
كوه
##امال
والظ
yah
التحصيل
ويقولون
الفيتامينات
ضياء
##ايقة
فعن
يصور
##صدى
احواض
والادوات
##اندية
النفقات
يويد
##ــوار
بحذف
الراحمين
خلفا
بالعد
##قلان
الموتى
ولى
تنافس
##ثنى
تهيية
التكييفات
للصور
ستين
ستيروين
اثرت
##اغاني
اغانى
ويرلبول
##bci
فبال
احفظ
##اسلام
طرفا
شابا
والتغليف
ليح
مواجه
حمراء
job
السيل
الشبكي
برز
وgi
والقد
1985
اعفاء
alm
مقعدا
##بريس
زهران
##واشنطن
الدية
موتمرات
1971
يشتري
يعقل
وgiata
عصرية
يودى
القراني
ايطالياب
والاكثر
الحوارات
وبلا
امامها
احتيا
باكملها
دورتموند
الجديده
بارزة
والتبريكات
نومن
اتلتيكو
##كاي
pat
##ونتاج
احبك
وفلسطين
وثايقي
وتقع
تغطيات
التجسس
##صريح
طلي
والخص
التامة
المواشي
مماثل
الدخان
لاهم
الظواهر
والخل
للالت
اليق
اسكن
الرفاعي
ربا
وراي
المرق
المتفق
فرانكفورت
براب
صغ
مجمل
##alm
امتصاص
يوفق
تاني
سكت
بالوان
ماسك
مسرحيات
##اليت
الدو
الاداره
لقرار
طوكيو
##بيون
##يميديا
منفصلة
##620
وفض
الناتو
##غوي
##والهم
قاص
##ثرت
نراه
تسهم
##حوذ
كفارة
سكني
ويحتمل
اعتقلت
يتنا
والمشرفين
دري
غلط
العون
تقوله
##وريين
يجعلك
والخم
##1710
منطلق
##رقت
فيا
القش
للتخ
المتشددين
ثماني
البلاء
تحم
الصينت
تكل
طفول
للاخبار
##الرياض
الانطلاق
مبديية
توكل
باستطاع
fort
فيجا
بنوك
والعربي
فكري
الرباعي
تورم
الدان
فاقت
المرسم
قارب
ارسنال
وني
##يمور
دامت
فالي
##ــال
للاجيين
المقامة
الالكترونيه
ترف
القليوبية
##يمم
الحظر
1435
العمري
الواحة
وملحقاتها
##كتشف
الاسطح
##ited
رايته
ومنتديات
موثوق
مديري
symb
##ليزر
بشخص
رموش
برات
تسريب
سامية
##71
يشرب
ملحم
##فري
##خور
##sky
ازور
##bf
الحياتية
مقبولة
تيسير
##حور
##ىمحمد
وفاز
فهمي
##92
الزايدة
بالشر
210
يشعرون
فكتب
القماش
##يمه
النقابية
##یا
وسبعين
نقض
لتصميم
مشاركتها
لزوار
هيثم
##za
روتانا
كلينتون
وبالا
تلوث
##غلاديش
##قلي
حضرة
لمحافظة
114
والمحافظة
يتحدثون
تلتقي
استحق
جروب
ومعت
مرضية
وانتشار
ايقاع
خضراء
المفروشات
المفتاح
غذاء
المشر
الارجح
حفاظا
ويطلب
المغناط
##وابع
والقوة
الالتحاق
المما
للرا
وبعضهم
ايلاند
##ifa
الكاتبة
الدماغية
بجل
وكبار
انماط
اضع
المقاعد
تحديثات
##ـــا
da
مبتكرة
##قلات
مسيرات
بورنو
طريف
ضحك
وتامين
متفاوت
plugins
وقانون
موطن
بقرية
##oud
نعود
كرين
رحمته
ـــ
التفوق
رافعة
##مشبات
للجدل
الهيثم
يقترب
الجرث
ev
##وراة
للجمهور
تحياتي
الخزان
kg
##رنج
نفقة
تحقيقه
للطباعة
هذي
معارف
يهودية
الشافعية
متطور
المسرحي
كتايب
عداد
تميزت
استرليني
المايي
السلكية
##ومنيوم
اورا
الموث
سبحانك
##arm
لموقعنا
منزلة
غامبيا
التدم
للبالغين
##rim
فيو
وتهدف
التغلب
صادقة
##ايض
الطبع
الطرايف
الدوليين
ينام
##الكويت
فاخرة
الوفيات
مقدمتها
انيميشن
خبي
##اغية
حمار
لاضافة
ومعالجة
نام
لمق
تحفة
النقدي
المتمثلة
الغنى
الثلاثين
##خرية
المستفيدين
بحال
الــعـــامــة
##جرام
النقابات
lien
المثقف
##ونتس
الاسكندر
لانطلاق
بوربوينت
##نتاج
صبغة
يتوافق
##مانينة
طوبا
ويلي
واجتماعية
والواقع
بالحي
الصحافيين
تكونوا
اعدادي
ايدول
الفردوس
الفريدة
الجمركية
اعتصام
الاحتفالات
ظرف
رصدت
التسل
اللودرات
المعرفي
az
وموظ
تحتوى
##داخلية
المخالفين
برت
كنب
nbsp
القصد
تجسد
وبريطانيا
التنم
##خيال
والحكايات
##قامة
بمرور
تنشا
ترشي
##الكسي
والطرق
السفلي
sel
فقم
فيمت
بالخط
باني
الريفية
الشيوع
تخطط
القاها
الليالي
لقيادة
المتواصل
العشوايي
فداء
الحار
المعادلة
تمرير
مدنيين
يفصل
ببغداد
الكوميديا
بالفتح
للمص
بسورة
عبير
للملك
الوعد
يشيد
عبادي
القتالية
برفكس
امته
بالدولة
##هامبتون
الغداء
تشبع
حمض
متابعات
ثن
يعي
##هضة
##غاري
والكتابة
الكوارث
معظمهم
شعرها
ديمقرا
ونن
عزوجل
والرجال
انفا
مساكن
ولعب
ركعة
دجلة
وعليك
الافارقة
طريقا
مبنية
والهجين
##سمان
سيناريو
والتخطيط
منعت
وتقل
بلوم
اندلعت
وتذ
الغش
يبطل
بالاتفاق
ديوانية
الدقهلية
بصل
تربي
انطب
بوص
وود
ومصالح
رساله
الخيول
ou
الثمانية
software
توري
جدلا
سانشيز
والظاهر
##ادو
التكفير
##اهما
عمدة
صعدة
لمادة
801710
افطار
1978
مضاعفة
كفاية
جنات
بنود
##قيما
بجهاز
ancien
مصاب
##مون
##يتر
والمقاومة
والكت
##سبورغ
اللاتي
وستكون
وشد
بريك
##حيف
اللوني
##يتس
##وايها
والغرب
للمشروع
##حقه
اثاره
ومشاهدة
okh
يمكنني
##قصود
العمرانية
رخيصة
##قرام
بالتد
ذوق
##يسا
اخف
##يزك
وتمكن
والمتابعة
##gram
الحكة
الراسمالية
حقهم
##اثان
##غلين
مفارش
توزير
يلب
##عاج
مسلمين
مخابرات
##خرطوم
الحرايق
ارضاء
قمع
##اثرا
مختفي
والمساعدة
okhbir
فراس
باتفاق
يحيط
الغطاء
البطارية
انشد
بتط
والشروط
##برد
يتصرف
المرسلين
الرص
العقلي
قراره
ميف
انتبه
معرفته
ازدياد
موجز
الانفال
القادمين
الجسدية
والاناقة
وسار
##ani
بصرف
ويساعد
set
التواجد
رابح
##طوف
البيولوجي
اذى
حصن
كوش
تفاقم
جيرمان
ديو
نبيا
افهم
المبديي
القلبية
##حواذ
طوعا
للسعودية
ونوع
ناجي
والصد
##ايدا
اعباء
اصرار
just
مسارات
اجسام
واستطاع
الجيتاج
اصلي
front
القبعات
الصحفى
والعقل
##ووو
صحته
والتخلص
يعطى
المعز
للمحتاجين
خليجي
ولاسيما
ذكي
توسع
لاى
الامتناع
السجل
محكم
للموتمر
##يلاندا
الباء
اسقف
بحماية
داره
خفية
عبور
حكومات
الكاميرات
الشهية
منتجاتها
##بيلي
الساق
والمريي
pass
مدافع
##itis
اجلها
لذكر
المـــ
زيتون
بفر
العدوى
ويشمل
للتسليم
##صاح
بالاعمال
تجربتك
##ontent
همام
اللوحات
لوف
للاهتمام
مثالي
فضله
##ثية
##يزه
والتطور
جبس
غرض
التكتل
##افن
اغلق
راقي
بمنع
بمتابعة
°°
##كرام
الاحتياط
زوجتي
الناب
والالم
المدعو
المسموح
اوصل
بمقدم
سنوي
بصراحة
##ards
اصدقايك
قاس
##طير
للمدرسة
3ع
##صيم
##روبول
##كتروني
واتباع
بالعربي
##بيته
مشايخ
عارضة
وحس
قســــم
مدرسية
##قدا
المرغ
عبرة
contr
ساج
##فقات
التخفيف
للشراء
الصيغة
المقاتلين
توازي
يعترض
والاقليمية
رسل
غري
وقر
الفضيلة
بازالة
و8
لهيية
متمنيا
from
##كاين
تناوله
المعلن
هليوتيك
ساعه
وبعث
270
حربية
بمدن
اسمي
حالا
استقالته
دفعه
ضبابية
حايط
اختارت
يعل
التبر
الكال
ينفق
المدعى
فازت
مستقرة
الادعية
الفاعلة
asp
ترون
##امح
التصفح
حاضرة
نينوى
مصباح
النبل
افران
حجازي
نوضح
##160
يعاقب
للموسم
ونظم
واعلان
##حوم
##قيادة
المتاخ
والمسي
العامين
طبريا
التدريبي
ضربت
surgeon
وتتميز
والعيش
يخبر
قدمنا
بقطع
متواصلة
تجرى
كتبها
وانترنت
والوطنية
عكار
فريضة
##قيه
##ظي
##كنز
انهى
والمشروبات
اطفاء
عسكر
مسكن
##ميلا
المتبقية
١٢
##ذرة
الاوردة
بالاجماع
problems
part
هارت
مواسم
للمقاولات
واتهم
العث
الحاق
coun
دموع
انجولا
تلفزيونية
الهرسك
##ـقـ
السعيدة
الطير
##يجار
تقديمه
##دب
الفتى
فمات
##قسيم
مصف
##امها
بالالت
شبهة
استعاد
جمعه
والنشاط
والصورة
والاتفاق
عدمه
الموسس
انقباض
للتسوق
مقربة
يمينه
المستب
طرحه
طرحها
الشامي
##يعية
بطانطان
يغيب
بيير
002126
faq
والجهات
المعين
##واهم
##واحف
تبذل
فلوريدا
بيه
زام
##عراض
للخطر
ذرة
وتقنية
فاتح
يورك
الثقات
ذاكر
برسالة
المزارعين
لكتاب
##ـــر
تاشيرات
قـس
مسجات
يتراس
حسبنا
صال
التثبيت
ومناسبات
الابتكارات
##73
المــ
بالاض
النشطة
الكندية
الاصابات
والخوف
خلع
انطلاقة
ناجح
الكارثة
بالسي
المطروح
الجابون
استشارى
وايجاد
##اجير
الحلوة
السويش
بالرد
اختلفت
##كوينية
لحوم
زرعة
اسطوانة
الازدواجية
دما
وتجارة
سيارته
فقرة
للامور
الزميل
symbian
يطبق
##ستامين
والقران
لاعبا
امرها
عايلات
مايف
المخاوف
وراس
التاخير
السرا
##جازات
ipod
التيارات
code
رانيا
##غه
التعاطي
الكتابات
البكر
بالاحت
avi
وراثي
##هاده
##اكير
##حقين
طلبه
ارادت
نسبية
للبرنامج
شهية
والمحبة
وملف
##جلي
الاورام
وروايات
يصلون
ناشطة
##خاير
لتلقي
نيبال
عينة
المضمون
الكثافة
الكردستاني
##ستردام
الزنج
##همات
الدلالة
الانح
بياض
تتاثر
كيري
##اطمة
صفوان
anim
was
##002010
لعن
وخارجها
يومه
تحوي
يكتشف
هشارون
يحتوى
المزرعة
الاغطية
##وايط
##زوم
العلوية
تركها
لايت
حيان
الجوده
##وزا
باولو
الابدية
استمع
##راحه
الامكانات
استعم
سيلان
##عقارات
يطل
اتقوا
155
times
بالمقارنة
ابقاء
ضمت
وشباب
نموا
##غافورة
جثمانه
التعا
المشرفة
بجهود
##زف
الرفض
باقامة
توضي
بكروت
##غطى
رفضه
مريية
و10
##انته
والتعبير
جداول
الفرنسيين
##نازليا
الموريتانية
يرضى
##px
##ايان
##دياتنازليا
الوصفة
تصاعدياتنازليا
ka
الشيوعية
سماه
##ηt
والياب
للسيطرة
الغابة
##فعه
ađ
الشباك
7β
امامي
7βk
dl
##mηt
##رنجية
يتذكر
والنصارى
ađmηt
وبنات
شنودة
##bi
##يلاند
##igma
whats
البينة
روحانية
والدقة
وبالتعاون
##ـو
معان
جنون
الاغانى
عواد
اخته
عبدالكريم
رابع
##بود
كروي
##غفار
البحثية
كرملش
العاشق
والتسامح
وانحراف
المحال
المسند
حمله
يشترون
5000
بتحميل
نسبه
تجميد
شجاعة
فليت
المصنوعة
fring
دعاة
ترس
المبيت
والغاء
nhe
طايفية
وسيتي
مغاربة
veg
هطول
انتفاضة
تتكلم
كروز
تشريع
اقص
بالمال
المصطلحات
يرغبون
##لوجيا
المستوطنين
يظ
اليومين
مقياس
بابي
والكلام
داب
الايل
cap
##لخص
خصص
تغيرت
النمط
cond
القابلة
الصخرة
وحك
والهند
ابنتها
للتغيير
تجاعيد
centers
تقليدية
المبذولة
المتس
بالمعنى
الجدوى
شريعة
القطن
تميل
وستين
سبيلا
حراس
قنبلة
##غلف
نتايجها
انطوان
السويسرية
العايلي
التفت
وطرح
حالته
##ids
##مود
المبدع
الاولمبي
المعلنة
الطازجة
عارية
التعايش
باتا
سى
والقى
العريش
والعدل
وترى
سنوب
هب
واشكال
فاعلية
مطالبا
متعب
##2011
مراسم
ترجمته
تجمعات
الشري
dmc
محظ
ستست
فرط
فايرفوكس
##تحت
##وقل
شعري
مشاركتك
لعله
##وخي
دفاعا
التوجهات
زعماء
صواب
نادية
بالامن
##ose
رفعه
الشهود
##ke
##اديب
الامثال
الشراري
1965
تدم
##ضرة
##43
##ستيشن
للهيية
##يدير
الذياب
1964
better
يرق
موثرة
##واضعة
##جمالية
استيعاب
بمخ
المجلد
النفاق
وحقق
امامهم
##oom
فريقا
واشاد
الثياب
وهبي
##احبات
المالكية
النفقة
صوري
واللبن
يوصل
##ــــــم
وممت
الواح
للمدارس
السلط
dec
الكحول
احتجاز
175
النزلاء
خبره
بالتفصيل
واسب
تشغل
الفلتر
عبدالرحيم
العشاير
جيه
يضيع
ومي
عينا
ثمار
التقليد
والقلق
##خدير
سجاد
##cel
##داه
استقباله
ادبي
الصحراوية
لسي
وسعيد
ay
بنيت
اهت
وذكره
عسى
حزبه
الاستغناء
وصورة
music
°¨
##ليله
المعتد
المطابخ
اليسا
ترن
وفهم
##ange
تزور
يلقى
القادسية
للحرب
شور
كنع
الجواد
which
الروحانيه
الميداني
محجوب
اعيد
جهدا
لمنتخب
القسط
الوردي
وسكون
بكاس
اعتاد
مسيحي
شبهات
بحمد
الكنب
الاستف
لحكومة
تستطع
##شارد
##تق
بانفسهم
فردي
والمعلمات
ببلدية
فيد
مصداقية
مجهزة
مجدى
قبلة
##جور
يدك
والمهنية
فواتير
وطل
الحافلات
رحلت
وتسعين
ثروة
مضيق
الجادة
تحسب
براء
##جبه
bb
##top
بالسر
الجاب
معروفا
تكفي
الفقهي
##سحاب
متخ
تخلص
الحنبلي
الذمة
الاعتذار
اعدام
ناط
##ذهبت
priv
اختطاف
145
انكماش
الفعال
باحثون
##رورا
والعودة
ويبدا
tog
##صنة
يلفت
##يرين
فلابد
ارام
تلو
لنفسك
##حيصا
بيكو
عرعر
بلوجر
وصولها
##نازير
الختام
المنتخبات
البدن
##شاور
تصرفات
مجزرة
127
لاحداث
الناجحين
لذيذ
hi
men
فبين
##ابان
الخاطية
والمذاهب
البنود
اطلقها
##غدور
##ركت
##ثيق
الحبيبة
##عيدي
المطبوعات
انسانا
صديقه
show
استغل
الحصر
وهواتف
المحام
المحفو
السقف
وجعله
مفاجي
لاحظت
ايميل
المركب
fix
##ــق
معطيات
بجولة
الاشتباكات
types
والدروس
##oh
الغالية
العبودية
لينا
امازون
##itch
للصحة
مقدما
والخلف
skin
رابعة
ميمون
اسيوية
الاسف
الموقعروسيا
##osa
للمنتديات
كقول
مكروه
تتصل
يبكي
4k
لتغطية
للعبة
والاحاديث
fire
والمومن
انصرف
الاطاحة
فمنهم
الممتلكات
الدف
cs
roy
ضوابط
عرو
والور
fe
خريجي
الثقيل
العريقة
الفايت
##فلح
تبث
جرم
حراك
مريح
تنق
الاثم
##ماشى
الساحلية
اسوة
الاملاك
الاعض
خاصه
بذور
وسياسة
تبنى
##بحرين
وعلق
وبيت
الزمر
حلوان
التسلية
لحكم
شيخوخة
##جيلا
همسات
early
ستتمكن
مختلفا
شارون
وتبدا
يطي
##خه
لتست
بالتدخل
##راكمة
عايش
تيس
مفه
القرب
اخاف
##عتنا
الابرياء
سيودي
الرهب
##فاض
وللاس
باية
والمستقبل
التزامات
النقض
##مثل
للتد
فاعليات
dig
وللا
الضبط
التها
متهما
التحق
اتباعه
ينطق
##الجزاير
##طاير
الميثاق
نشهد
تحمله
لمسة
##read
جبار
نتج
فردية
مسك
##ether
رخص
شابة
##وليت
والمانيا
##وثق
بماء
##alc
حوبي
##ذهبية
المعاصي
الفراء
فتحى
الموبايلات
مورينيو
المقيم
عبود
العيوب
بته
عجب
##قيقتين
##واتهم
شيرين
ببطولة
الاحتيا
ترم1
تطوان
الصحى
يكذب
للبرم
add
للروم
العديدة
للته
السقوط
وصلاح
جلوس
ويسعى
والمدارس
الزهراني
¤¦¦
##سوا
##onia
للحل
stock
لطلبات
##بيو
المقربين
الفيروسي
¦¦¤
##انيد
##كلون
جميلا
موهل
افيغدور
حوبيكا
##ريكي
وتدريب
قومية
نفر
##لوك
تعين
واضط
وباست
الاحصايية
الكاردينال
الصدارة
888
site
مكرم
هواء
ترسم
يمنية
يرث
المعربة
ادعو
الاثناء
للفصل
سرق
فانزل
##ife
المعماري
العشوايية
التشكيلة
حارة
##خاي
وتجنب
قدوم
لكثير
الشمري
يحم
مهرجانات
inf
هوليوود
نيران
الغلاف
والنقد
للحسون
##illidae
fringillidae
عـــ
قفز
وفيات
بديلة
##iз
الرياضى
##rild
شنت
محتملة
خرجوا
بذاته
##صوف
الفريد
##rex
فوزا
estrild
estrildidae
##طو
التقاليد
##ستنا
للسي
واور
اتح
اللغه
##ىى
وليا
مضادة
اليسارية
فهما
##ابعات
##وتية
ثمنا
##ents
عتي
##وستراد
يامل
البلي
وتسجيل
نحاول
مفع
التقط
تطبق
المرتفعة
ومال
بالحصول
هاربر
الحاضرين
ايكو
ولنا
الحضارية
عياض
ارث
fore
تضاف
الفايقة
يراها
الانتقالات
##بادرات
bas
داس
بالتم
افكر
للمواطن
وثلاثة
اشرطة
وترت
##active
تناقض
الخطورة
قسرا
اوافق
الهبوط
ديلي
وولي
##camd
##اءه
للشرطة
بامراض
للرياضة
للطلبة
احتجاجية
mini
بالعيون
التكامل
##وسيه
##نانير
بمستشفى
فلسطينيين
الثرى
المسجلة
القديمه
##oll
ميدغلف
اصابه
وعاش
سيحدث
قبضة
تعبد
افلا
والاقت
136
مسعدة
يومها
بسيطا
فتوى
##صاحيصا
العـــ
الشاحنات
الموثرة
وداع
مهارة
وتجارب
مسحوق
دافع
شفاع
الخرايط
##الفات
than
الصغر
بيب
انفق
بالليل
##ert
اسبوعيا
نعتقد
القضيب
واثار
اسطوانات
photo
وارسال
هييات
وقرارات
صناعي
الاوبرا
كابول
باهل
ومنظمات
والبحر
التناقض
الاحمرار
##وانية
مشهورة
##ifi
مقرها
متقدم
متفاوتة
##ضلة
وتذكر
حذرت
راع
واليه
البرب
المقادير
ضعي
بالرصاص
الدارقطني
##اندي
##حتين
والرياضي
وبالاضافة
الوضعية
والبيهقي
قولها
ودراسة
السطور
ابابا
متوقعة
اتات
سجلات
خطابه
ومعظم
والمحاضرات
سفاري
##gdvb
الحما
واننا
تحتها
progdvb
dvdrip
سويت
بنما
ساكنة
##اسامة
امد
تشرف
حلمت
##لزماتها
يستخدمون
بالبيت
وساعات
خالق
بيانه
الدمج
fun
لتقييم
نرفض
الباز
مومنا
اهانة
##الغاء
##شيم
##الما
عمود
تحتاجه
تكرم
الهيوماكس
##esat
لعلي
كامله
يهاجم
الحذاء
##ساتذة
العمق
الحوثية
المخدرة
الكالسيوم
لوكس
امبرا
الالترا
داخلها
يصاب
بيلاروسيا
tun
التربيه
الخضوع
الصامت
##التين
ترتدي
نسمح
1433
ادخالها
اكتشفها
انوار
كليبات
ومناطق
السق
مصطلحات
العمران
والوقوف
اصالة
##كيون
المود
##حميا
حولي
واتبع
بالدار
جمادى
والديب
##لاعات
بدوري
تفكيك
يسمي
##ise
القياسي
بشروط
##reen
##sch
والمكان
بلو
يرتكب
السويدية
تعترف
##وريون
بطلبات
ولايات
##ولود
نخب
موقتة
دبلوماسية
الحقل
سيريلان
hy
الاستيراد
##86
التمزق
بثقة
غزل
محاليل
منهجية
وامه
لاخذ
##ater
جولي
معني
اتاه
صربيا
مشوشة
ودر
الانث
ويامل
المحكم
الختامي
ويخرج
خليط
توزيعها
##ينى
##وحه
للقوانين
نلاحظ
والحركة
رالف
يضل
والمواطن
تشاء
##عانة
##صيرة
القدماء
ترقية
واجتماع
شجع
والافراد
hsl
تكرر
الكرك
التلميذ
البطرير
يتراوح
بيتها
امناء
نعد
ابسط
ومشاهير
wwe
قلوبكم
غنم
للمادة
لناحية
فوت
ووسط
والنهار
اتفاقا
الاسترالية
بقلب
##ـرب
##ual
الاداة
لحسن
تلبي
خلافة
##وادمي
ماكدونالد
التحسس
الجماهيرية
samsat
سجد
##ثان
بصمة
المظاهرات
الماد
##ادلف
بتك
العوام
حقول
ops
جمهوري
البريم
والحرص
والحريات
info
المجتمعي
الحو
الصداع
الانهار
تتفق
والتعديل
وتسليم
كوينز
الدالة
التصوف
المفوض
ونحوها
تتسم
##ــــــة
انتاجها
نطق
الراية
##ساند
هدفين
صوموا
##جاع
مضادات
معاجم
يقد
##رايه
التلاجات
فتت
السلفي
صبحي
h5
وشعر
والاجتماع
ركلة
##وثي
يحتل
الاوربي
benef
الشيون
عالمنا
كويتي
تفضيلات
العناوين
قلبها
كردفان
والاصدقاء
استفاد
##ويها
الالام
اثير
##ندر
الحزام
الرقمى
والمشاركات
محتمل
اشتري
لونه
##لته
الدمار
الوارث
ونقدم
##aby
1963
لمرحلة
التدوين
εiз
والعسكرية
ولمن
ملحوظة
للبنك
الميادين
لمخ
صدمة
العلة
##راعه
تعميم
رشي
الموية
موقعا
الاطباقويح
الاطباقويحسب
##قبول
نصار
تحتضن
رجالا
وعليها
alq
للاستشارات
اخذنا
يجدون
##يدرالية
##سق
متش
##قلها
مشي
المجرد
والرش
##راقة
الفستان
فظ
لتوزيع
وثبت
التنظيمي
1975
هاج
واكسسوارات
البلاي
احتفل
مرشحي
العجل
حقوقه
الاطارات
للارت
تتحكم
فلانا
القرء
uv
ايبي
والمثق
الحلو
##زيم
وبني
المعروض
العداء
##فيري
ملاوي
عنديذ
ينظرون
مشددة
بكالوريوس
ستر
والخض
منتخبنا
الاونروا
الحث
جميله
مقدي
الجلال
ابج
انشط
الغسيل
ويعلم
ويدعو
الموردين
اوقفت
الشتوية
تتولى
والعايلة
##انيت
وتعديل
والتصوير
##ames
سيلت
##oker
وتراجع
تبكي
##هيبة
prices
السوايل
الجع
ونظر
فاعلة
قافلة
محقق
مقاربة
لفهم
الاقلام
احباط
روعه
##فعالية
الفلسطينيون
##عني
##يفان
ففيه
الانيجما2
وضمن
يستدعي
معلوماتك
الازهرية
عكاشة
md
##ورطين
##واقم
وتسعى
خاطر
##اطين
وتمثل
بياناتك
##اربه
تحضر
لوكسمبورغ
الـحــوار
نضيف
وتسويق
حلي
اوست
امتار
##برتغال
الامريكى
هاتفية
المبتكر
##ضج
##عماية
استعدادات
مشاورات
المكالمات
تعترض
التحديثات
بلك
فيح
غرفتين
زلزال
الخدمية
وتقييم
الموضوعية
والانتاج
استكشاف
الحاد
توماس
together
خريج
فخم
والبد
اللعنة
##وسان
وممارسة
بالمص
تسكن
النبيذ
مزدوجة
عايدات
الاستدلال
ارتخاء
ins
التعاوني
##ency
مركزية
الايرانيين
ياتى
##اهنا
والشخصيات
والخليج
inc
ادمان
ريكو
لود
##ظير
اجتم
باقليم
contract
##افضل
اخل
تجعله
التحولات
للعلاقات
غذايي
للاعت
واظهر
والمكت
اليوسف
الـق
الاقســـام
لايقاف
باليمن
الطاهرة
نقف
1969
اخلاقية
المحررة
معصية
والزرقاء
للتحالف
وحرم
وصية
التنافس
للثورة
ووص
والتقى
العمالي
بالتعليم
حقيقيا
فيروز
احرص
keys
شكلا
اكسيد
##ويك
وقبول
تاسيسها
mach
##ــاء
ابتكار
الوهم
والمور
احرار
##ذروا
الكوفي
الاعتداءات
والجزاير
الناعمة
لوكا
لجهود
الصمود
غلق
العباسي
##يير
والانسانية
الدوس
اخط
ومالك
نزاع
ليبية
حى
مستوطن
وكف
ذكرناه
عصره
الاجرامية
وتمكين
بالشكر
دخان
خور
الاحسان
النقود
مستعدة
الاهمال
قوارب
الصراط
##رقابة
##be
والرجل
وتعاون
مليشيا
##وجين
وكثرة
المزود
¨°
##ثات
129
##دور
ارجاع
قرارها
للجامعات
فاسو
تحذيرات
بيم
##كونات
ولدي
قيمةيتم
داخليا
دلال
والصل
شمالا
يحتاجها
الاولياء
احصاييات
محليات
محرر
حولى
##uck
بالارقام
يتحكم
انتصارات
لتفعيل
ذكرا
بالامكان
books
خوار
فيفا
##ليكس
الحى
تستغرق
phys
تقديره
حرايق
للامة
مبرر
الحضري
واهالي
الموم
والمرافق
جعلنا
وظهور
##وعوية
الحدقة
astra
تحتفظ
هرب
الاسلاك
المحرر
للاول
وحيدا
نهارا
سرف
المراقبين
نصه
اخاه
الموالية
بطارية
سببه
مساءا
خشبة
ظالم
##ذرا
النخل
الطرايق
زوجك
مظاهرات
السيناريو
ياقوت
بالاز
الاناضول
تجعلك
والصحابة
##تمالات
القولون
##cription
ترات
ادلى
رفيعة
عنب
اجراها
تختص
واذكر
الاعلاميين
الفقيرة
البوليساريو
الانجاب
العنق
##علها
الفاطميات
##ابى
##صرخ
بينت
يعارض
الناظر
450
غالي
انيقة
بعينها
السهولة
استجاب
##كهة
##سكريين
وتصبح
mark
المسافةطالع
وثمانين
ظلال
الاستهلا
لكنك
##iks
فالان
##ويرة
تخاف
والمعروف
للتنظيم
وطبعا
فروة
قطعت
للخبر
الهيستامين
cnn
رتبة
did
اسكت
المصطلح
ينسى
شنط
امسية
تحدب
شكاوى
لامن
نعلن
الشد
##ike
يتاثر
النقابي
ham
يوت
برجك
رعدية
التعيين
الغفور
انتقادات
صمود
العيادة
معجزة
##اسبي
ويحتاج
عجمان
اجبار
المجاهد
واخذت
القمع
refr
تواض
##ونسكو
المصلين
##ضرم
وانشطة
وللاسف
بسلام
نتم
##لطة
الدواجن
وعود
نادرا
##ادلفيا
##جرت
##وقه
##زمين
الشاط
تلميذ
sou
التذاكر
لجراحات
الرافضة
موديعين
نطيطات
الذنب
المقبولين
جفون
احضر
والحقوق
انتشارا
الديكورات
زبدة
لتك
المحترف
وجوههم
حاشية
وترتيب
وهيية
والفي
تشويه
مادي
للدي
تزوير
مـنـتـديـات
سيريلانكا
فربما
اشته
موسيقي
موقفا
مرخصة
الملحق
##شهاد
الطرا
التعطيل
نظرنا
والاخرى
ومنتجات
نوى
انتر
##acy
مسبقة
##ـاب
اصبحوا
وياخذ
بمنت
فواز
##ريقه
اخترت
باسناد
كويتية
الحواجز
غامضة
كريس
##مى
وتدخل
يحكي
حدقة
مفوضية
اصبحنا
##ظاهرون
والبحرين
البروفيسور
الصب
الهيد
التقسيم
وصن
##سها
##راوات
استحقاق
يسعون
واتحاد
gh
tool
جـ
محق
الرازق
وتشكل
التعاملات
الاستحقاق
بالقطاع
والكويت
يشرح
حواف
##رابه
تقنيين
ينهي
والصيد
والاجراءات
دوبي
الاسطورة
مارشال
والتقنيات
غفور
مطير
اذكار
المهجرين
والامير
متفرقات
king
##رويت
##اضير
اليكس
##تيان
بوينت
ومحافظ
السويتش
والسيرة
وتشكيل
بيون
يحارب
ينتقد
مناظر
تروي
حميم
ودار
##ities
يوصف
تزوجت
للنقاش
زلت
##فاخ
النايبة
عبدك
الامرين
ومرة
##وبال
وبث
تقاطع
كنعان
rm
القافلة
اختتام
موزمبيق
ووضعها
واصدق
المستم
فذكره
##يرنج
بنتايج
البولي
افرايم
بهن
سره
صبح
الراقي
بالشركة
العيس
الدواسر
يعطيك
لالت
ادارتها
##ذيات
واللام
بالاغ
الاداريه
والهييات
العطر
التجريبية
وجماعة
والعص
والنفسية
تسلل
اراه
رياح
الاجنبيه
والولادة
مسن
بلديات
##الفه
##ید
بينك
مقنع
فنزل
الماركسية
الفلكية
targ
السوم
يقولوا
##ift
بمز
دكتوراه
مقديشو
للخارج
v1
القير
الناق
##اهده
لديهن
الشجاعة
سيبقى
المبدعين
والقول
البلاط
وعص
تنفع
اغن
description
والالغاز
الحصص
الغرايب
ومقاطع
##راجه
السارية
بنج
تصحو
صحفيا
يغني
convent
نشرتها
قابوس
رصيده
بمظهر
v3
صفا
الناقد
##راهم
شهور6
اخريات
والتطبيق
سمعته
سانا
صمم
وقطاع
الرزاز
المواطنون
راوا
الكاتبوقت
للمسرح
ممدوح
سو
ومث
ويعيش
حافة
##ki
المكلفة
##ترك
العروبة
المسنين
روحية
برسول
song
غصن
امينة
واسمه
عريضة
##وذا
للموسسات
##كورات
##واير
جنسيا
##زلاق
الحبل
الجبير
يقدمون
##زله
ومجالس
##ورهم
الزخ
الوسوم
الصالحات
##ories
187
وتدعو
دلايل
##ولاية
البهن
واظهرت
##ـــه
لشبكة
معدنية
والسلوك
رغبته
والقواعد
شرقية
والقتل
##ياك
لوق
نواف
والرب
متاكد
والاعضاء
نبا
##التي
##go
##تمامات
للمق
انعقد
138
الكارت
بشي
تعملون
الشهرة
الالعــاب
اقصد
are
jun
للمومنين
بقليل
وجهان
السيولة
دورهام
سكراب
وعنده
paus
وقطر
سرح
الاسدي
والشكاوى
والغرايب
##ـوم
المامون
والتعب
نتيف
النسبية
##لافا
الامامة
بتوزيع
معلن
اعطيت
تقليدي
ادركت
##ontent2
جيران
تحققت
عمد
للمعلومات
##زيدية
تغيرات
سرايا
outp
##اى
المشاهدين
وتقنيات
المودية
لانحراف
معاينة
ريمون
شكره
بالترتيب
سمر
الفقيد
الهداف
كيو
##tions
ثلاجة
زاك
لرب
النجفي
اوردة
اجنحة
بالنيابة
عمدا
target
next
الروايي
يستضيف
واعطاء
الملل
اساسها
الناشطة
يستجيب
تزامنا
هوامير
المنهاج
المستندات
##uto
باتباع
لاحياء
الراتب
اخترنا
احتفلت
ومهارات
هروب
##زايم
لقراءة
ورلد
##لاعبين
الامبراطور
ultras
هندسية
بالاخت
pv
سايت
النواحي
تعط
المتداول
المصد
الهاشم
مناز
للنهوض
الصناديق
##تصاب
داخله
النسوية
##endo
bod
wr
##عور
وراق
##وروا
الاســـ
ترسيخ
الايس
##كلاء
البيضا
الانتقام
الاشرف
##نط
راسك
الهدنة
الاعيان
ونامل
فلسطينيا
international
##تجميل
1972
المتاجرة
تنمو
بقضايا
##رامات
البنزين
يحتاجون
جيج
سندات
بالصح
كلفة
والاسلامي
الاعتدال
مستحقة
العالقة
اللاسلكي
الخوارج
##غانية
بمدرسة
مكناس
يحترم
شقيقه
احتمالات
الفروانيه
شحات
##يرجى
المنار
التجزية
وسر
bit
طياته
لاجهزه
ويشارك
بذات
موضحة
حبيش
الشرفاء
والاشخاص
ضلال
بصفته
اثينا
##ican
هرت
يتسم
186
لفترات
during
سريلانكا
لوايح
يصرف
التمديد
##كارك
##ستك
ومقالات
الضيقة
المغلقة
بالسنة
اغلقت
##ساير
بتخصيص
##opia
الاوروغواي
##غالات
التسم
بالاث
ونه
retina
##oad
التفاول
بطوطة
mal
الايب
فيكت
اسرى
المعارضين
بالذكرى
هرمون
اعضايه
فيينا
وفوايد
الابرار
بانف
واستخدم
##نفذ
ابوعمه
##خخ
ادانة
المرجو
##ياتنا
والتعرف
الاحرام
سمعه
##53
المرم
الترج
الفيكو
المحركات
اقتحم
النصية
الانتقالي
هوايات
بيوتهم
جغرافيا
بالولايات
فلذلك
خافضة
ويتميز
علاقتها
الحصاحيصا
لتوظيف
تسفي
نتشرف
خلطة
الصباحية
اساء
وحز
program
استطعت
مفقود
والتغيير
البيانية
##سلو
##رجوا
الرقي
##ويي
الجرثومي
benefits
مامون
خاد
الاسبوعي
تعريب
##شهر3
باليد
متجدد
##urs
الاعلانية
المورد
وسعد
يتقبل
##يوماسبوع
شهورسنة
ein
الدعاة
##باو
ادار
مستودع
بارض
ارن
يروج
شخصيته
اهـ
اعمدة
##ــك
##وصيات
منشور
ويهدف
ايهاب
بمقتل
الترابي
الكسولة
١٠
التعصب
والتحكم
المنارة
المشير
163
##تحول
بالحضور
مداخلة
pausec
حاجته
لمنتدى
ترفيهي
pausecontent2
الثلاجة
##دمام
فانظر
يدشن
والسعادة
باتخاذ
تهديدا
خالي
فيكو
المستنصرية
بلم
##ماط
للراي
لتخفيف
كيميايية
شماغ
##وسين
اخذها
للمنظمة
المقررات
مفاجية
##alas
بالحسد
الجبلية
الانكسارية
اتاتورك
##كركم
وبداية
ومنظمة
المتحدةب
الرشاقة
لتمويل
academy
الاخوية
المعص
##ria
##olink
تركيبات
رييسيا
تطورا
نفسا
##لطيف
نشعر
الفرقان
علاقته
ولايته
واسواق
المخروطي
نوبل
بيعها
المانيان
##يدي
المهر
سبقت
##ريهة
شيكاغو
فرنساب
قماش
علنا
وخالد
يبني
واتقوا
مراهم
arion
للتنظيف
استرالياه
cure
باري
التوضيح
بدرجات
رجعت
المتنقلة
وسلامه
جرس
الاخوات
وتسهيل
الطالبة
تره
فايد
ايرلند
ارهابيي
مكثف
الوضوح
برقية
اياد
##لهي
اندونيسيام
الرشيدة
كاي
##كني
بالطاقة
رايتس
موجات
عظمة
الــم
الحاجات
الايتام
##hth
وجودة
ستح
##عتر
احتياج
اليابانا
الفقري
المقدسي
نهايية
لعبت
cheap
المتحدةس
جامعه
فاعت
تشهدها
بقى
التكييف
الذرية
مهامه
الشايعات
##واته
جنين
hbf
المتحدةل
تشن
احترافي
echolink
البين
الامامي
تساولات
الحبس
القطان
تعاليم
لبني
##لاينا
فوقه
وروية
ويدل
نسيج
حاضرا
conventional
المتوسطية
##mm
المسوولون
##ـنـتـدى
نايم
##جيه
المتحدةسان
المتحدةجرين
ويستمر
مومنة
رباح
اللة
المتحدةسي
المتحدةكول
ملتقيات
المتحدةنيويورك
المتحدةفورت
تزيين
مايدة
الاصحاب
دخلوا
انجليس
out
الصاب
صبي
الجيوش
استرالياك
بدعوى
مكلف
منتخبات
مقاوم
بعلبك
وتوقع
1966
تخلو
باهتمام
وقنوات
مرزوق
مفتوحا
drivers
حفتر
خاطي
يجعلنا
توفيت
##atient
خبرا
##كرك
انطاليا
ستحصل
مباركة
المسك
فنجان
بالقتل
والشبكية
وسلوك
التران
##يدونيا
##قيقه
الصفحه
بشرح
##صيون
##ذيه
رقمية
والطرايف
tran
تان
##اتى
بالفت
ويطلق
مريضا
##ze
بنق
بسحب
650
العادلة
##ql
##ابوا
الذرة
ستوكر
اثرا
النباتية
الانفلات
الطواف
اجساد
تشيلي
rel
ماجة
الموازي
مخزن
شاة
السياسى
كثيرين
فصلى
كورية
اناء
اجانب
مولفات
العموميةال
الخدري
رايي
##nc
مستحقات
نقرا
والمشاريع
اللاه
والتفكير
ليها
والنز
النسبي
اقدر
سنتيم
##ذرت
فيرو
واكل
بنزين
ايسلندا
rated
اوقع
المهبل
برض
هده
مقاس
وبالطبع
##intendo
fi
توفرها
الخبيثة
##وقيف
لحام
الفضيل
الجند
وتارة
البطاركة
صحتها
القعدة
ماتركس
القرطبي
المتصفحات
رسومات
game
والامراض
##كرات
والتض
وابنه
تمتاز
نوال
الحقول
حددت
##وراس
اختلفوا
هيك
وليبيا
لاعت
h4
الفاح
الموضوعة
##po
الحا
مسنجر
والمحلية
8000
العــــ
وانزل
##كاو
##gh
الصيادين
ارتدت
وتبقى
اخواننا
دوبيزل
فكره
الدير
تصان
المستاجر
انسدال
فوالله
##ـص
الاستشارية
البطاطس
شبيب
صداقة
##جود
الواع
##رضين
يحلم
الوافدين
اعود
قداسة
شيطان
##رشد
حملته
معاهد
المحاورة
1200
يحتفظ
حكمت
الكونية
جوده
وتريد
وسايط
رجاله
والمنوعات
الالهة
ويفضل
للتط
دراية
قضايي
اوفر
منذر
نسخت
المدعومة
دعمه
##اوه
المنصرم
تتعرف
التحديد
المدرس
بالشرقيه
قصارى
##وايه
المتكرر
144
رمى
cai
##no
##صيلي
الاصابع
مردخاي
الراشدين
البهنسي
اجتياز
تشجع
مصيبة
للكهرباء
والاختلاف
ظفرة
وحث
بالنظارات
حاولوا
##النظر
المبيع
##عدم
الزرع
ونسب
احتكار
بصري
اصلها
##ih
مهندسين
استطع
حراجة
تاهل
##vo
قاعات
البسط
معانا
عايلي
الخدمه
عدالة
فكذلك
##داب
البره
##وضاء
بانني
##وهام
قارة
تخف
يكف
##uty
الارشادات
استقبلت
vue
##طدم
##ـهـ
بالشان
فاعلم
##uds
الروماتزمية
العريق
الصراصير
##سنغافورة
anis
والانظمة
تغني
yahoo
قفل
والموت
invol
والهواتف
نيمار
القاطنين
النادر
الدرب
وتجاوز
اصبع
عتصيون
961
عابدين
المحافل
الساحر
حكومته
##فسور
سعداء
و1
احراز
والحسين
تبيع
نالت
الفورية
اعيش
ومسرح
##لميع
الريان
تتفاعل
كيرفز
##hthalm
##تت
##وعظة
تعيينه
دستورية
##سنا
والاماكن
صورمشبات
اللياقة
##خذة
مستحيل
المستوردة
تغي
##ابور
وعودة
المليشيات
والتطرف
ultrasound
املاك
##روفات
iso
##كوس
الابرز
وعزل
التنزيل
ophthalm
روابي
خلت
الاستن
ويحب
113
تغلق
بتعليم
حريم
1080
بكلام
الميتة
والخارجية
##هين
جولز
عقلية
surgical
الضحاك
زغللة
han
كوني
بالدور
الرجلين
والحيوانات
اكراه
ندرك
دينارا
والضغط
##نيد
##ليكون
بالصد
##ــو
اوص
##وجبه
الاحترافية
##ــتــدى
##ighted
الالة
والتسجيل
##ازيا
##راكب
ذكري
للفل
السعرات
المجهر
العوالي
ويط
شاركوا
بديع
نيوشن
كبد
التصديق
##قصات
الوجوب
للترومان
كثرت
glauc
مظلة
يستخدمها
المستهلكين
لرس
##اصات
ستبقى
والنح
يوفرها
مايفقد
دمر
المشرع
الضباب
المريي
هاري
اللول
مسافر
بالنقر
procedures
اعطاه
مشاوير
pigment
والفواكه
بقدرة
ههههههههه
7020
لتعديل
برلماني
happens
وشرق
والوزير
والتقاليد
دمعية
تقليد
الاكتفاء
بجوال
تطلعات
involved
fars
pack
##الاست
اسفي
ابوابها
واليات
البطي
##وبون
كتراكت
طوايف
##شوا
المرب
عينيك
##زور
الواض
تقريرها
الاصمعي
ram
الجافة
جلوكوما
البارزة
رفح
presby
glaucoma
##الخ
منشات
المتصلة
المعتصم
##شوفة
ملونة
لابت
واكثرها
دمنهور
وبرنامج
وسهل
surgeries
حكمها
ophthalmology
##aa
العاد
##وسكند
جنايات
ترحي
تنافسية
طلاء
تشهده
##المانيا
##صقات
بلقاء
تدابير
الاغاثة
اختياره
fixing
mb
mil
مدراء
ملايم
عقاب
المحتوي
التليفون
security
##كورا
يخاطب
تصميمها
اياما
الموسيقار
لقمة
وامراض
مخروطيه
لايسترد
رهط
refractive
cheapest
الانتقادات
والتعريف
cornea
الهايلة
##لونزا
التدميع
pigmentosa
##ولندا
لليزك
اللتين
البومات
احر
مصرى
مفرق
##قصاء
تكساس
شراب
##الليز
الجيم
لمكان
صفحتها
اختصاصيين
افاستين
retinitis
الحمر
قدمتها
مرتفعات
جونن
خلص
سرور
والتنفيذ
نقدمها
حلاوة
المدفوعة
كرتيزون
outpatient
##ightedness
presbyopia
لابورية
##القرنية
الكسوله
pkp
وثقافية
كواليس
والكرامة
pterygion
##الليزك
العينتجميل
العينالنظر
العينلونزا
النظريرجى
lasar
ليسونتس
catrex
عيونالليز
الاصنام
##كالليزر
القنواتالعين
بالعينs
لينكنج
المسووليةية
##okonia
اصابةصال
motia
lazic
laziks
التدخينالابصار
ضعيفةالقرنية
النباتاتيعية
lkp
جحوض
ضمورالابصار
افاستن
ultralas
pterygium
فيمتوسكند
الفلترuv
stockers
ابوعمهيب
anisokonia
farsightedness
عيونالليزكالليزر
ultralasik
anisokoniaالليزك
ساله
لوال
عادلة
وكس
##mad
المواني
اكتمال
الالومنيوم
المظلات
اضخم
يحبه
والنصوص
المستحقة
المخطوطة
مصادرة
مويد
افتتحت
دماغ
التايجر
##ــــت
بمه
بوركينا
حارثة
ومنح
والنظر
بسجن
العتيبي
يرحمه
ku
سعيا
enigma
##رجت
تلخيص
واقعا
مساهمات
انخفضت
##حالة
يعاد
ممتع
المحاضرة
وصلاة
ميادين
235
تصديق
##ating
لكثرة
قيامه
سفرة
مجلد
يمسك
الاصح
مسلحين
واللا
وعمليات
house
##نن
رومانسي
##طنه
رسيفر
ميشيل
الغلام
البياض
الراب
الحقوقية
متاخر
اعطا
يتصدر
ردت
والمسرح
الاستعمالات
الفاسدة
لهدف
العامية
الوار
تحترم
copy
##عدوا
##خراج
الفرايض
بالتوفيق
اجتماعه
ltd
فند
كالف
الديانة
الاصليين
##ديقه
##رافكس
يستعرض
نيابية
كتيبة
متناول
بالقواعد
والصف
011
##ــــــــــــــــــــــــــــــــ
بالعراق
واجمل
قبلت
مقرا
وسياسات
مباحثات
وتسبب
##رارها
المناخية
والقبول
ساك
يثق
##wg
النمر
##هدايا
وثالث
لادن
الفيد
مراقب
التيجاني
##ازمات
يرزق
الحوامل
العباسية
saudi
ناتج
ارهابيين
زنج
سنية
والدر
تلزم
وايمان
فريجيدير
##ws
##یم
الاستيلاء
بتشغيل
لتمكين
##بليغ
المذكرات
حقوقية
جريح
وكتبت
التلاعب
ويسمى
لصيانة
الحسيمة
المطبوعة
مدنيا
انقضاء
##داعات
##جوء
اشراك
الدرداء
جنازة
ميا
التايل
الافاق
بصمات
ابنايهم
وجامعة
##انتوم
lib
الخفيف
وسيت
وعثمان
##2013
joker
حيفر
المترتبة
اعاقة
الشعري
المفاجاة
##برمج
الايلتس
باليرمو
البيرو
واثبت
وتخرج
المزم
##منيوم
تكفا
##track
لاصحابها
##یل
مطا
واتفق
##ثقيف
والترددات
احجام
الاكواد
قـــس
نوري
الثلوج
مطبعة
تنصيب
لعشاق
فقهاء
خيانة
نوت
واسط
الطاه
استعمالها
اسوار
ملايمة
الملونة
وكلها
ومشروع
التكليف
##led
hre
لقطع
لموظ
الاحتيال
mc
اعمى
للبرميل
جينا
نلت
والصنا
عطورات
يري
موظفين
التنافسية
ماديا
شرحه
عيادات
حاسمة
شاف
ولع
عبدالق
اطلاقه
يلبس
للزوج
النامية
اللباس
معاك
وبعدين
جوردان
وراح
التاجر
اعادت
اليهما
للحق
غلي
الكوره
ونب
تدعي
مباني
الساحرة
قياسية
ظهورها
ومحت
الاستثناء
¤°
سوتشي
الانقلابية
يرف
متاخ
الخلط
للصحفيين
والفلاشات
den
##دجان
##ــان
اجنبى
##كسار
هيكلة
يريده
يلتفت
bus
قزح
والشبكات
الرسمى
فضايح
بالخروج
للخط
994
عاصي
##يييييييي
قبي
معقل
##بلين
والشم
يفنه
المعتزلة
مدفوعة
وجلس
##ريجا
الحراسة
تتد
شيحة
apk
تعذر
جمالك
المبين
رقابة
mer
##ستري
##كونا
تتواصل
##طلون
المانجا
محلة
املك
نتمكن
بالارض
وزعم
##ضيء
ركز
حبيبتي
شط
##ودات
اخوه
جيوب
اصلاحات
غلا
بالاك
ستد
منهاج
وحدثنا
تاف
ههنا
الشو
##يزو
الاخلاقي
يكونون
وجهي
atl
hiv
الذكريات
جهودها
والسيطرة
##باية
الفردي
للمساحة
للطالب
مسلح
عواقب
بمنا
القطعة
الفروض
وتوقف
يعلمه
الفحوصات
بلون
الفعالية
شين
قناع
##غادرة
اباه
كراسي
لعمليات
tit
اضاء
الكهنة
الهدي
فخذ
الموقعة
قدرا
فخورون
اكسبلور
##قاله
مايية
##حصر
ويوفر
بالمسيحية
نفسيا
فارغة
تقلل
##ips
القديسين
sil
بالبي
##كرز
يدير
العاطفي
برنامجا
##تكارات
##وءة
الليثي
##رقون
بتعيين
تفصل
##ضين
المختبرات
bah
السكة
وسعر
سابا
سواد
##xs
والتغطيات
بحثية
الزام
بكاء
المغامرة
##اعدات
##عكاس
والبرا
الحالى
الغدد
لينكس
قوقل
لنيل
##حلول
الحجوزات
alquds
نجوى
اوغندا
اعجبك
تهدية
والست
بالموضوع
##التهم
##سمه
بشارع
شفر
##شاك
تشغيلها
كافيا
ارتباطا
الكع
الايتم
جوف
للقلق
بفرض
جويل
اللى
اضواء
الفاروق
اشبي
للتحقق
الساحلي
بحزب
1506
برييس
##xt
طيبا
sup
العاصفة
ضيقة
تحاضير
سميث
للاقتصاد
##تحف
خيالية
سيعقد
نيتسان
نفق
النضر
##وزراء
##قطعة
سلمت
تضخم
بحوز
city
##فتاءات
الموهل
1974
صغر
واهمية
الناصري
الناجح
التلفزيوني
nintendo
ميليشيا
##cb
##حويلات
اجتماعيا
bre
fifa
كوخ
##اذا
تدوين
وبعده
المختصين
بتمويل
##الوني
للجهاز
ووتش
##ليمي
للبترول
واقتصادية
فوقع
##566
##داخلة
اجرت
ميراث
مافي
الفه
خشبية
الفندقية
مصرفية
هامبورغ
غزو
disc
ابداء
النوا
الفيجا
ليعمل
bri
##رودي
##كاتف
للاستقلال
تحريرها
تلقايي
##لاطين
الـمـ
فبعث
الفطرة
اصفر
يخسر
تمرد
شيعة
والحريري
والفلك
##اندت
والبرم
##نتج
يبرز
ابنت
للمركز
التفجير
متخصصا
##هادي
الفيدرالية
كلاما
المستهدف
الابراهيم
والاحسان
زملايه
بحقه
وابا
حضره
##881
تنفيذا
الساعه
تصميمات
كيما
للمستقبل
نواجه
صحبة
تقترب
يتفقد
##هدة
##عتك
far
النقاد
عوضا
تروج
##غيث
والهيية
الدني
واثق
الجابر
صابر
الخادمة
بحرف
التمهيد
طالق
ومساعدة
متهمين
الاسس
الاوزاعي
ونع
تشتري
بحى
##غيره
اعلاميا
سيبويه
لوم
تتنا
بالقوانين
فقيه
##mi
واتخذ
شكلها
الفيروس
##رجوع
اتاحة
رمي
والدولي
لوقا
##يفيل
وموقف
متاع
اوفيس
##ظومة
فيليب
##ادرت
للانضمام
انجاح
##وطنة
بالحب
يمتنع
ای
##ضال
##والت
ايمانهم
اذهان
تعذيب
المتبعة
اتق
الحسكة
فنانين
ha
##su
المسايية
يخطط
##يبها
تقتضي
الذهن
والامم
##الامارات
##fer
##جله
البياني
الجلسات
tour
ريتشارد
##خلا
##العدد
منحت
ببني
بهدوء
خوسيه
يقودها
##iness
المصادقة
السلعة
اصدقايه
bra
##ـلام
##li
انشات
الوراء
انهار
وحذر
احتل
سيرته
وعمرو
sit
نتي
فالش
وروح
القمامة
زحمة
كوز
##ضاعف
وطي
وغدا
تعبيرا
ببطء
الطاقم
وسياتي
ودولة
شرطا
pand
اوجب
الصرح
اماما
والمهارات
نملك
وموسيقى
##ino
رمزا
معتصم
اجدد
يوليوز
مشرفة
اطفالنا
الميلاني
وانتهت
وبص
ليج
بالقضاء
النصيحة
بتاتا
والنار
المطارات
مبعوث
المتصل
الوصلات
ج1
##صاعد
##درالي
##راتها
ترم2
ابتسامة
##انيوم
الموسسي
يكبر
تالق
##يدى
لموضوع
المتر
يشتغل
استيقظ
مستقبلية
7000
ضي
##غالي
voice
##لاحة
##رقب
بالمولد
الانتح
##زمون
عينات
المقبلين
جانبي
المنافقون
انواعه
المغار
اعمالنا
وكثيرا
اللاسلكية
##نتهي
##era
الروا
افراغ
بلاط
داعية
مختصة
ويليام
جميعهم
اطعمة
##utsch
ارضي
وجعلها
عقارية
تليفون
ظاهره
الاخطار
الحاجب
العيب
##وكو
تحقيقها
##رميم
##وازية
واهتمام
التبرع
نورف
الواضحة
فقرا
##يزية
ولست
الاشبال
بقعة
##موخ
ايمانه
بايات
الانماء
##يتون
##ومتر
وبش
بومبيو
السواح
والتكنولوج
ونجح
مارون
startrack
لكونها
##fix
الرواة
ويودي
هيومن
فقير
معدودة
مطالبات
قـــســم
الكتيبة
تستند
الدوار
تمثال
##سنط
##alth
الاوروبيين
يمتاز
اليتيم
المعوقات
##تمردين
قولك
اباينو
امنت
خر
فتى
##صدار
الاصيلة
اهدافه
غوش
اكياس
قدرت
ورعاية
225
الاحصاييات
اوزباكستان
##يعه
الانط
امتنع
الاصدارات
بيا
ووافق
التحذير
لعنة
الشارح
الجاني
الدكالي
ماض
الرييسين
المخاطرة
اگ
##att
يسجد
سمية
المبالغة
ترويج
النقالة
##واو
126
تهاني
عيل
لبيان
للهواتف
وهمية
طفيفة
هاتفي
القاضى
اليونسكو
بالمرحلة
واساليب
وعندها
بالمنزل
المعصية
وتتضمن
والهدف
الانسب
اشترط
احل
العقاقير
وتعود
رواسي
الباي
عشرون
enter
العروسة
الطاقات
الحكوم
لاتمام
سبيله
صه
الحلي
الرعد
الضيق
##طيين
لديكم
وبالاخص
هديه
لليهود
المعقدة
عقاري
##طام
للكلمة
كارلوس
الثروات
1432
الحسني
يعيشها
##ثني
لهجوم
عبدي
باسوان
##ours
##عمار
فردا
التفريق
فقدم
وصيانه
وانهيار
تنم
التاسيس
التفاعلي
لــ
##ثاء
السمن
مهتم
فضيل
مراتب
طوني
الاظافر
بالته
كلفين
يخلف
واللجان
ميفو
oct
##نتدى
كبري
امون
المستوطنات
رفاق
##yc
فرحا
build
سويس
##قوبات
الاجمالية
واسر
المراسلة
ومدن
وسهولة
##aire
فدعا
خراسان
ii
##sw
للجمهورية
التدقيق
stream
بالدعاء
يقم
الروض
ثقات
انيس
السواد
تقسيط
بكير
للاحتفال
ترحيل
الغفار
الدفاعية
##الصوم
اجندة
النموذجية
وخدم
حسابي
سينت
تعلمت
وتساعد
والتدبير
سديه
تكثيف
##تدون
وسيم
ريو
##وصى
لوط
##طالعة
الرافدين
وتعم
المحكوم
يقابل
والاسم
باحكام
جسور
##wait
الصافي
تليق
لاوس
يفقه
##اعون
##برشلونة
لقواعد
للانترنت
مقبلات
لتاريخ
الضيف
مالاوي
فعلم
ضرايب
##vid
يحبط
بقصف
والصحيح
230
بمعرفة
الجنسيات
التكنولوجي
والتركيز
عشاء
التامل
عنصرا
ومايتين
الركوع
يشاركون
خاش
صان
الجبن
والمدير
الابقاء
التغليف
منتشرة
##ates
والاداء
صباغ
عيان
بنظر
واياكم
##ايلا
الطماطم
العنايه
باخبار
الاراضى
المسافرون
اجبر
رسيفرات
بادية
كارفور
والمجتمعات
بجمال
النخب
وانهاء
باخذ
يفسد
550
يليه
للعي
##ify
قو
##ــف
ينوي
ويلت
بقل
ضرو
فطلب
##800
للماء
الاموي
بصنع
قبلك
##ركوا
بوير
العــام
##وبها
##خدع
قبلي
زبد
##يلون
مجيد
نصير
نعمان
عفوا
rom
والموظفين
سيشل
لعالم
قذف
الاستراحة
اوسلو
##وانيس
مخدرات
السمعية
بروية
التبريد
يفعلون
شقراء
خواص
اللب
الصدور
ومراقبة
الصحابي
يخفي
معتدلة
##كيف
والستون
وفرنجية
اطلقتها
فيجاس
fortec
المكتبية
العجمي
نهي
##يلال
يستند
132
##احنة
##صالحات
##ـري
بمقد
تطورت
رقبة
##ield
##16080
الناقة
ضا
اللط
المسالك
وبينه
بوصفه
السيراميك
##300
ينتمون
الاتحادات
المقاوم
والموسوعات
المفقودة
وتقبل
اميل
وممن
الخنزير
والمجلس
اغنى
##وطا
الميوية
للي
بالبا
يصعد
مشتركا
والدينية
##16080881
جني
انساب
القاسية
يتدخل
بولاق
منشاة
بالفر
العامري
ابرام
يغت
بيشة
hp
التين
والدورات
240
##طاوى
واكس
الاستغلال
اقليمي
الكفايات
التورنت
طعمة
الاقراص
##صيبة
deutsch
تشارلز
شمر
الحبر
الخامات
وتجد
ولوج
ونجاح
المحمية
الاداريين
لتعريف
والوحدة
بدبي
حكى
الاقتراب
السجاير
مرع
نذر
المروري
القصه
سارع
الشبه
والعرض
مقررات
فطر
##oj
المستهدفة
ليقوم
العنزي
العمراني
الهادف
الی
للافراد
اختصارا
بغم
نتعلم
قانونيا
يبقي
كورن
ووضعت
اتوقع
##ساكن
الالمان
level
و7
التجهيزات
ماين
##يعا
اتحدث
اللوايح
امراء
##رخاء
2021
علمانية
توخذ
مرتب
حقك
##ograph
وسياسية
مستقر
##سنكي
##ريهات
الفلاحة
هيفاء
تعمد
##اريح
يرافق
الشاع
الشركه
##ذاق
المتطلبات
انتقاد
واستغلال
التطوعي
مرشد
ندى
والمواطنين
ويحيى
has
##سيات
##زهات
وتجميع
الخطير
002010
قايدا
باقية
hotel
الالبوم
المني
ركاب
عاطفيا
خارجة
h6
watch
فكم
فضة
تدعيم
فنيا
الاوكرانية
ومرييات
ستقام
بفرنسا
نجلاء
رتب
##يتامين
ينعكس
039
يدخلون
وتغذية
زوايا
##وافرة
الجوزي
انض
بالايمان
ماركات
التخفيضات
للزوار
يقبلون
تحي
سحاب
نبحث
##جيتال
الحادة
بساطة
واجراءات
اطلاقها
وتوسيع
##باشرة
الشريحة
الاسترخاء
##ليبين
المتقاعدين
الغموض
المنخفضة
اتذكر
بشهادة
##واميس
راجعون
جغرافية
يخطر
1437
لبيك
الصدمة
الموامرة
حذاء
والنقابية
وقود
بجازان
ظلما
التاصيل
##قلبات
لانهما
توقعت
بانتظام
المرغوب
xxx
قضاة
اعتذر
وليلة
افتتاحية
ماساة
تولد
##لاي
الجحيم
نشرات
حصين
رقاب
##داني
المشب
السكرت
عابد
عشوايية
البوست
وجهاز
موامرة
راسخة
اصدقايي
تلام
والذكر
##رابط
المتعامل
##اجع
مساعي
رمح
جمعها
ناشطون
خيرات
##play
غاندي
jer
##ثيان
اليوت
الهة
واسلوب
ولمدة
روايية
شوك
##اييد
والمملكة
وحافظ
الموجه
بييية
ليوناردو
طوله
لخط
big
لمهرجان
المنصات
الهازيدية
كلمه
لاثبات
##يعاد
لكشف
##فاقم
##عده
المخضرم
##ـط
##ny
الصوف
واعتبار
يقاتلون
##uz
##ko
لمحاولة
تبقي
عبدالقادر
##gon
##عمان
سانتوس
وبقيت
غرس
##بهاني
للقاري
الزن
وخفض
##قوبة
وزع
اضعف
بعمق
ذل
الفرز
الكاش
الخيانة
انتظام
وللح
مميزا
الوهابية
فيجي
بصير
يغسل
والرعاية
باربعة
تفريغ
نصري
حسنى
اتصالا
##يناه
##دمج
ادن
139
النبلاء
غيا
الاستلام
الاحتمال
دال
عرع
للتاكيد
اكثرهم
رسولا
الافتتاحية
والمولفات
بالسحر
عجينة
صابون
whatsapp
طوب
##افح
بقاعة
يشك
الميراث
شـ
المجرم
وخاص
مفصلة
ولدها
الليبرالية
##64
السرو
والتفسير
التمرد
المتبادل
مناسك
التذكير
المرع
وافراد
امتياز
نزهة
السلك
الغاب
ونريد
باشكال
ظاهرا
##وقود
ابايه
للمقاومة
##دنيا
عقدها
ضاحية
بمبادرة
الشعارات
مشروعة
باقات
الواجبات
لاض
منطقي
يرفضون
روجيه
ومرحبا
لتبادل
صرحت
معاملات
قبلكم
##دس
السهلة
قدامة
مصالحها
زحاليق
رصاص
مايل
مجالا
دق
الغارات
اخبارا
##82
الخالد
جنا
فيع
يجبر
وخواطر
##ray
الضعفاء
البراق
التسجيلات
والاشراف
شريكا
فارج
##سمبور
##كتيك
لانش
حرار
##سمير
وتغير
وباع
تباع
واداء
وعملية
##ship
التمرين
البخار
المسرحيات
فحمل
##636
وفوق
تطال
نقلة
مهلة
خدمه
بركاته
##بورا
منتظم
##ـــــم
الزينه
وتنز
عصرنا
##لاندو
الرية
الانتصارات
والجنوب
نشاطها
ويلز
2ع
صفي
الشدة
المستخدمون
##سرة
الجنايات
وارقام
بالاتحاد
hu
للطي
##عبان
سلمية
es
الانتربول
ارباب
ومستلزماتها
الاشرفية
هارتس
اندي
وبفضل
غرامة
°¤
وتسمى
الرخصة
المنظر
تنشط
وليام
السوريون
الكنوز
واثارة
غيابه
توه
phil
زغ
تعال
مقالا
توليه
##ابك
عنان
لتدريب
ورسم
غناء
لراحة
والحرب
القيس
لمواصلة
ومضى
المعادى
تستعرض
بالعكس
prof
للاعبين
طاقات
وتكوين
بره
الاتجار
البرتغالية
الحصة
لاحدى
##شروا
ولكنني
ودايما
التضحية
والبيع
##onic
خطرة
للاجهزه
توبة
الموفق
الخيرات
امتنا
الهوايات
##قرارات
وايطاليا
بظ
##ابله
للتوظيف
المتزايد
محفوض
ولديه
صوفيا
ليصلك
التصدير
وسيد
احاول
واقتراحات
المعتم
يكسب
صادقا
حجرة
اثنى
121
العبث
عصابات
الافغانية
##غاة
المحروقات
ماليا
شوقى
يرضي
بتجربة
للزي
وسف
##صوله
وخبر
لعبه
الاستعمارية
حور
سميرة
والمجتم
ورايت
صليت
##رث
للمشاريع
تضيع
الاستسلام
يحتج
##ـــــات
مهمته
البارز
##راييليات
الصديقة
##وسعة
##اكوم
الشيخين
اسمايهم
ندخل
عواطف
bbc
النفي
واضع
##بارية
باند
اختتمت
والدعاء
يخلص
انتماء
##كندا
باى
وقتنا
##تراكية
رالي
لدين
مناص
تعظيم
##والات
##ايمين
يعتبرون
كاذبة
##ندة
##face
عبدالحميد
pandora
##رفوا
كارني
ايديكم
جرحى
##يمحمد
سعيدا
ويسر
وطنهم
وكندا
حافلات
##هاق
حفظها
الترب
131
alh
طرفي
بالمواصفات
pes
ستف
مرافقة
##راعا
مزع
##فوذ
##ايمن
يشفع
يغلق
الكروم
بمقتضى
win
عنيف
الاسع
المنوره
htc
استعماله
##سيان
والتاكد
وطبيعة
والاحزاب
طوق
لمصالح
##ضحايا
التلقايي
##lic
اليوناني
hit
المنخفض
المستثمر
اقب
فسال
قيامة
لضبط
جزيي
الصادقة
كوكيز
ليونيل
بجنوب
مجرب
المده
للعناية
لطفي
كلفينيتور
جالس
الجليد
بنص
##خلل
واعتماد
للحقوق
المكرره
اقالة
غاي
فبد
النوافذ
الامتياز
تريدون
اقامتها
خاسر
##87
0111566
##ثث
التجهيز
بحفر
وقاص
المرضية
networ
ساري
##جته
تتدخل
والسياسات
بجدية
منعه
##اسيوم
استثنايي
الحور
ولجنة
بثمن
قرانا
mah
تكييفات
وتنا
##يانتها
friendliesu
لشرح
تحكي
الجامعه
بطريرك
المواليد
المتعاقد
cook
سخنين
لفر
ونقص
كلميم
ياتون
اتجاهات
mem
##حتة
لصحة
تاثيرها
الدوميني
##خخة
اجز
والعطاء
واختار
وتطورات
كنانة
يرمي
بالمنت
البرك
امتد
كلوب
بممارسة
والدتها
##لافيا
السندات
##طفة
عايلية
تخلق
موثر
الاختراق
كارول
فدان
البعير
لاية
##لكة
وعيد
تتالف
##سانا
ينتفع
مناش
التاج
تحريف
المزاج
كروية
##زلج
youtu
والحضارة
الخاضعة
عرعرة
المانية
علوي
##كلاند
الغردقة
مصاحف
ممكنا
لحملة
افتراضي
المرتفعات
الفولاذ
تاث
تقارب
فرز
عزت
فعلوا
الحسنات
فانتوم
والاختبارات
حراسة
الجيران
اللولو
الرياضيه
والرواية
تمل
التوك
المصممة
والحروب
فصلت
ادارته
يشجع
الهاء
##روقة
للترجمة
حبك
النهاي
بالاعت
لانتخابات
نكن
وصي
واستمرت
خريف
##ففة
##nik
##البوس
والبلديات
انستقرام
jac
الزيبرا
الالبان
##شيية
لفيلم
##تف
##اماس
والثروة
واجبا
ذكرهم
بشرتك
الخن
##اميكية
##raq
الاعتصام
وبينهم
برودكاست
ورقم
والتوجيه
بكليميم
ينتظرون
وانتهى
##هوله
المهاج
معهما
والتوظيف
1958
سترا
##خصصات
هجرية
الاطفاء
منة
اوريون
مرسل
##ذبحة
واختلاف
فقبل
بشهر
الثلاثية
عزام
الذهنية
وممثلي
والاحترام
كالد
##عاله
التاء
قداس
واولياء
للمواقع
##وديوم
النبيين
##the
وانط
وحكى
الرييسى
عبوة
وطالبة
##حاني
للعيش
بنشاط
اسقط
وعلومها
الكبر
بكلمات
الياسمين
والبنك
موال
والوقت
المكونة
الالبومات
اوصي
والاستمتاع
تهني
بداخلها
الطارية
والنثر
الكاظم
tel
القسام
وفا
ههههه
##tm
للارض
تنطبق
يستلزم
امسك
النسيان
التساولات
تظاهرة
قولي
اعاده
جنى
##جنوب
ابتزاز
war
عنقه
ومكت
المدافعين
xnxx
##يكي
واسا
##قيح
المحلى
والتميز
والاعتماد
تعقيدا
شوية
##غله
وتوزع
الاختلافات
تفرد
عرايس
ووال
تنموية
للفوتوشوب
واعظم
kb
الاستبداد
ريادة
راو
صلواتك
idol
عري
الجذور
السفيرة
التهنية
1952
المتميزين
##لازل
يمضي
ويمثل
قلبية
trans
##ـــــــة
corner
##ونين
للدم
احتراف
النفطي
ويمت
جنيهات
العزيزة
##تمس
بالتج
مبلغا
بالتحديد
النبا
مواطنا
اقتباس
اخبره
اتضح
اياك
ميونخ
شرفة
يوغ
للاض
يعشق
الهجاء
زاهر
##حاور
اللاعبون
المنظفات
تسلح
اجتمعت
ذروة
والطبع
الفلاحين
pay
سطر
تتق
ملكي
صرخة
العقم
الجنازة
تتعلم
حلق
يوحي
اضافت
glob
برحمتك
جذاب
لمسات
##ـــح
تفرق
ماجدة
يتط
والاكت
مزودة
المقصورة
وتعامل
##حاوي
المعدن
##2000
اليف
شرقا
القنواة
اليقظة
بالاسم
##وحى
بغزة
سوالا
طارية
ويعرض
وثايقية
زهور
شبر
شتاء
١١
ادوارد
بيرث
الشرقيه
ينتشر
##igh
والاربعين
اكره
وطلاب
اللذان
مايت
فعلها
ننظر
قوتها
الدن
امرك
ج2
فرجع
##زاد
وساطة
اديان
نيلي
الخفية
لتوجيه
ونرجو
بشرة
##نزاف
##مق
##دود
##ــى
معجنات
146
##شاري
متاخرة
عملايها
تركيبة
والابناء
حاملا
mult
##au
نورفولك
تلاحظ
طاي
الخوري
للهاتف
توجهت
السطحية
والبت
بندر
##جزاء
التدخلات
##امته
راسم
وباك
الخارجة
##عير
القطر
المستق
ونغ
حصاد
مناهضة
القرءان
نوافذ
حقبة
256
الاسمر
##شينو
##سنطينة
وحياة
الاصناف
arch
رقيقة
##علان
##وتات
##قطب
الافريق
للقسم
player
سكرتير
lab
سرك
لشيء
##انق
وتجهيز
##كاتبة
134
لغوية
##عوذ
ابتسام
الاوف
موهبة
الكباير
الضريبية
طريقك
للاسر
شنو
##رواتيا
badr
اﻻ
والتعليمية
وفعلا
التبغ
والثلاثين
##روسية
##سموعة
الصوفي
##يترويت
سهام
حزينة
الفاتورة
خامسا
مصممين
تظ
اوستن
##علين
المعجنات
بكشف
المطربة
املين
روكس
##غهام
اوجد
##واصلات
##افعال
موضعه
باغلاق
والفكرية
شابه
الاموات
المحول
بحسن
بولو
ويتوقع
الافتراضية
سايكو
زيم
اتا
والاعمار
ts
البلوغ
لسكان
يظلم
قبلهم
ليتمكن
spark
انقسام
كحد
##زويد
##نتان
الرصد
##ايرين
باتشات
##اغون
السكك
##غهاي
##وطان
للعرب
لسوريا
لتشمل
نهب
المحتويات
##جيك
##رسون
سيره
والامام
##ستانت
##ياسات
سلبيا
1954
الشيرازي
روض
القارات
تعطى
عندكم
المحاصيل
اعتذار
##iser
الركبة
##مرو
الماست
والخدمة
المشكل
كافضل
معتبرة
مردود
رقما
الشكوى
مينا
##شيل
الكامنة
##بيرغ
##ارجنتين
2017م
نشكر
راغب
التعاونية
الشفاه
ثرو
زبان
غط
واسباب
نفقات
##جرس
انقطع
ومسي
ولدى
المذكرة
المصابة
البلجيكي
sab
الثبات
##سبين
وامير
الفيض
ومواضيع
مصحو
وتخزين
paper
النيبال
##ـض
امك
بلت
تستمتع
شخصيتك
فاسد
وهران
مشرفي
ودقة
البدل
للموسسة
القرعة
بمج
واستد
الديانات
رقعة
السخنة
الحواسيب
اعضايها
ذكور
##دوري
##روكيما
##وجها
وشبه
1512
وابلغ
للوزارة
تكتمل
جاءه
المفرق
العبر
كورونا
السايقين
ظريف
هداف
انبوب
صرت
ورحلات
##cd
##وركا
بالتعامل
ملحمة
والنباتات
الصاروخية
هزم
والرك
##وعود
احتمالية
حيو
المسماة
كرافت
والجرحى
حو
اقرت
انتاجية
لبيوت
dsl
جاف
نخل
##احم
##اسد
استقلالية
اصابت
فاقبل
النشيد
كص
##هيو
##ياكل
المتت
بكلم
ضدها
وقيام
تسهل
msn
شوا
##ياغو
وبالله
حوامل
الانجي
تتوالى
فتع
وشاهد
المساءلة
الصعوبة
المتضررين
bur
كفى
##اخت
لجايزة
دعونا
بضبط
عشرية
العصابات
school
الغالبية
ترافق
المعجمة
كباب
##ذكرة
والاصل
لموقف
المنك
المعبر
بالصوت
كوف
def
ماكو
ونور
مشتريات
ads
الاجتماعيه
##برك
##ution
الكوراني
لعلوم
الهيمنة
##ابلسي
نفعل
بالسياسة
مظاهرة
##اااااااااااااااا
شبان
فاعور
الحضرمي
للمحكمة
فورية
##طاط
والعت
السماع
غداء
مستهل
والافطار
كعاد
##هادت
للمسلم
الرهيب
وحذف
الضحى
بلدك
##ضطر
الانخفاض
لمدير
##620636
##62063637
file
##ذوق
##ويست
وضد
ارادته
وتستطيع
##59
الجراثيم
للانتاج
تنازلات
##00201016080881
##ls
##ماسك
بعدين
درهما
تاسس
قرش
الاجه
##بتنا
وفك
##ــــــي
songs
##ثاله
الاستقالة
المنتظم
لحن
القبط
##بلات
المرتفع
الاممية
ادق
ينطوي
اللافت
الاستعدادات
الحلوى
سببها
حدودها
hivion
##فيكس
ببيان
وجديد
##قدمين
خلافه
وزين
فالنسيا
والقضايا
بايب
كورا
##رابا
ويكي
##غيرها
عبداللطيف
##تراكات
مسموح
رقيب
الشروع
الذيب
البيعة
التقنيه
الدراهم
لشركات
محتوي
شجاع
##سرين
معلمي
##وفوت
فاخت
دخولك
استحداث
ناع
للوقت
الفرسان
للاسماك
نحصل
عاشت
##امو
##ديز
الضربات
فالاول
##رانا
تفعله
والفضة
وايد
الاعب
تحطم
احاط
مصابا
الحياء
##iba
الحلفاء
##انيها
والحزن
حالها
اماراتي
العالى
بالشراكة
الكلم
عزيزتي
بالتعادل
بالسيارة
كانبرا
##يول
##قاوم
فسخ
الوجهات
فراق
الوهمية
##فتهم
الاتربة
اعدت
الهدية
مواقفه
ذوات
الفخر
متزايد
تقاتل
ولاء
تنقص
يناهز
زمزم
##ريو
لموتمر
تتكرر
بالتواصل
ميلا
والامثال
والطايف
##باريس
الاولويات
الترومان
ايجابا
اجه
نوه
الوتر
قدوة
ثانى
دعي
طاز
الفخ
الرت
المدربة
فحدث
هكت
يتلق
المحرمة
يخفف
تحدثنا
٢٠١٧
طير
المره
المتعارف
مغني
الملحة
الحضانة
وتطويرها
المقل
منتـدى
وقم
لاستمرار
تقلق
الزماني
مفروش
تانوي
##عدون
##لانية
المدخ
حفلا
مفروشة
تكثر
اهتمامه
اوه
##يانغ
واستن
حصرا
ضعيفا
فوزى
زميله
باراكليبس
الجرافيك
الخواص
تتهم
والانجليزية
رفضا
عاقل
للتشغيل
يكر
اراضى
والمذهبية
للدور
الباطنية
المحسنين
##كاح
##كتيل
والسعي
##اديل
الشا
الاثبات
عبدالسلام
لشروط
##ouz
مزاعم
فقرات
##ورته
يتكرر
بالمناسبة
وحدك
حساس
بامكانكم
##غتون
استغرب
المستعم
قسد
grand
ist
##برق
وتحتاج
موص
##خذه
تعثر
##زاوي
سماك
البراءة
والمصرف
وعلينا
قضيت
الجماهيري
تصويره
استوديوهات
##فلان
المتمثل
وبعيد
والامت
بانورام
fans
الكتاي
تجنيد
حالي
والوجه
بالحكم
##نيفرة
رفضها
##عدنا
##كمالا
حولنا
بسند
البديلة
وامل
عمولة
الاستيطان
بالنار
الانسولين
زمبابوي
ودخلت
عرسال
كابل
##ماوي
بنوع
وتيار
استقطاب
الهامش
متاكدا
##صبة
القات
القيد
البان
يونان
المسووليات
لتفادي
التوفل
واوراق
لموسم
##لالي
مضيفه
##خفف
الرافعي
يتمتعون
لمساعدتك
طموحات
hist
##يبا
##جس
الثغرات
وزارات
تاو
يهمنا
صريحا
يملا
موازين
نفحات
غيرت
بدانا
المخلفات
الحنين
يتعارض
ابيها
ورسايل
##بتة
موقفها
فارو
والرسل
موجها
##ورجيا
##سطة
##ذري
والطل
والتفاعل
ميتا
دغ
رء
الكره
رسولنا
الليبيين
اعرفه
العجايب
التقديرات
usd
##شوط
لازمة
والمواس
وفاع
الحبشة
خزان
فيلما
التذكاري
الاستحمام
189
بادي
للخدمة
بروم
##اثية
الاصبع
والزوار
بريق
واظهار
الوراق
تجذب
لعضوية
##واجهات
ويرفع
اللبنانيون
البطاوى
##ندار
ثعلبة
##يسرة
فتقول
سبونج
##ral
كتابته
للفيلم
##مممم
شذ
ميج
##راش
القنا
عملوا
تخسر
كالن
1431
الاحمدي
خياط
كاهل
المكاسب
ابتع
##وريش
النزوح
##روكسل
راقية
هوم
موي
يجلب
للما
تتصدر
الشايع
موكيت
##ulletin
ونقد
##che
##نابل
ينمو
للعنف
متساوية
ترافل
tal
الوجهة
##شفير
والشام
img
الكليبات
للاصلاح
ميكانيكي
دوف
##سيج
بعودة
الانفص
سالته
مقاتلي
المكسور
الشاهرودي
eas
بخص
للسيارة
فعلية
وتواصل
لمشاريع
معتز
جذابة
الالغام
انسب
جايب
الاصرار
الينابيع
##ستو
المختبر
jan
الفلفل
##حمية
تحته
نفخ
##تعلم
هوبكنز
والرحمة
البورك
ستريت
فنقول
اقراره
ولوازمها
الغيرة
##رحمن
نورث
عتق
للذهاب
تتعدى
لجوء
وتحاول
لابشر
الساحات
ولفتت
##net
للمط
لحالة
التخلف
وسوق
صوتها
فود
##شرد
ولدا
سلوى
موضوعا
db
##63
##اداة
باعتماد
##شقاق
مالم
الحشيش
يغضب
حملتها
##بش
واو
ايز
الصوره
قدمته
داليا
التهدية
يتعرضون
سلفا
الذراع
القدامى
ويعتمد
كلامك
فيكتوريا
رستم
غابات
الملقب
##افت
تنوي
بالحج
العجب
التوثيق
بنصف
##اقلم
المسكين
احيت
##ناهية
شمالية
والاربعة
وقتك
تكفل
##طارد
صارمة
نشاطا
فكرت
الاعمى
تكره
نارا
للايفون
الكعب
بشمال
تسليط
دوريات
##gy
الشوف
نظاما
السلاسل
الخيط
وساهم
المعظم
وقض
ورجع
ابيات
وصنع
##نهام
مرفوض
تجلس
##شادات
الموجودين
المبتديين
لتجارة
احتواء
يرتدي
تيل
جف
و200
الغربة
##فردات
بويرتو
##سترو
##يلها
##كرير
قبلنا
فهمى
الممتازة
باذنه
link
تعاطي
متصلة
##ara
وحوارات
جسمه
##بولي
##شاة
##باقة
متعم
مقولة
##ـــت
سمات
cas
لبرامج
وتعت
##وزيل
بالمصالحة
الشبلي
اعتبره
انتخابية
قناعة
##يروس
الطاعات
##يانات
مختلفين
بوليس
الثقفي
بالانضمام
يافع
##فيجن
وتفاصيل
زميلا
اسرتها
متاثرا
موسي
ومشت
اعطت
التاثيرات
hai
##book
##ودانت
الراحلة
##یات
ثمانين
البقعة
الفجوة
وورش
المستبصرين
اقف
للبادجي
مفروشات
زكى
نواة
واللاس
لمرض
وسال
##ــــر
##يثة
وطلبت
الصيغ
ووس
##ثافة
وجزر
122
2100
جامعي
بتسوانا
الممثلين
معينا
ومخت
ميغ
تعرفه
ومحاربة
وملابس
توصية
rh
ظله
بالاعدام
متقد
سيخ
الابادة
المحدود
##صرها
اگهي
وتواب
##كروا
تصنيفات
وتميز
لفضيلة
وعملت
خارجها
بخبر
فارسى
اصيبت
##امنية
جمالية
وانتقل
والاعلامية
وحينما
##ذرون
المجهود
##صروا
##قطيع
المرتقبة
القبلية
##جارات
الياهو
والتمييز
البتة
سرت
##فلس
وايام
فوقها
للمهندسين
التوليد
بمسجد
##board
ووثايق
العافية
اللمس
مسابح
##اقس
الضلال
الصقور
##درايية
اللوم
عجرم
واثبات
بوقت
والجميع
انيق
##لاش
المسارات
مخطوطات
jord
وكتابة
امداد
##ds
البراء
يستمع
تيرم
الشوكولاتة
شداد
نود
المنتهية
احصاء
وشم
فالص
للمعلمين
شتوتغارت
تناسبك
لوقت
بالقسم
الخميني
والرواتب
رويتها
السوفيتي
والاثارة
دخولها
science
نخرج
وتلا
اثرية
المتضررة
وقب
نجا
عوده
##mtv
engine
نقدا
ترشح
سعيها
قسمين
2013م
تعرضوا
والمساهمة
بلبنان
wall
##شاهدة
بسير
##اتهام
الغازات
المتوكل
للمرضى
فكلما
files
سارت
فيش
والديم
##ــــس
وحصري
احتياطي
منافذ
ليكونوا
للاحداث
بذن
مناح
التكم
وزم
##ena
والمجالس
##ini
حضوره
علقمة
kuwait
قراءات
اللاحقة
عمارات
##صفور
التركيبة
دهانات
المماثلة
لرجال
##ريبه
##روتين
والفقر
تارج
فسم
بلعب
لورانس
عدلان
دولته
يستحب
فهولاء
حرمان
للجزاير
العصاير
must
ابناينا
##سنت
الكبري
المقابلات
عــ
المتراكمة
بهية
واترك
الدوادمي
مشه
تصير
احرف
ومعناه
لاقتناء
##بنا
المريع
والرم
الصريح
مساندة
اصيل
الضربة
##شاركين
انفراد
بوصفها
مذكر
##ـش
المساندة
سيحصل
بقضاء
ووجدت
لقتل
##oz
وتوجد
ميسرة
عدوا
##تمادات
زاكورة
##وفيت
والسف
##متك
والتمسك
والاربعون
شاس
علاقاتها
منفعة
الانخراط
تبلي
##تكى
##جبين
الباراغواي
المبتكرة
مواطني
لاكتشاف
##ريعات
الحسد
يتطلع
احيا
##طيعة
البستان
الناقل
بالنادي
0114
المعدلة
اجلس
قرة
والنف
رحبت
بامت
الهذ
والتهديد
##ربيع
فلس
alt
الكفارة
للحو
##قلاني
اجيب
للحج
وكلام
والاسود
الفاسد
bac
صراط
تصلي
عبدالح
زمانه
واهلها
ناتجة
قرق
##52
وشعار
جهتها
هاتفيا
واجبة
فايض
ثمنها
وبطاقات
حسون
الغيبة
اطالة
الستين
تيوب
وفعل
ودخول
بالسلاح
ظه
فوضع
الكامات
الخنازير
ابنتي
تشتهر
الافصاح
للقضية
##كرمه
والجل
والمرت
كازينو
عاجلا
leb
والشعور
شيلات
##lim
امرين
المنفعة
يحزن
وافني
المعيار
وهدفها
##سبير
##وكمة
بمال
الجزية
##ja
للاخر
بلاستيك
والايبود
الباشا
الاحتمالات
مارتين
snap
##ريين
ارسلنا
خدع
عبدالمحسن
تكسير
لمرة
سيجعل
للتقدم
فاوليك
وصالح
الكهر
##جلت
اسبان
استمارة
ذها
التعددية
والتوجه
وبامكان
عملاقة
sput
بغيره
global
##همت
الكفاءات
الاشقاء
صفية
جريية
بالضرب
فينبغي
وصالون
##زوي
ونط
الضوابط
وشرب
لعمر
والمرح
تلول
mt
الايك
الطموح
والمصالح
المنطلق
##دتنا
المساهمين
الولايية
sputnik
##كرتا
بمكتب
خداع
تجدر
واشهر
ايلان
للابداع
السليمانية
خبيرة
الكروت
المتكلم
والامل
هوى
الشيلي
##ناقشات
turk
مضر
##ومها
ستع
الجنون
تفويض
بايدي
للبشرة
maroc
هليوتك
طعاما
##day
نسيم
المركزى
تكتشف
بمجال
المعقول
وحكومة
يضعف
لوحد
سدد
##41
والمقصود
للمسابقات
للمساهمة
احتياط
ثغرة
دارت
روني
يتجزا
بتوقيع
المفردات
مخد
التظاهرات
ومواجهة
وانف
المعلق
عقلي
مغلق
اثارها
##سلي
مستوصف
ينقطع
سمى
وذاك
يجه
وسين
محذوف
##حقاقات
لسوق
وديكور
نفوسهم
san
التجاوز
الاحتراف
##تدال
المفاجي
مولمة
بداخله
استار
والمناهج
وعظم
الابنية
واقوى
الموال
##اريت
المشج
والدكت
مخالفا
الربحية
حفرة
والمكياج
ففعل
رخيص
##ايجه
الشن
##ذاذ
##رانه
فالامر
##شينغ
ايتها
زيمبابوي
بريطاني
تفتتح
اندر
للحي
istar
الزبيدي
مجيء
انشيت
languages
هانوفر
البوركيني
وقاد
المساهمات
جرعة
دية
يوميات
وصلات
leg
##داوة
بدول
كفرد
##كسات
وجهين
##واكشوط
وبشر
##وليسترول
الزجاجية
لبلدية
للكون
##باهه
عشت
##wrence
##كنات
##قتان
الطبى
الناقورة
واللاسلكية
صدم
##mon
الشواطي
اخى
للمغرب
الحارثي
tags
وخمسماية
لونها
##فوف
الشغب
ونيف
والابتكار
وقلوب
لملفات
وكلاهما
##ric
اتينا
تكمل
وبدء
ودعمه
educ
العطية
اثني
البترولية
fcb
نواحي
البكت
وعقب
مجن
الموزمبيق
##56
##زويلا
الالمنيوم
وينصح
##شغل
##ــدي
التقريب
البشرى
750
والتقارير
orig
واذن
##المون
والجواب
ميكايل
ثقل
الكري
بعضكم
الحقبة
الكشفية
بالادارة
الكرملين
تبعث
توزع
##orr
##101
##ظري
##اكوا
التحسين
ويدعم
قرانية
اعتقاله
كوردستان
الملاحظة
سيادته
ملب
##ارعه
يعجز
ترتب
سواحل
تودى
محال
الفلسفية
##وبن
##فيون
بمراكش
القصيد
زلنا
condor
دني
لتغ
موضوعية
يمنحك
##ابيض
حساسة
جالسا
صالات
للبدء
##عادل
روبن
##كاكاف
يندرج
لند
##my
المارة
واير
الطبعات
بعكس
كانتا
##ـــــــــــة
المنوعات
##رده
ابجديا
يبرم
##موس
للاغراض
الاكسجين
بصره
فوض
##lin
الثمار
عايز
معاقبة
واعلى
الاغنياء
سيطرت
صياد
##اهب
بسوق
رحمهم
فاتى
##جوي
لتجاوز
ادفع
المستشارة
اتوا
##ـــج
الاعجاب
التنس
واصلت
ااست
تضحيات
الزوايا
المستقب
اهميتها
يحمله
حبيبة
خيري
##02
ومثال
ستشهد
بالانسان
technosat
قراءته
بنسب
بجماعة
ارتد
حاسبكو
هاهنا
اكاديم
##رونا
عجوز
الرقابية
يكتسب
تنظمها
##حلف
الباقات
المدبل
والاخير
الدومينيكان
ويتضمن
للفنانة
بالمقابل
الاستهلاكية
صادرة
##ظيما
معلق
احتلت
شبيهة
اجتماعها
مضمونة
rot
سطيف
##230
امله
التساول
غزال
يسالون
ومعها
راسا
الضويية
درد
عريق
##سلا
الاشعار
امتع
تشطيبات
فيقولون
والتحليلات
machine
جاذبية
##جدي
للشي
وشملت
عقدا
كارتون
##الاردن
الدخ
وفرق
برنامجها
بزيت
##بهم
رامز
اوح
##منغهام
لحياة
والمجلات
##قترح
يجي
##شيستر
سماعات
لنفسها
##uction
اتفقت
esl
بالفشل
الفليبين
service
الاختراع
ميامي
فيزا
تمث
ولقاءات
تشابه
وكفر
يقوموا
القبي
بوردو
view
واخبرنا
الواسط
بالشام
هاز
ولفظ
يحن
الاريون
كلامهم
فراى
الفاصل
الروساء
والكشف
بمصالح
منافس
الاحتفالية
مومنين
وحالة
بالدوري
صلوا
وسمارت
fat
امرات
المشركون
##رحاب
الالى
تخوض
الخاصية
##كافو
بصدق
فارت
المعتادة
لعلهم
بزم
صخرة
فوات
فيغ
الصابون
خلفها
هيبة
card
المعلمة
لامريكا
المخلوق
بانواعه
المونتاج
انبي
والمعايير
##999
باجمل
الواردات
##ذبه
دمه
وتصحيح
والوان
للمجموعة
باحسان
تجربته
business
الخراب
لتتعرف
اقارب
فيهن
يحلف
والعامة
للاعلانات
محرمة
ويذهب
احتفظ
المنسق
الباح
##سطو
##وصية
تستدعي
القسمة
ملخصات
مبه
##ايو
صلح
تكتل
ســ
##84
##ايبه
##يتكم
ومساهم
والهندسة
محبوب
سترة
واسماء
لطرح
المحافظين
اللفظية
ريض
1955
الشفاعة
وواصل
##gen
##ليبات
مجارى
وبالتالى
ويشكل
انجليزية2018
##فعا
##ثون
##املف
##ونسي
الرضيع
للمتر
الافادة
وريف
العالمى
المتحدةروت
##لنج
تكريس
والقطاع
##وزين
ولاة
اطياف
مترجمفيلم
معتقل
الملام
مسكين
ويريد
بلدهم
فراش
اقره
اخذوا
الباهاماس
السكون
سيقام
##بطين
وامراة
الاغلب
واقف
والباقي
استرداد
المساعي
وحصلت
المعلمات
##صالحين
القفز
وحينيذ
##بحيرة
وخطوط
كلاسيك
زالوا
##خرفة
والمقترحات
ونقول
يحرك
انظروا
يشتبه
وضوء
##لاوس
دعوية
التمكين
الكلاسيكي
الموك
والساب
##اءت
بنعم
##الياب
لدوري
مفيدا
نحاس
##ولينك
افكاره
sin
ﺍﻟ
يجسد
ديالى
عبدالملك
بالقصيم
وادخال
شربل
##waj
السداد
وتخفيف
الانفتاح
امواج
بقصر
شعبها
بالاساس
تصريحاته
##قابلات
وطالبت
شغالات
##لدورف
صحت
##موا
##غارية
##ايحين
الشاغرة
##ster
اتباعها
التبرعات
البوب
منتداك
بكفاءة
الرووس
يحتفلون
ونعت
مجنون
##ـــع
وعملوا
يفضلون
gall
mms
بارتكاب
عاملة
مايوركا
مولاه
ينشا
يرصد
بكميات
اطلس
fcbarab
##to
الدافي
الفرار
نصح
عداء
173
لسد
يكلم
الوسطي
##تميديا
التجمعات
البولية
##المه
##ندت
##رانيت
نووية
ماني
الملايمة
والاسيلة
والرياضيين
gig
طاري
##ضارة
##خاري
الفاء
بشبكة
بالتس
حمى
قياد
لتجديد
للفترة
استرونج
##وطو
##row
4000
##قاص
الجثة
الداعي
##رفون
ايباد
واخرين
2015م
alb
الرايحة
##لاءم
لتخزين
شورى
مكرر
##جسد
اللين
للدورة
وتتبع
maths
الاستغفار
جثث
##mail
للدعوة
لحقت
نشاطه
فوجي
مرقم
واستقبل
هدد
تعبيره
الوديعة
var
العادى
وتولى
هيومان
##غموض
هايبر
fs
والمحت
لجا
برجاء
النظريات
جمهورها
عادى
##حاول
ولش
وعاصم
احضان
##لتا
والجودة
شاهدت
تكتبه
ترانيم
##طرد
##ذارات
الابلاغ
معلقا
##raft
القسري
الدقايق
بشتى
والرسم
الطرفان
واليابان
للفرد
يخطب
للاستمتاع
يرسم
ye
رمان
التاني
اعناق
ميست
يطول
عشاير
وتجديد
المنهجية
وتربية
تجسيم
يسري
والاراضي
ادخلت
جيوش
يامن
للرياض
الحصن
##لكس
وفقدان
توجهات
نصا
للفكر
فهمه
لعموم
jpg
گفت
بالمواد
##رهيب
الاستشاري
vbulletin
linux
الجولد
واصفا
ومقر
ويغفر
حميدة
##هاش
النواة
##افود
واسلام
والفلل
خيوط
دانا
##قدين
الوعود
يعذب
للتراث
الموذن
والتعلم
ايجي
تقصير
والحوادث
سبقه
التشاد
برلمانية
جليا
##اطات
كهذا
##اكس
اناث
ومرا
منتظمة
سمرة
dev
يجدوا
يشتمل
خياطة
مذاهب
محالة
##ense
ثقيل
##right
بعبدا
وقرى
تقدموا
الساكنة
الالتهاب
الجبس
النحر
نصت
المخلصين
mana
مهاجر
##ثري
##ستريم
##ديلا
وانعكاس
القرنين
قادما
والمكاني
للتاريخ
تجسيد
تباعا
الازهار
مفادها
الشيباني
##گو
السميع
للتسويق
